{
  "version": "1.0",
  "truncation": null,
  "padding": null,
  "added_tokens": [
    {
      "id": 0,
      "content": "[UNK]",
      "single_word": false,
      "lstrip": false,
      "rstrip": false,
      "normalized": false,
      "special": true
    },
    {
      "id": 1,
      "content": "[SEP]",
      "single_word": false,
      "lstrip": false,
      "rstrip": false,
      "normalized": false,
      "special": true
    },
    {
      "id": 2,
      "content": "[PAD]",
      "single_word": false,
      "lstrip": false,
      "rstrip": false,
      "normalized": false,
      "special": true
    },
    {
      "id": 3,
      "content": "[CLS]",
      "single_word": false,
      "lstrip": false,
      "rstrip": false,
      "normalized": false,
      "special": true
    },
    {
      "id": 4,
      "content": "[MASK]",
      "single_word": false,
      "lstrip": false,
      "rstrip": false,
      "normalized": false,
      "special": true
    }
  ],
  "normalizer": null,
  "pre_tokenizer": {
    "type": "WhitespaceSplit"
  },
  "post_processor": null,
  "decoder": null,
  "model": {
    "type": "BPE",
    "dropout": null,
    "unk_token": null,
    "continuing_subword_prefix": null,
    "end_of_word_suffix": null,
    "fuse_unk": false,
    "vocab": {
      "[UNK]": 0,
      "[SEP]": 1,
      "[PAD]": 2,
      "[CLS]": 3,
      "[MASK]": 4,
      "0": 5,
      "1": 6,
      "2": 7,
      "3": 8,
      "4": 9,
      "5": 10,
      "6": 11,
      ":": 12,
      "A": 13,
      "B": 14,
      "C": 15,
      "D": 16,
      "E": 17,
      "F": 18,
      "G": 19,
      "H": 20,
      "I": 21,
      "K": 22,
      "L": 23,
      "M": 24,
      "N": 25,
      "O": 26,
      "P": 27,
      "Q": 28,
      "R": 29,
      "S": 30,
      "T": 31,
      "U": 32,
      "V": 33,
      "W": 34,
      "Y": 35,
      "Z": 36,
      "_": 37,
      "_C": 38,
      ":C": 39,
      "_O": 40,
      "_N": 41,
      "_C_C": 42,
      "2_": 43,
      "1_": 44,
      "_CD": 45,
      "_C:C": 46,
      "_C:C_C_C": 47,
      "_CA": 48,
      "_CG": 49,
      ":C_N": 50,
      "_CE": 51,
      ":N": 52,
      "4_C:C_C_C": 53,
      "_CD2": 54,
      "D1": 55,
      ":O": 56,
      "_CB": 57,
      ":C_N_CA": 58,
      "_O:C_N_CA": 59,
      "1:C": 60,
      "1_O": 61,
      "2_6": 62,
      "_O_C": 63,
      "_CG2": 64,
      "D2": 65,
      "1_4_C:C_C_C": 66,
      "_CZ": 67,
      "E2": 68,
      "_CE2": 69,
      "_N:C_N": 70,
      "1_6": 71,
      "2_4_C:C_C_C": 72,
      "_N:C_N_C": 73,
      ":CG": 74,
      "_CD1": 75,
      "_CE1": 76,
      "_OD2": 77,
      "_C:N": 78,
      ":C_O_C": 79,
      "H2": 80,
      "_S": 81,
      ":CB": 82,
      "_C:N_C_C": 83,
      "_OD1": 84,
      "_CD1:C": 85,
      "1_N": 86,
      ":CE": 87,
      "1_4": 88,
      "_CD2:C": 89,
      ":N_CA": 90,
      ":N_CA_C": 91,
      "2_6_C:C_C_C": 92,
      "2_1_O": 93,
      "2_4": 94,
      "_O:C_O_C": 95,
      "1_CG2": 96,
      "_OG": 97,
      "_SD": 98,
      "_NE": 99,
      "D1_CE1": 100,
      "_OE": 101,
      ":OD1": 102,
      "_CD2_CB": 103,
      "_CD2:CD1": 104,
      "_CD2:CD1_CD2_CB": 105,
      "L_CD2:CD1_CD2_CB": 106,
      "1_1_O": 107,
      "_CG2:CG": 108,
      "1_3": 109,
      "1_6_C:C_C_C": 110,
      "_ND2": 111,
      "1:CA": 112,
      ":O_O": 113,
      "L_CD1:C": 114,
      "B_CD1": 115,
      "L_CD1:CB_CD1": 116,
      "L_CD1:CB_CD1_CD2": 117,
      "_CA:N_CA_C": 118,
      "G_CA:N_CA_C": 119,
      "E2_CD2": 120,
      ":CZ": 121,
      "2_3": 122,
      ":CB_CG": 123,
      "_C:O": 124,
      "A_CB": 125,
      "_C:C_C": 126,
      "_CE1:C": 127,
      "_CE1:CD1_CE1": 128,
      "_CE1:CD1_CE1_CZ": 129,
      ":CB_OD1": 130,
      "_OD1:CB_OD1": 131,
      "_C:O_C_C": 132,
      "1_CG2_CA": 133,
      "_CG2:CG1_CG2_CA": 134,
      "V_CG2:CG1_CG2_CA": 135,
      ":N_N": 136,
      ":O_O_O": 137,
      "R_N": 138,
      "H1_N": 139,
      "H1_NH2": 140,
      "D_OD2": 141,
      "_OD2_CB": 142,
      ":OD1_OD2_CB": 143,
      "D_OD2:OD1_OD2_CB": 144,
      "G_O:C_N_CA": 145,
      "_CE2_CD2": 146,
      "_CE2:CZ": 147,
      "_CE2:CZ_CE2_CD2": 148,
      ":N_O_C": 149,
      ":O_O_C": 150,
      "1_OE2": 151,
      "H_CE2": 152,
      "H:CE": 153,
      "Y_O": 154,
      "1_OH_CE2": 155,
      "H:CE1_OH_CE2": 156,
      "Y_OH:CE1_OH_CE2": 157,
      "_OG1": 158,
      ":CD": 159,
      "E2_CD2_CG": 160,
      "_F": 161,
      "_NE2": 162,
      "1_4_N:C_N_C": 163,
      "_CG1_CG2": 164,
      "_CG1:CA": 165,
      "_CG1:CA_CG1_CG2": 166,
      "V_CG1:CA_CG1_CG2": 167,
      "G_CD1": 168,
      "_CD1:CG_CD1": 169,
      "_CD1:CG_CD1_CE1": 170,
      "A_CB:N_CA_C": 171,
      "_CH2": 172,
      "2_4_N:C_N_C": 173,
      ":N_N_C": 174,
      "2_1": 175,
      "_CZ2": 176,
      "1:CG": 177,
      "_OE1:CG": 178,
      "_OE1:CG_OE": 179,
      "_CB_CA": 180,
      "_CG:CB_CG": 181,
      "_CZ3": 182,
      "1_CZ": 183,
      "F_CZ": 184,
      ":CE1_CZ": 185,
      "F_CZ:CE1_CZ": 186,
      "F_CZ:CE1_CZ_CE2": 187,
      "D_OD1:CB_OD1": 188,
      "D_OD1:CB_OD1_OD2": 189,
      "1_CD1": 190,
      "_CD2:CE2_CD2_CG": 191,
      "F_CE1:CD1_CE1_CZ": 192,
      ":CG_SD": 193,
      "_CD:CG": 194,
      "_CD:CG_CD": 195,
      "1_4_C:N_C_C": 196,
      "2_6_N:C_N_C": 197,
      ":NE": 198,
      "2_6_C:C_C": 199,
      "T_OG": 200,
      "T_OG1:CA": 201,
      "_CG2_OG1": 202,
      "T_OG1:CA_CG2_OG1": 203,
      "R_NH2": 204,
      ":NH1_NH2": 205,
      "R_NH2:NH1_NH2": 206,
      "R_NH2:NH1_NH2_NE": 207,
      "2_6_O:C_O_C": 208,
      "1_1": 209,
      "I_CG2": 210,
      "I_CG2:CB_CG": 211,
      "I_CG2:CB_CG1_CD1": 212,
      "2_4_C:N_C_C": 213,
      "1_2": 214,
      "Y_CE1:CD1_CE1_CZ": 215,
      "2_6_O": 216,
      "F_CE2:CZ_CE2_CD2": 217,
      "_P": 218,
      "2_1_O:O_O_O": 219,
      "E_O": 220,
      "E_OE2": 221,
      "E1_OE2": 222,
      ":OE1_OE2": 223,
      "E_OE2:OE1_OE2": 224,
      "E_OE2:OE1_OE2_CG": 225,
      "_N:N_N_C": 226,
      "_NZ": 227,
      ":NE_N": 228,
      "R_NH": 229,
      "1:NE_N": 230,
      "R_NH1:NE_N": 231,
      "R_NH1:NE_NH1_NH2": 232,
      "Y_CE2:CZ_CE2_CD2": 233,
      "N_OD1:CB_OD1": 234,
      "N_OD1:CB_OD1_ND2": 235,
      "2_2": 236,
      "N_ND2": 237,
      ":OD1_ND2": 238,
      "N_ND2:OD1_ND2": 239,
      "N_ND2:OD1_ND2_CB": 240,
      "2_1_O:C_O_C": 241,
      "_L": 242,
      "A_O:C_N_CA": 243,
      "1_6_O:C_O_C": 244,
      "2_1_O:O_O_C": 245,
      "G_CB_CA": 246,
      ":C_O": 247,
      "F_CD1:CG_CD1_CE1": 248,
      "1_6_N:C_N_C": 249,
      "_C_N": 250,
      "S_O:C_N_CA": 251,
      "3_CZ3": 252,
      "M_SD": 253,
      ":CG_SD_SD": 254,
      "M_SD:CG_SD_SD": 255,
      "_OE1:CG_OE1_OE2": 256,
      "E_OE1:CG_OE1_OE2": 257,
      "L_O:C_N_CA": 258,
      ":CA_CB": 259,
      "_CB:CA_CB": 260,
      "1_6_O": 261,
      "_CB:CA_CB_CG": 262,
      "1_6_C:C_C": 263,
      "2_1_C:C_C_C": 264,
      "H_NE2": 265,
      "1_NE2_CD2": 266,
      ":CE1_NE2_CD2": 267,
      "H_NE2:CE1_NE2_CD2": 268,
      "_CG:CB_CG_CD": 269,
      "2_1_": 270,
      "_C:N_C_N": 271,
      "K_CD:CG_CD": 272,
      "I_O:C_N_CA": 273,
      "S_OG": 274,
      ":OG_CB_CA": 275,
      "S_OG:OG_CB_CA": 276,
      "Y_CD1:CG_CD1_CE1": 277,
      "K_CE": 278,
      ":CD_CE": 279,
      "K_CE:CD_CE": 280,
      "K_CD:CG_CD_CE": 281,
      "K_CE:CD_CE_NZ": 282,
      "1_1_O:O_O_O": 283,
      "1_1_O:C_O_C": 284,
      "_OG1_CA": 285,
      "2_OG1_CA": 286,
      "_CG2:CG2_OG1_CA": 287,
      "T_CG2:CG2_OG1_CA": 288,
      "D_O:C_N_CA": 289,
      "F_CD2:CE2_CD2_CG": 290,
      "2_1_O:N_O_C": 291,
      ":ND1_CE1": 292,
      "_CE1:ND1_CE1": 293,
      "_CE1:ND1_CE1_NE2": 294,
      "H_CE1:ND1_CE1_NE2": 295,
      "Y_CD2:CE2_CD2_CG": 296,
      "1_3_C:N_C_C": 297,
      "V_O:C_N_CA": 298,
      "1_1_O:O_O_C": 299,
      "1_1_C:C_C_C": 300,
      "_N:C_N_N": 301,
      "E_O:C_N_CA": 302,
      "M_CG:CB_CG": 303,
      "M_CG:CB_CG_SD": 304,
      "T_O:C_N_CA": 305,
      "_F_C": 306,
      ":N_N_N": 307,
      "Q_OE1:CG_OE": 308,
      "1_NE2": 309,
      "Q_OE1:CG_OE1_NE2": 310,
      "1_1_": 311,
      "1_3_C:C_C_C": 312,
      "_O:C_O": 313,
      "2_3_C:N_C_C": 314,
      "2_1_N": 315,
      "_CG_CB": 316,
      "_CG:CD": 317,
      "_CG:CD_CG_CB": 318,
      "P_CG:CD_CG_CB": 319,
      "R_CD:CG_CD": 320,
      "R_CD:CG_CD_NE": 321,
      "2_6_C:C_C_N": 322,
      ":O_O_N": 323,
      "3_CH2": 324,
      "W_CH2": 325,
      ":CZ3_CH2": 326,
      "W_CH2:CZ3_CH2": 327,
      "W_CH2:CZ3_CH2_CZ2": 328,
      ":F": 329,
      "1_3_C:O_C_C": 330,
      "R_NE": 331,
      ":CD_NE": 332,
      "R_NE:CD_NE": 333,
      "P_CB": 334,
      ":CG_CB_CA": 335,
      "P_CB:CG_CB_CA": 336,
      "R_NE:CD_NE_CZ": 337,
      "W_CZ3": 338,
      ":CE3_CZ3": 339,
      "W_CZ3:CE3_CZ3": 340,
      "W_CZ3:CE3_CZ3_CH2": 341,
      "1_4_O:C_O_C": 342,
      "1_5": 343,
      "2_3_C:C_C_C": 344,
      ":C_F_C": 345,
      "1_1_N": 346,
      "_L_C": 347,
      "_O:C_O_P": 348,
      "1_1_O:N_O_C": 349,
      "F_O:C_N_CA": 350,
      "2_4_O:C_O_C": 351,
      ":P": 352,
      "M_CB:CA_CB_CG": 353,
      "W_CZ2": 354,
      ":CH2": 355,
      "_CZ2_CE2": 356,
      "W_CZ2:CH2": 357,
      "W_CZ2:CH2_CZ2_CE2": 358,
      "L:C": 359,
      "_CD2:N": 360,
      "H_CD2:N": 361,
      "H_CD2:NE2_CD2_CG": 362,
      "2_6_O:N_O_C": 363,
      "L:C_L_C": 364,
      "_CD:N": 365,
      "_CD:N_CD": 366,
      "_CD:N_CD_CG": 367,
      "P_CD:N_CD_CG": 368,
      "_F_F": 369,
      "2_1_F": 370,
      "M_CE": 371,
      ":CG_SD_CG": 372,
      "M_CE:CG_SD_CG": 373,
      "R_CG:CB_CG_CD": 374,
      "2_3_C:O_C_C": 375,
      "N_O:C_N_CA": 376,
      "M_O:C_N_CA": 377,
      ":F_F_F": 378,
      "Y_O:C_N_CA": 379,
      "2_5": 380,
      "P_O:C_N_CA": 381,
      "2_6_C:N_C_C": 382,
      "1_6_C:C_C_N": 383,
      ":N_O": 384,
      "1_4_C:O_C_C": 385,
      "K_O:C_N_CA": 386,
      ":C_S": 387,
      "K_CG:CB_CG_CD": 388,
      "3:C": 389,
      "W_CE": 390,
      "_CE3_CZ3": 391,
      "D2_CE3_CZ3": 392,
      "3:CD2_CE3_CZ3": 393,
      "W_CE3:CD2_CE3_CZ3": 394,
      "1_2_C:C_C_C": 395,
      "K_CB:CA_CB_CG": 396,
      "R_O:C_N_CA": 397,
      ":O_N": 398,
      ":P_O": 399,
      ":N_O_N": 400,
      "_N:N_N_N": 401,
      "_O:P_O": 402,
      "S:C_S": 403,
      "1_CD2": 404,
      "W_NE": 405,
      "1:CE2": 406,
      "_NE1_CD2": 407,
      "W_NE1:CE2": 408,
      "W_NE1:CE2_NE1_CD2": 409,
      "1_6_O:N_O_C": 410,
      "1_1_F": 411,
      "_ND1": 412,
      "H_ND1": 413,
      "H_ND1:CG": 414,
      "_ND1_CE1": 415,
      "H_ND1:CG_ND1_CE1": 416,
      ":S": 417,
      "_O:P_O_P": 418,
      "1_2_N:C_N_C": 419,
      "2_2_C:C_C_C": 420,
      "S:C_S_C": 421,
      "1_4_C:N_C_N": 422,
      "2_4_C:O_C_C": 423,
      "_CG1": 424,
      "D1_CG1": 425,
      "D1_CG1_CB": 426,
      "_CD1:CD1_CG1_CB": 427,
      "I_CD1:CD1_CG1_CB": 428,
      "2_2_N:C_N_C": 429,
      "2_1_N:N_N_C": 430,
      "1_CG": 431,
      "Q_NE2": 432,
      ":NE2": 433,
      "_OE1_CG": 434,
      "Q_NE2:NE2": 435,
      "Q_NE2:NE2_OE1_CG": 436,
      "C_O:C_N_CA": 437,
      ":O_N_C": 438,
      "2_6_N:N_N_C": 439,
      "2_6_N:C_N_N": 440,
      "K_NZ": 441,
      "Z_CE": 442,
      ":NZ_CE": 443,
      "K_NZ:NZ_CE": 444,
      "K_NZ:NZ_CE_CD": 445,
      "2_4_C:N_C_N": 446,
      "Q_O:C_N_CA": 447,
      "1_3_O:C_O_C": 448,
      "2_S:C_S_C": 449,
      "1_6_C:N_C_C": 450,
      "2_3_O:C_O_C": 451,
      "2_1_L:C_L_C": 452,
      "2_6_C:C_C_S": 453,
      "2_1_O:O_O_N": 454,
      "1_5_N:C_N_C": 455,
      "H_O:C_N_CA": 456,
      "2_6_O:O_O_O": 457,
      "1_6_N:N_N_C": 458,
      "W_CD1": 459,
      "1_CD1_CG": 460,
      ":NE1_CD1_CG": 461,
      "W_CD1:NE1_CD1_CG": 462,
      "2_6_C:C_C_L": 463,
      "1_6_N:C_N_N": 464,
      "1_1_N:N_N_C": 465,
      "2_1_C:N_C_C": 466,
      "2_1_F:F_F_F": 467,
      "2_5_N:C_N_C": 468,
      "_N:C_N_S": 469,
      "2_6_O:O_O_C": 470,
      "1_3_N:C_N_C": 471,
      "2_6_C:O_C_C": 472,
      "1_1_O:O_O_N": 473,
      "_C:C_C_S": 474,
      "W_O:C_N_CA": 475,
      "1_3_N:N_N_C": 476,
      "_C_O": 477,
      "1_6_O:O_O_O": 478,
      "2_1_F:C_F_C": 479,
      "1_1_L:C_L_C": 480,
      ":C_O_O": 481,
      "_F:C_F_C": 482,
      "1_6_C:C_C_S": 483,
      "2_6_N:N_N_N": 484,
      "2_3_N:C_N_C": 485,
      "2_1_C:O_C_C": 486,
      "_C:C_C_N": 487,
      "C_S": 488,
      "C_SG": 489,
      ":SG_CB_CA": 490,
      "C_SG:SG_CB_CA": 491,
      "1_1_F:F_F_F": 492,
      "0_C:C_C_C": 493,
      "1_6_O:O_O_C": 494,
      "2_3_N:N_N_C": 495,
      "2_6_C:C_C_O": 496,
      "2_1_N:N_N_N": 497,
      "_N:O_N_C": 498,
      "1_1_C:N_C_C": 499,
      "1_3_O:C_O_P": 500,
      "1_1_F:C_F_C": 501,
      "_C:S": 502,
      "1_6_C:C_C_L": 503,
      "2_2_S:C_S_C": 504,
      "2_1_O:N_O_N": 505,
      "1_6_C:O_C_C": 506,
      "1_2_O:C_O_C": 507,
      "2_3_O:C_O_P": 508,
      "2_3_O:P_O_P": 509,
      "1_2_S:C_S_C": 510,
      "1_1_C:O_C_C": 511,
      "2_2_O:C_O_C": 512,
      "1_3_O:P_O_P": 513,
      "1_6_N:N_N_N": 514,
      ":C_O_N": 515,
      "_C:O_C_N": 516,
      "1_6_C:C_C_O": 517,
      "1_1_N:N_N_N": 518,
      "1_1_O:N_O_N": 519,
      "_C:O_C_O": 520,
      "2_6_F:C_F_C": 521,
      "2_1_N:C_N_C": 522,
      "1_1_N:N": 523,
      "1_1_N:N_C_C": 524,
      "_N:N_N": 525,
      "2_0_C:C_C_C": 526,
      "2_1_O:C_O_O": 527,
      "2_1_N:O_N_C": 528,
      "1_5_C:C_C_C": 529,
      ":F_F_C": 530,
      "1_5_C:N_C_C": 531,
      "1_6_F:C_F_C": 532,
      "1_0_C:C_C_C": 533,
      "_N:C_N_O": 534,
      "1_4_N:N_N_C": 535,
      "_F:F_F_F": 536,
      "2_5_C:C_C_C": 537,
      "_N:N_N_S": 538,
      "1_1_N:C_N_C": 539,
      "2_6_O:O_O_N": 540,
      "_O:N_O_C": 541,
      "2_4_N:N_N_C": 542,
      "1_1_N:O_N_C": 543,
      "2_6_O:N_O_N": 544,
      "1_3_C:C_C_S": 545,
      "2_1_C:S": 546,
      "2_0": 547,
      "1_1_C:S": 548,
      "2_5_C:N_C_C": 549,
      "1_2_O:C_O_P": 550,
      "1_1_O:C_O_O": 551,
      "1_6_O:O_O_N": 552,
      "_C:C_C_O": 553,
      "1_4_O:C_O_P": 554,
      ":O_N_O": 555,
      "2_4_O:C_O_P": 556,
      "1_2_C:N_C_C": 557,
      "2_2_C:N_C_C": 558,
      "2_3_C:C_C_S": 559,
      "2_2_O:C_O_P": 560,
      "1_6_O:N_O_N": 561,
      "2_1_O:C_O_N": 562,
      "1_0": 563,
      "1_4_C:C_C_N": 564,
      "_O:C_O_O": 565,
      "_B": 566,
      "1_5_O:C_O_C": 567,
      "2_1_C:O_C_N": 568,
      "2_4_C:C_C_N": 569,
      "_C:P": 570,
      "_S:C_S": 571,
      "2_6_N:N_N_S": 572,
      "2_6_F:F_F_F": 573,
      ":N_O_O": 574,
      "2_6_N:C_N_S": 575,
      "2_6_N:O_N_C": 576,
      "1_1_O:C_O_N": 577,
      "1_4_N:C_N_S": 578,
      ":N_S": 579,
      "2_4_N:C_N_S": 580,
      "2_1_N:O_N_O": 581,
      "2_5_O:C_O_C": 582,
      "1_3_C:N_C_N": 583,
      "2_1_F:F_F_C": 584,
      "2_1_C:O_C_O": 585,
      "_C:N_C": 586,
      "1_6_F:F_F_F": 587,
      "1_1_C:O_C_N": 588,
      "2_3_N:C_N_S": 589,
      "2_1_C:S_C_O": 590,
      "_P_O": 591,
      "1_3_N:C_N_S": 592,
      ":O_O_P": 593,
      "1_1_C:S_C_O": 594,
      "_C:F": 595,
      "2_3_C:N_C_N": 596,
      "1_4_C:C_C_S": 597,
      "1_6_N:N_N_S": 598,
      "_O:C_O_S": 599,
      "1_1_F:F_F_C": 600,
      ":P_N": 601,
      "_N:P_N": 602,
      "2_1_S:C_S_C": 603,
      ":P_O_C": 604,
      ":N_L_C": 605,
      "S:N_S": 606,
      "_N:P_N_P": 607,
      "_O:O_O_P": 608,
      "2_4_C:C_C_S": 609,
      "1_6_N:O_N_C": 610,
      ":O_N_N": 611,
      "_C:N_C_S": 612,
      "1_6_N:C_N_S": 613,
      "1_4_N:C_N_N": 614,
      "1_4_O:N_O_C": 615,
      "L:N_L_C": 616,
      "2_1_C:C_C_N": 617,
      "_P:O": 618,
      "1_3_N:C_N_N": 619,
      "_CB:CA_CB_CA": 620,
      "1_1_C:O_C_O": 621,
      "1_1_S:C_S_C": 622,
      "2_5_O:P_O_P": 623,
      "_C:F_C_C": 624,
      "2_6_O:C_O_O": 625,
      "2_4_N:C_N_N": 626,
      "_O:O_O_C": 627,
      "1_3_N:O_N_C": 628,
      "_C:S_C_C": 629,
      "1_2_N:N_N_C": 630,
      "2_6_C:N_C_N": 631,
      "2_3_N:C_N_N": 632,
      "2_4_O:P_O_P": 633,
      "1_1_N:O_N_O": 634,
      "_C:N_C_O": 635,
      "2_6_N:C_N_O": 636,
      "1_4_O:P_O_P": 637,
      "1_5_O:P_O_P": 638,
      "1_6_O:C_O_O": 639,
      ":C_O_P": 640,
      "1_2_C:O_C_C": 641,
      "S:C_S_N": 642,
      "L:C_L": 643,
      "_O:C_O_N": 644,
      "K_CB:CA_CB_CA": 645,
      "1_4_N:O_N_C": 646,
      "_S:C_S_C": 647,
      "2_2_N:N_N_C": 648,
      "1_1_C:C_C_N": 649,
      "2_1_C:S_C_N": 650,
      "_C:P_C_C": 651,
      "2_1_O:N_O_O": 652,
      "2_6_O:C_O_N": 653,
      "1_1_C:S_C_N": 654,
      "_F:F_F_C": 655,
      "_P:P": 656,
      "2_4_N:O_N_C": 657,
      "2_3_N:O_N_C": 658,
      "2_2_C:O_C_C": 659,
      "1_5_C:N_C_N": 660,
      "2_1_C:N_C_N": 661,
      "2_4_O:N_O_C": 662,
      "1_6_C:N_C_N": 663,
      "1_6_O:C_O_N": 664,
      "_C_P": 665,
      "1_2_": 666,
      "_N:N_N_O": 667,
      ":L": 668,
      ":N_N_S": 669,
      "1_6_N:C_N_O": 670,
      ":O_L_C": 671,
      "_N:C_N_P": 672,
      "_O:P_O_O": 673,
      "1_3_N:N_N_N": 674,
      ":O_S": 675,
      "_P_C": 676,
      ":B": 677,
      "S:N_S_N": 678,
      "_P:P_P_O": 679,
      ":C_F_F": 680,
      "L:O_L_C": 681,
      "_O:P_O_C": 682,
      "2_1_L:N_L_C": 683,
      "2_3_N:N_N_N": 684,
      "K_CD:CG_CD_CD": 685,
      "2_5_C:N_C_N": 686,
      "2_2_": 687,
      "1_3_C:C_C_N": 688,
      "1_1_O:N_O_O": 689,
      "_P:O_P_O": 690,
      "_O:S": 691,
      "2_6_C:C_C_P": 692,
      "1_2_N:C_N_N": 693,
      "1_1_C:N_C_N": 694,
      "1_2_O:C_O_O": 695,
      ":N_F_C": 696,
      "1_1_C:S_C_C": 697,
      "_N:C_N_L": 698,
      "2_1_C:S_C_C": 699,
      "2_2_C:O_C_O": 700,
      "1_2_C:O_C_O": 701,
      "1_4_N:N_N_N": 702,
      "1_6_C:C_C_P": 703,
      "2_4_N:C_N_O": 704,
      "2_2_O:C_O_O": 705,
      "2_3_N:P_N_P": 706,
      "1_4_N:C_N_O": 707,
      "2_1_C:C_C_O": 708,
      "2_1_N:C_N_N": 709,
      "_F_O": 710,
      "_L:C": 711,
      "2_4_N:N_N_N": 712,
      "2_2_N:C_N_N": 713,
      "_N:O_N_N": 714,
      "2_1_L:C_L": 715,
      "_S:C_S_S": 716,
      "_O_O": 717,
      "_C:P_C_O": 718,
      ":N_O_S": 719,
      "2_3_C:C_C_N": 720,
      "S:N_S_C": 721,
      "2_6_O:C_O_P": 722,
      "1_3_N:P_N_P": 723,
      "2_1_S:C_S_N": 724,
      "1_6_O:C_O_P": 725,
      ":C_O_S": 726,
      "1_1_L:N_L_C": 727,
      "S:C_S_O": 728,
      "_C:P_C_P": 729,
      "2_1_C:C_C_S": 730,
      "_L:C_L_C": 731,
      "1_1_S:C_S_N": 732,
      "2_1_N:N_N_S": 733,
      "2_6_O:P_O": 734,
      ":O_O_S": 735,
      "2_0_P:P_P_O": 736,
      "2_6_N:N_N_O": 737,
      "1_1_C:C_C_O": 738,
      "1_2_O:O_O_P": 739,
      "1_6_F:F_F_C": 740,
      "_O_N": 741,
      "2_6_C:O_C_O": 742,
      "2_1_S:N_S_N": 743,
      "1_1_N:C_N_N": 744,
      "2_6_F:F_F_C": 745,
      "S:O_S": 746,
      "2_1_N:O_N_N": 747,
      "1_1_L:C_L": 748,
      "1_4_O:C_O_S": 749,
      "1_6_O:P_O": 750,
      "_F_N": 751,
      "_P:O_P_C": 752,
      "2_6_C:C_C_F": 753,
      "1_4_C:O_C_N": 754,
      ":O_F_C": 755,
      "1_3_O:N_O_C": 756,
      "_P:C": 757,
      "2_6_C:N_C_O": 758,
      "_S:N_S": 759,
      "2_6_O:P_O_C": 760,
      "2_2_O:O_O_P": 761,
      "2_0_C:C_C_O": 762,
      "2_6_C:O_C_N": 763,
      "2_6_N:C_N_L": 764,
      "1_1_C:C_C_S": 765,
      "2_0_C:S_C_C": 766,
      "1_6_C:O_C_N": 767,
      "1_6_C:O_C_O": 768,
      "_O:N_O_N": 769,
      "1_6_O:P_O_C": 770,
      "1_6_N:N_N_O": 771,
      "2_4_O:C_O_S": 772,
      "1_2_N:O_N_C": 773,
      ":F_F_O": 774,
      "_C:C_C_L": 775,
      "_S:O_S": 776,
      "_C:O_C_P": 777,
      "_C_F": 778,
      "1_2_O:N_O_C": 779,
      "_S:C_S_L": 780,
      "2_0_C:C_C_N": 781,
      "_B_B": 782,
      "_N_C": 783,
      "1_1_N:O_N_N": 784,
      "_C:B": 785,
      "_O:S_O_C": 786,
      "_S:N_S_C": 787,
      "2_1_L:O_L_C": 788,
      "2_1_L:C_L_S": 789,
      "1_2_F": 790,
      "1_3_C:O_C_N": 791,
      "1_1_N:N_N_S": 792,
      "1_2_O:O_O_C": 793,
      "_C:L": 794,
      "_B:B": 795,
      "1_6_C:N_C_O": 796,
      "2_3_O:N_O_C": 797,
      "2_6_S:C_S_S": 798,
      "1_6_F": 799,
      "K_CG:CB_CG": 800,
      "K_CG:CB_CG_CG": 801,
      "2_6_F": 802,
      "2_6_N:O_N_N": 803,
      "_C:N_C_P": 804,
      "1_0_C:C_C_O": 805,
      "2_4_C:O_C_N": 806,
      "2_6_C:F_C_C": 807,
      "1_4_C:N_C_S": 808,
      "_C:F_C_F": 809,
      "1_4_O:C_O_O": 810,
      "2_4_O:C_O_O": 811,
      "_B:B_B_B": 812,
      "1_6_C:C_C_F": 813,
      "1_0_C:C_C_N": 814,
      "1_2_C:C_C_N": 815,
      "1_1_S:N_S_N": 816,
      "1_0_C:S_C_C": 817,
      "1_2_C:C_C_O": 818,
      "_C_B": 819,
      "S:O_S_O": 820,
      "2_5_O:C_O_P": 821,
      "2_1_S:C_S_O": 822,
      "_C:B_C_B": 823,
      "1_6_N:O_N_N": 824,
      ":O_O_F": 825,
      "1_5_O:C_O_P": 826,
      "2_6_N": 827,
      "2_1_C:N_C_S": 828,
      "1_6_S:C_S_S": 829,
      "2_2_C:C_C_O": 830,
      "1_1_L:O_L_C": 831,
      "2_2_C:C_C_N": 832,
      "1_6_N:C_N_L": 833,
      "2_1_C:P_C_O": 834,
      "2_2_F": 835,
      "2_1_F:C_F_F": 836,
      "1_3_O:C_O_S": 837,
      "2_2_O:N_O_C": 838,
      ":N_N_O": 839,
      "2_2_N:O_N_C": 840,
      "2_2_O:O_O_C": 841,
      "2_6_C:C_C_B": 842,
      "1_1_S:C_S_O": 843,
      "1_6_C:F_C_C": 844,
      "2_6_S:C_S_C": 845,
      "2_6_C:P_C_C": 846,
      "1_4_C:C_C_O": 847,
      ":O_F_F": 848,
      "_C:L_C_C": 849,
      "2_6_C:S_C_C": 850,
      "2_6_O:P_O_P": 851,
      "2_3_O:C_O_S": 852,
      "1_3_N:C_N_P": 853,
      "2_1_F:N_F_C": 854,
      "2_2_O:P_O_C": 855,
      "1_1_L:C_L_S": 856,
      ":C_F_O": 857,
      "1_6_N": 858,
      ":S_O_C": 859,
      "2_6_P:C": 860,
      "2_1_C:P_C_C": 861,
      "1_1_C:P_C_C": 862,
      "2_2_O:P_O_O": 863,
      "1_2_O:P_O_C": 864,
      "2_4_C:C_C_O": 865,
      "1_2_O:P_O_O": 866,
      ":N_O_P": 867,
      "2_1_O:F": 868,
      "_S:O_S_C": 869,
      "2_0_S:C_S_C": 870,
      "1_2_N:C_N_O": 871,
      "1_6_O:P_O_P": 872,
      "1_1_C:P_C_O": 873,
      "1_2_C:C_C_S": 874,
      "2_4_C:N_C_S": 875,
      "_L_N": 876,
      "2_2_N:C_N_O": 877,
      ":C_F_N": 878,
      "2_6_P:O_P_C": 879,
      "2_6_P:O_P_O": 880,
      "1_2_O:C_O_N": 881,
      "2_3_N:C_N_P": 882,
      "1_0_P:P_P_O": 883,
      "2_6_S:C_S_L": 884,
      "1_1_F:C_F_F": 885,
      "2_2_C:C_C_S": 886,
      "2_6_O:P_O_O": 887,
      "_L:N_L_C": 888,
      "2_6_S:N_S_C": 889,
      "1_6_L:C_L_C": 890,
      "_P_N": 891,
      "L:N": 892,
      "2_1_O:N_O_S": 893,
      "2_6_O:C_O_S": 894,
      "M_CB:CA_CB_CA": 895,
      "2_6_L:C_L_C": 896,
      "1_1_F:N_F_C": 897,
      "1_6_S:C_S_C": 898,
      "_C_S": 899,
      "_O:S_O_O": 900,
      "1_6_C:P_C_C": 901,
      "_O:O_O_S": 902,
      "_O:N_O_P": 903,
      "2_6_C:B_C_B": 904,
      "1_4_O:N_O_N": 905,
      "2_3_P:O_P_O": 906,
      "1_1_O:F": 907,
      "2_2_O:C_O_N": 908,
      "2_1_F:F_F_O": 909,
      "1_3_N:C_N_O": 910,
      "2_6_C:O_C_P": 911,
      "1_1_C:N_C_S": 912,
      "1_3_C:F_C_C": 913,
      "2_1_S:N_S_C": 914,
      "_C:P_C_N": 915,
      "2_6_C:P_C_P": 916,
      "2_1_S:O_S_O": 917,
      "_C:C_C_B": 918,
      "1_3_O:C_O_N": 919,
      "1_0_S:C_S_C": 920,
      "1_6_P:O_P_C": 921,
      "2_6_O:N_O_O": 922,
      "1_6_C:S_C_C": 923,
      "1_6_O:P_O_O": 924,
      "L:N_L_N": 925,
      "1_1_C:C": 926,
      "2_1_F:O_F_C": 927,
      "2_3_C:O_C_N": 928,
      "2_3_N:C_N_O": 929,
      "K_CE:CD_CE_CE": 930,
      "1_6_C:C_C_B": 931,
      "1_6_P:C": 932,
      "2_1_O:O_O_S": 933,
      "1_6_P:O_P_O": 934,
      "2_3_O:C_O_N": 935,
      "2_5_O:C_O_O": 936,
      "1_2_F:C_F_C": 937,
      "1_6_O:C_O_S": 938,
      "1_6_C:O_C_P": 939,
      "2_1_O:O_O_F": 940,
      "_B_C": 941,
      "1_6_N:C_N_P": 942,
      "2_6_B:B_B_B": 943,
      "1_5_O:C_O_O": 944,
      "_O:P_O_N": 945,
      ":N_F_N": 946,
      "2_6_N:C_N_P": 947,
      "R_CG:CB_CG": 948,
      "R_CG:CB_CG_CA": 949,
      "1_6_B:B_B_B": 950,
      "1_6_S:C_S_L": 951,
      "2_1_C:N_C_O": 952,
      "1_2_S:N_S_C": 953,
      "1_6_C:N_C_P": 954,
      "2_6_C:N_C_P": 955,
      "1_6_O:N_O_O": 956,
      "2_1_N:N_N_O": 957,
      ":F_N_C": 958,
      "2_0_C:N_C_C": 959,
      ":S_N": 960,
      "_C:O_C_S": 961,
      "1_1_O:N_O_S": 962,
      "_I": 963,
      "1_1_C:C_O_C": 964,
      "2_0_C:O_C_C": 965,
      "_O:C_O_L": 966,
      "2_3_C:F_C_C": 967,
      "2_2_S:N_S_C": 968,
      "_P:P_P_C": 969,
      "1_6_S:N_S_C": 970,
      "2_4_O:N_O_N": 971,
      "1_5_O:O_O_C": 972,
      "1_6_C:P_C_P": 973,
      "1_5_N:N_N_N": 974,
      "2_6_O:N_O_S": 975,
      "2_1_L:C_L_N": 976,
      "1_4_O:O_O_P": 977,
      "1_2_L:C_L_C": 978,
      "2_5_N:N_N_N": 979,
      "_S:C_S_N": 980,
      ":G": 981,
      "_F:G": 982,
      "_F:G_F_F": 983,
      "1_1_F:O_F_C": 984,
      "1_3_C:C_C_O": 985,
      "1_0_C:N_C_C": 986,
      "2_1_F:O_F_F": 987,
      ":L_O_C": 988,
      "2_4_C:C_C_L": 989,
      "_O:C_O_F": 990,
      "1_1_F:F_F_O": 991,
      "2_1_O:C_O_S": 992,
      "1_4_C:C_C_L": 993,
      "_N:P_N_C": 994,
      "1_5_O:O_O_P": 995,
      "2_2_F:C_F_C": 996,
      "_S:O_S_O": 997,
      "2_1_N:C_N_O": 998,
      "1_4_O:O_O_C": 999,
      "_N:C_N_F": 1000,
      "S:O_S_C": 1001,
      "2_2_N:C_N_S": 1002,
      ":S_N_C": 1003,
      "1_3_P:O_P_O": 1004,
      "_N:N_N_L": 1005,
      "1_4_O:C_O_N": 1006,
      "_E": 1007,
      "2_2_L:C_L_C": 1008,
      "2_6_F:N_F_C": 1009,
      "R_CD:CG_CD_CD": 1010,
      "_F:C_F_F": 1011,
      "1_2_N:C_N_S": 1012,
      "_S:C_S_O": 1013,
      "1_1_O:O_O_F": 1014,
      "2_3_C:C_C_O": 1015,
      "2_4_O:C_O_N": 1016,
      "2_1_L:C_L_O": 1017,
      "1_1_S:N_S_C": 1018,
      "2_4_O:O_O_P": 1019,
      "1_6_F:N_F_C": 1020,
      "1_1_N:N_N_O": 1021,
      ":L_O_N": 1022,
      ":S_O_O": 1023,
      "1_5_N:C_N_S": 1024,
      "1_3_C:N_C_S": 1025,
      "2_0_O:C_O_C": 1026,
      "2_5_O:O_O_P": 1027,
      "1_1_L:C_L_N": 1028,
      "1_0_C:O_C_C": 1029,
      "_O:S_O_N": 1030,
      "_P:O_P_N": 1031,
      "2_6_O:S_O_C": 1032,
      "_C:C_C_F": 1033,
      "2_6_P:C_P_O": 1034,
      "1_0_O:C_O_C": 1035,
      "1_1_C:N_C_O": 1036,
      "1_1_S:O_S_O": 1037,
      "_O:C_O_B": 1038,
      "1_1_O:O_O_S": 1039,
      "1_2_O:S_O_C": 1040,
      "1_6_C:B_C_B": 1041,
      "1_1_F:O_F_F": 1042,
      "2_1_L:N_L_N": 1043,
      "2_6_P:C_P_C": 1044,
      "_B:C": 1045,
      "1_6_O:N_O_S": 1046,
      "1_5_C:O_C_C": 1047,
      "2_3_C:F_C_F": 1048,
      "2_2_O:S_O_C": 1049,
      "2_4_N:P_N_P": 1050,
      "1_2_O": 1051,
      "1_4_C:O_C_O": 1052,
      "1_4_N:P_N_P": 1053,
      "2_5_N:C_N_S": 1054,
      "_P:N": 1055,
      "2_5_O:O_O_C": 1056,
      "2_1_O:F_O_O": 1057,
      "_F:C_F_O": 1058,
      "2_1_C:F_C_C": 1059,
      ":F_O_C": 1060,
      "2_6_L:N_L_C": 1061,
      "1_6_O:S_O_C": 1062,
      "1_4_C:F_C_C": 1063,
      "2_6_C:L_C_C": 1064,
      ":S_N_S": 1065,
      "2_3_C:N_C_S": 1066,
      "1_1_N:C_N_O": 1067,
      "2_4_C:O_C_O": 1068,
      "_C:C_C_P": 1069,
      "1_3_O:O_O_C": 1070,
      "1_2_O:C_O_S": 1071,
      ":L_O_O": 1072,
      "_L:C_L": 1073,
      "_L:O_L_C": 1074,
      "1_6_L:N_L_C": 1075,
      "_U": 1076,
      "1_3_O:C_O_O": 1077,
      "2_4_O:O_O_C": 1078,
      "1_1_L:C_L_O": 1079,
      "1_5_O:C_O_S": 1080,
      "2_1_O:F_O_N": 1081,
      "2_0_F:G_F_F": 1082,
      "2_5_C:O_C_C": 1083,
      "1_2_L:O_L_C": 1084,
      "2_1_S:N_S": 1085,
      "2_4_C:C_C_B": 1086,
      "1_4_C:C_C_B": 1087,
      "2_3_O:C_O_O": 1088,
      "1_6_O:O_O_P": 1089,
      "2_6_C:P_C_O": 1090,
      ":F_N": 1091,
      "2_0_C:P_C_C": 1092,
      "1_1_C:F_C_C": 1093,
      "1_1_O:F_O_O": 1094,
      "2_4_C:P_C_P": 1095,
      ":E": 1096,
      "2_6_O:O_O_P": 1097,
      "2_1_L": 1098,
      "1_1_O:C_O_S": 1099,
      "2_6_S:O_S_C": 1100,
      "1_6_C:L_C_C": 1101,
      "1_3_C:O_C_O": 1102,
      "2_6_N:N_N_L": 1103,
      "2_2_L:O_L_C": 1104,
      "2_2_O": 1105,
      "2_1_F:N_F_N": 1106,
      "1_6_P:C_P_C": 1107,
      "2_6_C:P_C_N": 1108,
      "2_2_O:C_O_S": 1109,
      "1_6_P:C_P_O": 1110,
      ":C_O_F": 1111,
      "_O:S_O": 1112,
      "1_5_C:C_C_O": 1113,
      "2_6_N:P_N_C": 1114,
      ":S_O_N": 1115,
      "1_4_F:C_F_C": 1116,
      "1_1_O:F_O_N": 1117,
      "2_6_P:P_P_C": 1118,
      "1_2_F:C_F_F": 1119,
      "2_0_O:P_O_O": 1120,
      "1_4_C:P_C_P": 1121,
      "2_6_O:P_O_N": 1122,
      "1_1_L:N_L_N": 1123,
      "1_6_C:F_C_F": 1124,
      "2_5_O:C_O_S": 1125,
      "2_4_O:P_O_C": 1126,
      "B:C": 1127,
      "1_1_L": 1128,
      "1_4_S:C_S_C": 1129,
      "2_3_S:C_S_C": 1130,
      "S:C_S_F": 1131,
      "1_5_F:C_F_C": 1132,
      ":L_L_C": 1133,
      "1_3_S:C_S_C": 1134,
      ":N_F_F": 1135,
      "_C_L": 1136,
      ":F_L_C": 1137,
      "2_0_O": 1138,
      "_C:F_C_N": 1139,
      "1_4_O:P_O_C": 1140,
      "1_2_C:O_C_N": 1141,
      "2_4_S:C_S_C": 1142,
      "2_3_C:O_C_O": 1143,
      "2_5_O:P_O_C": 1144,
      "2_6_C:N_C_S": 1145,
      "_C:N_C_F": 1146,
      "1_6_C:P_C_O": 1147,
      "2_4_F:C_F_C": 1148,
      "2_4_O:P_O_O": 1149,
      "1_CA": 1150,
      "1_5_O:C_O_N": 1151,
      "2_5_C:C_C_O": 1152,
      ":L_N_C": 1153,
      "_I_C": 1154,
      "1_6_O:P_O_N": 1155,
      "2_6_P:O_P_N": 1156,
      "1_6_C:P_C_N": 1157,
      "1_0_O": 1158,
      "I_CG2:CB_CG1_CA": 1159,
      ":F_F_N": 1160,
      "2_0_S:C_S_N": 1161,
      "_P:N_P_C": 1162,
      "2_4_C:F_C_C": 1163,
      "2_6_N:F_N_C": 1164,
      "_F:C_F_N": 1165,
      "1_6_N:P_N_C": 1166,
      "B:C_B_C": 1167,
      "1_4_O:P_O_O": 1168,
      "2_3_O:O_O_C": 1169,
      ":O_O_L": 1170,
      "2_5_O:C_O_N": 1171,
      "2_6_N:O_N_O": 1172,
      "1_5_O:P_O_C": 1173,
      "1_2_O:N_O_P": 1174,
      "2_5_F:C_F_C": 1175,
      "2_5_O:P_O_O": 1176,
      "1_1_S:N_S": 1177,
      "1_6_N:O_N_O": 1178,
      "2_6_N:C_N_F": 1179,
      "2_1_O:O_O_P": 1180,
      "2_6_P:P_P_O": 1181,
      "1_1_F:N_F_N": 1182,
      "1_2_S:O_S_C": 1183,
      "2_2_C:N_C_N": 1184,
      "2_1_O:L_O_N": 1185,
      "1_6_F:C_F_F": 1186,
      "2_6_B:C": 1187,
      "1_2_C:N_C_N": 1188,
      ":F_N_O": 1189,
      "2_2_O:N_O_P": 1190,
      "2_1_O:S_O_O": 1191,
      "2_0_N:C_N_N": 1192,
      "1_6_P:O_P_N": 1193,
      "1_5_O:P_O_O": 1194,
      "1_5_C:C_C_N": 1195,
      "1_6_N:F_N_C": 1196,
      "R_NE:CD_NE_NE": 1197,
      "2_6_N:S_N_S": 1198,
      "1_0_C:P_C_C": 1199,
      "1_0_F:G_F_F": 1200,
      "2_1_C:O_C_S": 1201,
      "2_6_C:S": 1202,
      "2_5_C:C_C_N": 1203,
      "2_2_C:O_C_N": 1204,
      "1_6_B:C": 1205,
      "2_6_F:C_F_F": 1206,
      "1_6_C:N_C_S": 1207,
      "2_2_F:C_F_F": 1208,
      "1_6_P:P_P_C": 1209,
      "_E_C": 1210,
      "1_6_S:O_S_C": 1211,
      "2_6_C:F_C_F": 1212,
      "_P_P": 1213,
      "2_6_N:S_N_C": 1214,
      "2_2_O:P_O_N": 1215,
      "1_0_N:C_N_N": 1216,
      ":B_O_C": 1217,
      "1_2_O:P_O_N": 1218,
      "1_1_O:L_O_N": 1219,
      "_O_S": 1220,
      "1_0_O:P_O_O": 1221,
      ":C_F": 1222,
      "1_4_O": 1223,
      "1_3_O:O_O_P": 1224,
      "2_0_O:O_O_C": 1225,
      "1_6_N:N_N_L": 1226,
      "2_4_N:C_N_P": 1227,
      "1_0_S:C_S_N": 1228,
      "1_0_O:N_O_C": 1229,
      ":C_I_C": 1230,
      "2_0_N:C_N_C": 1231,
      "S:O_S_N": 1232,
      "2_0_O:S_O_O": 1233,
      "2_1_S:N_S_O": 1234,
      "_L:C_L_S": 1235,
      "1_5_O": 1236,
      "2_0_S:O_S_C": 1237,
      "2_4_C:C_C_P": 1238,
      "2_0_C:C_C_S": 1239,
      "1_1_O:O_O_P": 1240,
      "2_0_S:C_S_O": 1241,
      "1_0_S:O_S_C": 1242,
      "2_1_O:L_O_O": 1243,
      "1_2_F:C_F_O": 1244,
      "1_4_N:C_N_P": 1245,
      "_N:C_N_B": 1246,
      "2_1_C:F_C_F": 1247,
      "1_5_O:N_O_C": 1248,
      "1_5_C:N_C_S": 1249,
      "1_6_N:C_N_F": 1250,
      "2_1_O:F_O_C": 1251,
      "1_0_C:C_C_S": 1252,
      "S:S": 1253,
      "2_5_N:C_N_O": 1254,
      "1_2_C:S_C_C": 1255,
      "1_6_P:P_P_O": 1256,
      ":O_N_S": 1257,
      "2_3_O:O_O_P": 1258,
      "_F:O_F_C": 1259,
      "1_6_N:S_N_S": 1260,
      "_P:O_P_P": 1261,
      "2_6_S:N_S": 1262,
      "2_6_F:F_F_O": 1263,
      "_C:F_C_O": 1264,
      "2_0_O:N_O_C": 1265,
      "_C:L_C_O": 1266,
      "1_3_C:C_C_L": 1267,
      "2_2_O:S_O_O": 1268,
      "2_1_S:N_S_S": 1269,
      "_S_C": 1270,
      "1_3_C:F_C_F": 1271,
      "1_1_O:O_N_C": 1272,
      ":I": 1273,
      "_C:E": 1274,
      "1_0_S:C_S_O": 1275,
      "2_4_O": 1276,
      "2_2_S:O_S_C": 1277,
      "1_1_C:O_C_S": 1278,
      "1_0_O:O_O_C": 1279,
      "_C:L_C_N": 1280,
      ":C_U": 1281,
      "1_6_F:O_F_C": 1282,
      "1_2_O:O_O_S": 1283,
      "_C:B_C_C": 1284,
      "1_1_O:F_O_C": 1285,
      "_U:C_U": 1286,
      "2_5_C:N_C_S": 1287,
      "2_6_N:P_N_P": 1288,
      ":E_O_C": 1289,
      "2_0_C:F_C_C": 1290,
      ":N_O_F": 1291,
      "1_1_O:S_O_O": 1292,
      "1_2_N": 1293,
      "2_1_S:C_S_F": 1294,
      "1_4_F:C_F_F": 1295,
      "1_2_O:S_O_O": 1296,
      ":C_E_C": 1297,
      "1_0_N:C_N_C": 1298,
      "2_6_F:O_F_C": 1299,
      "2_3_O:P_O_O": 1300,
      "2_1_L:C_L_L": 1301,
      "2_0_O:O_O_S": 1302,
      "2_3_C:C_C_L": 1303,
      "2_5_O": 1304,
      "2_6_P:N_P_C": 1305,
      "1_2_O:C_O_F": 1306,
      "1_5_N:C_N_O": 1307,
      ":B_O_O": 1308,
      "_CB:N_CA_C": 1309,
      "_C:E_C_C": 1310,
      "2_1_O:O_O_L": 1311,
      "1_3_O:P_O_O": 1312,
      "2_1_N:F_N_O": 1313,
      "1_1_C:F_C_F": 1314,
      "2_0_O:S_O_N": 1315,
      ":C_O_L": 1316,
      ":F_O_N": 1317,
      "2_4_F:C_F_F": 1318,
      "1_4_C:C_C_P": 1319,
      "2_1_F:C_F_N": 1320,
      "1_1_S:N_S_O": 1321,
      "2_2_O:O_O_S": 1322,
      "2_2_F:C_F_O": 1323,
      "1_2_L:N_L_C": 1324,
      "2_3_O:C_O_B": 1325,
      "2_1_C:L_C_C": 1326,
      "2_0_S:O_S_O": 1327,
      "2_5_C:P_C_P": 1328,
      "2_5_O:C_O_L": 1329,
      "1_6_C:S": 1330,
      "1_5_O:C_O_L": 1331,
      "1_4_O:S_O_C": 1332,
      "1_1_S:C_S_F": 1333,
      "2_1_F:N_F_F": 1334,
      ":L_N": 1335,
      "_P:P_P_N": 1336,
      "2_6_S:O_S_O": 1337,
      "_E:C_E_C": 1338,
      "L:N_L": 1339,
      "2_5_O:N_O_C": 1340,
      "1_6_N:P_N_P": 1341,
      "2_4_O:S_O_C": 1342,
      "2_1_O:L_O_C": 1343,
      "1_1_O:L_O_O": 1344,
      ":C_F_S": 1345,
      "1_1_S:S": 1346,
      "2_0_P:O_P_C": 1347,
      "1_6_F:C_F_N": 1348,
      "1_6_N:S_N_C": 1349,
      "_B:B_B_C": 1350,
      "1_1_C:L_C_C": 1351,
      "1_0_O:S_O_O": 1352,
      "1_0_O:O_O_O": 1353,
      "2_6_O:O_O_S": 1354,
      "1_6_O:O_O_S": 1355,
      "1_4_C:N_C_O": 1356,
      "2_5_O:S_O_C": 1357,
      "2_1_F:C_F_O": 1358,
      ":O_F_O": 1359,
      "1_4_F:C_F_O": 1360,
      "2_0_O:O_O_O": 1361,
      "1_0_O:S_O_N": 1362,
      "_I:C_I_C": 1363,
      "_C:O_C_F": 1364,
      "2_2_O:C_O_F": 1365,
      "1_5_O:S_O_C": 1366,
      "1_6_F:F_F_O": 1367,
      "2_0_O:C_O_N": 1368,
      "1_1_F:C_F_N": 1369,
      "_C:N_C_L": 1370,
      "2_0_F:F_F_F": 1371,
      "2_1_L:F_L_C": 1372,
      "2_1_S:O_S_N": 1373,
      "1_6_O:F_O_C": 1374,
      "_C:O_C_L": 1375,
      "_S:N_S_N": 1376,
      ":S_N_N": 1377,
      "2_1_C:P_C_N": 1378,
      "1_1_F:N_F_F": 1379,
      "2_6_S:N_S_S": 1380,
      "2_6_F:C_F_N": 1381,
      "2_0_C:C_C_F": 1382,
      "1_6_B:C_B_B": 1383,
      "2_6_C:O_C_S": 1384,
      "1_0_P:O_P_C": 1385,
      "Q_CB:N_CA_C": 1386,
      ":S_L_C": 1387,
      "E_CG:CB_CG_CD": 1388,
      "1_4_L:C_L_C": 1389,
      "_U:C_U_C": 1390,
      ":V": 1391,
      "2_1_O:S_O_N": 1392,
      "2_2_C:S_C_C": 1393,
      "1_2_F:C_F_N": 1394,
      "1_3_L:C_L_C": 1395,
      "1_5_C:S_C_C": 1396,
      "_O:S_O_P": 1397,
      "2_6_P:C_P_N": 1398,
      "2_6_O:F_O_C": 1399,
      "1_2_C:N_C_O": 1400,
      "2_6_L:C_L_S": 1401,
      "2_6_C:N_C_F": 1402,
      "1_5_N:C_N_N": 1403,
      "1_6_P:N_P_C": 1404,
      "2_1_O:C_O_F": 1405,
      "_L:C_L_L": 1406,
      "2_3_L:C_L_C": 1407,
      "1_1_O:O": 1408,
      "2_4_F:C_F_O": 1409,
      "2_6_S:C_S_O": 1410,
      "1_1_O:O_C_C": 1411,
      "1_1_C:P_C_N": 1412,
      "1_1_O:L_O_C": 1413,
      "2_1_B:C_B_C": 1414,
      "1_1_F:F_F_N": 1415,
      "2_2_L:N_L_C": 1416,
      "2_6_C:S_C_N": 1417,
      "2_1_F:F_F_N": 1418,
      "2_4_L:C_L_C": 1419,
      "1_5_N:N_N_C": 1420,
      "2_2_C:N_C_O": 1421,
      "1_1_S:S_C_C": 1422,
      "1_0_O:C_O_N": 1423,
      "2_5_N:C_N_N": 1424,
      "1_1_L:C_L_L": 1425,
      "2_4_C:N_C_O": 1426,
      "2_6_B:C_B_B": 1427,
      ":F_N_N": 1428,
      "_O_F": 1429,
      "1_2_O:N_O_N": 1430,
      ":O_B_C": 1431,
      "_O:S_O_F": 1432,
      "1_1_S:N_S_S": 1433,
      "1_0_C:C_C_F": 1434,
      "1_3_O:C_O_B": 1435,
      "2_0_O:C_O_O": 1436,
      "2_6_P:N": 1437,
      "2_5_O:N_O_P": 1438,
      "1_1_C:C_N_C": 1439,
      "L:C_L_O": 1440,
      "2_1_L:L_L_C": 1441,
      "1_5_L:C_L_C": 1442,
      ":E_O": 1443,
      "1_6_C:O_C_S": 1444,
      "2_2_F:C_F_N": 1445,
      "1_4_O:O_O_S": 1446,
      "_C:N_C_B": 1447,
      "2_1_O:S_O_C": 1448,
      "1_5_O:N_O_P": 1449,
      "1_1_L:F_L_C": 1450,
      "2_0_P:C": 1451,
      "1_2_O:C_O_L": 1452,
      "1_1_O:S_O_N": 1453,
      "2_1_S:O_S_C": 1454,
      "2_6_P:O_P_P": 1455,
      "1_4_O:C_O_F": 1456,
      "1_5_N:O_N_C": 1457,
      "_L:C_L_N": 1458,
      "_P:P_P": 1459,
      "2_2_C:N_C_S": 1460,
      "1_1_F:C_F_O": 1461,
      "L:N_L_S": 1462,
      "2_3_O:P_O_C": 1463,
      "2_6_B:C_B_C": 1464,
      "2_2_N:N_N_N": 1465,
      "_S:O_S_N": 1466,
      "1_1_L:L_L_C": 1467,
      "2_6_N:C_N_B": 1468,
      "1_2_N:N_N_N": 1469,
      "2_4_O:C_O_F": 1470,
      "1_4_O:C_O_L": 1471,
      "1_3_O:P_O_C": 1472,
      "_P:P_P_B": 1473,
      "1_1_O:O_O_L": 1474,
      "2_5_N:N_N_C": 1475,
      "2_5_O:P_O_N": 1476,
      "2_2_O:C_O_B": 1477,
      "2_4_O:O_O_S": 1478,
      "2_6_N:L_N_C": 1479,
      ":N_O_L": 1480,
      "2_6_O:N_O_P": 1481,
      ":F_O_S": 1482,
      "1_4_F:C_F_N": 1483,
      "2_2_O:N_O_N": 1484,
      "1_1_B:C_B_C": 1485,
      ":P_S": 1486,
      "1_6_S:O_S_O": 1487,
      "1_6_E:C_E_C": 1488,
      "1_6_B:C_B_C": 1489,
      "_C:B_C_O": 1490,
      ":V_O_O": 1491,
      "2_5_L:C_L_C": 1492,
      "2_1_C:F_C_N": 1493,
      "1_6_L:C_L_S": 1494,
      "1_5_F:C_F_O": 1495,
      "1_6_C:N_C_F": 1496,
      "1_6_P:O_P_P": 1497,
      "2_6_F:N_F_N": 1498,
      ":O_N_P": 1499,
      "1_2_O:N_O_O": 1500,
      "_L:C_L_O": 1501,
      "1_0_O:C_O_O": 1502,
      "1_2_F:F_F_C": 1503,
      "1_0_S:O_S_O": 1504,
      "1_0_C:F_C_C": 1505,
      "2_2_O:N_O_O": 1506,
      "1_6_P:C_P_N": 1507,
      "_F:N_F_C": 1508,
      ":S_F_C": 1509,
      "_N:P_N_O": 1510,
      "1_2_F:O_F_C": 1511,
      "1_5_C:P_C_P": 1512,
      "2_4_P:O_P_O": 1513,
      ":L_O_S": 1514,
      "_N:S_N_C": 1515,
      "1_0_N:O_N_C": 1516,
      "1_6_P:N": 1517,
      "1_0_O:O_O_S": 1518,
      "2_1_C:P_C_P": 1519,
      "2_2_O:C_O_L": 1520,
      "1_6_N:L_N_C": 1521,
      "1_6_O:N_O_P": 1522,
      "1_6_O:L_O_C": 1523,
      "1_6_O:F_O_N": 1524,
      "1_2_C:N_C_S": 1525,
      "2_6_O:L_O_C": 1526,
      "2_6_S:C_S_N": 1527,
      "2_5_N:O_N_C": 1528,
      ":L_F_C": 1529,
      "1_2_L": 1530,
      ":F_O_O": 1531,
      "2_6_O:C_O_F": 1532,
      "_N:O_N_S": 1533,
      "_H": 1534,
      "2_4_F:C_F_N": 1535,
      "1_1_S:O_S_N": 1536,
      "2_4_O:C_O_L": 1537,
      ":E_O_O": 1538,
      ":L_N_N": 1539,
      ":O_F_N": 1540,
      "1_2_O:C_O_B": 1541,
      "2_6_U:C_U_C": 1542,
      "_N:N_N_F": 1543,
      "2_0_P:O_P_O": 1544,
      "1_4_O:N_O_P": 1545,
      "2_5_F:C_F_O": 1546,
      "I:C_I_C": 1547,
      ":F_F": 1548,
      "2_1_O:B_O_O": 1549,
      "1_2_N:O_N_O": 1550,
      "1_1_O:C_O_F": 1551,
      "_C:F_C_L": 1552,
      "2_2_S:C_S_N": 1553,
      "1_6_N:C_N_B": 1554,
      "2_6_O:S_O_O": 1555,
      ":L_F_F": 1556,
      ":P_S_O": 1557,
      "1_2_O:S_O_N": 1558,
      "2_2_O:S_O_N": 1559,
      "1_6_B:B_B_C": 1560,
      ":U": 1561,
      "1_5_O:P_O_N": 1562,
      "2_6_C:S_C_O": 1563,
      "1_4_L:O_L_C": 1564,
      "2_0_N:O_N_C": 1565,
      "1_1_O:S_O_C": 1566,
      "1_1_N:F_N_O": 1567,
      "2_1_N:F_N_C": 1568,
      "2_6_P:P_P_N": 1569,
      "1_6_O:C_O_F": 1570,
      "1_5_F:F_F_C": 1571,
      "2_0_O:P_O_C": 1572,
      "1_4_O:S_O_O": 1573,
      "2_4_O:S_O_O": 1574,
      "1_3_C:N_C_O": 1575,
      "2_5_C:S_C_C": 1576,
      "1_3_F:C_F_C": 1577,
      "1_1_C:F_C_N": 1578,
      "S:C_S_L": 1579,
      "_C:L_C_L": 1580,
      "_O_P": 1581,
      ":O_L_N": 1582,
      "2_4_O:N_O_P": 1583,
      "2_2_S:N_S_N": 1584,
      "_C:I": 1585,
      ":S_N_L": 1586,
      "2_1_C:C_C_F": 1587,
      "1_6_F:N_F_N": 1588,
      "2_1_L:N_L_S": 1589,
      "1_2_S:C_S_N": 1590,
      ":O_L": 1591,
      "1_6_C:S_C_N": 1592,
      "1_6_L:O_L_C": 1593,
      "2_1_N:S_N_C": 1594,
      "2_6_B:B_B_C": 1595,
      "1_1_F:O_F_O": 1596,
      "1_6_S:C_S_O": 1597,
      "1_6_S:N_S": 1598,
      "1_4_N:N_N_S": 1599,
      "1_6_O:S_O_O": 1600,
      "P:O": 1601,
      "P:O_P_O": 1602,
      "2_2_F:O_F_C": 1603,
      "2_6_L:O_L_C": 1604,
      "1_6_S:C_S_N": 1605,
      "1_1_N:F_N_C": 1606,
      "1_1_C:L_C_O": 1607,
      "1_2_C:F_C_C": 1608,
      "2_1_O:N_O_F": 1609,
      "1_1_S:O_S_C": 1610,
      "2_0_P:C_P_O": 1611,
      "2_1_C:L_C_O": 1612,
      "2_0_P:P_P_C": 1613,
      "2_0_N:C_N_S": 1614,
      "2_0_F:C_F_F": 1615,
      "1_1_C:E_C_C": 1616,
      "_C:U": 1617,
      "1_4_S:O_S_O": 1618,
      ":F_F_P": 1619,
      "L_CD2": 1620,
      "_C:U_C_C": 1621,
      ":CB_CD2_CB": 1622,
      "L_CD2:CB_CD2_CB": 1623,
      "2_4_N:N_N_S": 1624,
      "2_6_O:S_O_N": 1625,
      "1_0_P:C": 1626,
      "_O:S_O_S": 1627,
      "2_2_F:F_F_C": 1628,
      "1_5_F:O_F_C": 1629,
      "_N:N_N_P": 1630,
      "2_1_C:E_C_C": 1631,
      "1_1_C:P_C_P": 1632,
      "1_2_S:N_S_N": 1633,
      ":N_B_C": 1634,
      "_B:O_B_C": 1635,
      "1_2_O:O_O_O": 1636,
      "2_1_O:E_O_C": 1637,
      ":L_N_O": 1638,
      "1_2_O:F_O_C": 1639,
      "2_6_O:F_O_N": 1640,
      "1_0_P:O_P_O": 1641,
      ":N_E_C": 1642,
      "1_6_O:S_O_N": 1643,
      "1_0_F:F_F_F": 1644,
      "2_6_F:C_F_O": 1645,
      "2_4_O:P_O_N": 1646,
      "2_1_C:L_C_N": 1647,
      ":O_I_C": 1648,
      "2_4_S:O_S_O": 1649,
      "1_6_F:C_F_O": 1650,
      ":P_O_O": 1651,
      ":O_N_F": 1652,
      "2_1_F:O_F_O": 1653,
      "2_2_L:C_L_O": 1654,
      "1_3_O": 1655,
      "2_3_F:C_F_C": 1656,
      "2_6_P:N_P_O": 1657,
      "1_5_C:O_C_O": 1658,
      "2_3_S:N_S_N": 1659,
      "2_0_P:P_P_B": 1660,
      ":O_O_B": 1661,
      "1_2_O:L_O_C": 1662,
      "_S:P_S_O": 1663,
      "1_4_C:S_C_C": 1664,
      "2_0_N:C_N_O": 1665,
      "2_0_N:N_N_C": 1666,
      "1_6_L": 1667,
      "2_3_C:N_C_O": 1668,
      "_C:S_C_S": 1669,
      "2_0_O:V_O_O": 1670,
      ":O_L_O": 1671,
      "2_6_N:O_N_S": 1672,
      "2_3_C:L_C_L": 1673,
      "2_2_C:C_C_F": 1674,
      "1_4_F:F_F_C": 1675,
      "2_0_I:C_I_C": 1676,
      "1_5_F:C_F_F": 1677,
      "1_2_C:C_C_F": 1678,
      ":C_F_L": 1679,
      "1_5_O:O_O_S": 1680,
      "2_0_O:S_O_C": 1681,
      "1_2_O:N_O_S": 1682,
      "1_1_C:C_C_F": 1683,
      "1_6_S:N_S_S": 1684,
      "1_4_O:P_O_N": 1685,
      "2_1_C:F_C_O": 1686,
      "1_1_N:S_N_C": 1687,
      "2_0_S:C_S_S": 1688,
      "1_1_O:B_O_O": 1689,
      "2_3_C:F_C_L": 1690,
      "1_4_C:N_C_P": 1691,
      "2_2_L": 1692,
      "1_6_P:P_P_N": 1693,
      "1_2_L:C_L_O": 1694,
      "2_1_C:B_C_O": 1695,
      "2_1_L:C_L_F": 1696,
      "B:O_B_C": 1697,
      "2_1_C:C_C_L": 1698,
      "2_0_I": 1699,
      "1_0_C:C_C_L": 1700,
      "_C:I_C_C": 1701,
      "S:F": 1702,
      "1_6_C:F_C_N": 1703,
      "_H_C": 1704,
      "2_6_S:O_S_N": 1705,
      "S:S_S_C": 1706,
      ":B_O_N": 1707,
      "2_1_C:O_C_P": 1708,
      "2_6_N:P_N_O": 1709,
      "1_5_L:O_L_C": 1710,
      "2_4_L:O_L_C": 1711,
      "_U:C_U_N": 1712,
      "_S_N": 1713,
      "2_0_N:N_N_N": 1714,
      "1_0_O:P_O_C": 1715,
      "_E:N_E_C": 1716,
      "1_0_N:C_N_S": 1717,
      "2_2_O:N_O_S": 1718,
      "2_6_P:N_P_N": 1719,
      "1_0_F:C_F_F": 1720,
      "1_6_F:C_F_S": 1721,
      "_B_S": 1722,
      "_B_N": 1723,
      ":N_CB_CA": 1724,
      "P_CB:N_CB_CA": 1725,
      "2_6_C:F_C_N": 1726,
      "_O:S_O_L": 1727,
      "2_5_O:O_O_S": 1728,
      "1_2_S:O_S_O": 1729,
      "_N:N_N_B": 1730,
      "1_3_S:N_S_N": 1731,
      "1_4_N:O_N_N": 1732,
      "2_6_O:C_O_L": 1733,
      "1_1_O:N_O_F": 1734,
      "2_1_L:S_L_C": 1735,
      "2_6_E:C_E_C": 1736,
      ":C_H_C": 1737,
      "1_6_F:O_F_F": 1738,
      "2_6_C:C_C_E": 1739,
      "1_0_P:P_P_C": 1740,
      "_N_N": 1741,
      "1_6_U:C_U_C": 1742,
      "L_CD1:CB_CD1_CA": 1743,
      "2_6_F:C_F_S": 1744,
      "2_1_O:E_O_O": 1745,
      "2_2_N": 1746,
      "1_3_S:O_S_C": 1747,
      "1_0_I:C_I_C": 1748,
      ":S_N_O": 1749,
      "1_1_C:F_C_O": 1750,
      ":C_O_B": 1751,
      "1_5_F:C_F_N": 1752,
      "1_5_O:L_O_C": 1753,
      "1_1_C:L_C_N": 1754,
      "_B:N_B_C": 1755,
      "2_6_L:C_L_N": 1756,
      "2_1_S:S_S_C": 1757,
      "_C:P_C_S": 1758,
      "2_6_C:U_C_C": 1759,
      "2_6_N:S_N_N": 1760,
      "2_6_L:C_L_L": 1761,
      "1_6_O:L_O_N": 1762,
      "1_6_N:O_N_S": 1763,
      ":F_O_P": 1764,
      "2_2_S:O_S_O": 1765,
      "2_4_C:S_C_C": 1766,
      "2_1_O:F_O_F": 1767,
      "1_1_L:S_L_C": 1768,
      "2_0_C:C_C_L": 1769,
      "1_6_C:S_C_O": 1770,
      "1_4_F:O_F_C": 1771,
      "2_5_C:O_C_O": 1772,
      ":N_F_O": 1773,
      "1_2_B:C_B_C": 1774,
      "1_6_L:C_L_N": 1775,
      "2_4_C:N_C_P": 1776,
      "_L:L_L_C": 1777,
      "1_0_S:C_S_S": 1778,
      "2_6_F:O_F_F": 1779,
      "_V": 1780,
      "S:C_S_S": 1781,
      "1_2_L:L_L_C": 1782,
      "1_5_C:O_C_N": 1783,
      "2_1_C:O_C_L": 1784,
      "1_0_N:N_N_C": 1785,
      ":N_L_N": 1786,
      "2_3_O:S_O_C": 1787,
      "2_4_O:B_O_C": 1788,
      "1_0_O:S_O_C": 1789,
      "2_1_O:C_O_L": 1790,
      "1_1_C:B_C_C": 1791,
      "2_6_N:N_N_F": 1792,
      "2_5_F:C_F_F": 1793,
      "2_6_L": 1794,
      "2_0_O:C_O_S": 1795,
      "1_6_P:N_P_N": 1796,
      "2_5_F:O_F_C": 1797,
      "_B_O": 1798,
      "1_2_F:N_F_C": 1799,
      "1_0_P:P_P_B": 1800,
      "1_3_O:S_O_C": 1801,
      "1_6_O:F_O_O": 1802,
      "1_5_O:C_O_F": 1803,
      "1_2_C:L_C_C": 1804,
      "2_1_N:C_N_S": 1805,
      "2_5_O:C_O_F": 1806,
      "1_6_P:N_P_O": 1807,
      "2_1_C:B_C_C": 1808,
      "1_1_C:O_C_L": 1809,
      "1_1_C:C_C_L": 1810,
      "2_2_C:F_C_C": 1811,
      "1_6_O:L_O_O": 1812,
      "1_4_O:B_O_C": 1813,
      "2_2_P:O_P_O": 1814,
      ":C_I": 1815,
      "1_2_N:C_N_F": 1816,
      "2_2_N:C_N_F": 1817,
      "1_6_N:S_N_N": 1818,
      "2_6_C:N_C_L": 1819,
      "1_6_L:C_L_L": 1820,
      "2_3_O": 1821,
      "_F:L_F_F": 1822,
      "1_1_C:O_C_P": 1823,
      "1_0_O:C_O_S": 1824,
      "1_1_O:F_O_F": 1825,
      "1_6_S:O_S_N": 1826,
      "1_4_N:O_N_S": 1827,
      "2_6_N:O_N_P": 1828,
      "2_6_C:S_C_S": 1829,
      "1_1_S:C_S_L": 1830,
      "2_0_P:C_P_C": 1831,
      ":B_N_C": 1832,
      "1_2_O:F_O_S": 1833,
      ":S_O_S": 1834,
      "1_6_O:C_O_L": 1835,
      "1_0_P:C_P_O": 1836,
      "2_0_O:N_O_S": 1837,
      "2_6_C:B_C_C": 1838,
      "1_6_N:N_N_F": 1839,
      "2_5_C:O_C_N": 1840,
      "2_6_O:F_O_O": 1841,
      "_C:B_C_N": 1842,
      "1_2_O:O_O_N": 1843,
      "2_6_C:F_C_O": 1844,
      "2_6_N:S_N_L": 1845,
      "L:N_L_O": 1846,
      "1_6_N:P_N_O": 1847,
      "2_5_F:C_F_N": 1848,
      "2_2_O:F_O_C": 1849,
      "1_1_O:E_O_C": 1850,
      "2_0_C:P_C_O": 1851,
      "1_4_O:N_O_S": 1852,
      "_S:S": 1853,
      "2_1_C:S_C_F": 1854,
      "1_4_P:O_P_O": 1855,
      "1_3_O:O_O_S": 1856,
      "2_1_N:L_N_O": 1857,
      "2_2_O:L_O_C": 1858,
      "_C:F_C_S": 1859,
      "1_1_L:C_L_F": 1860,
      "1_0_O:V_O_O": 1861,
      "1_6_F:F_F_N": 1862,
      "2_3_O:S_O_P": 1863,
      "2_5_F:F_F_C": 1864,
      "2_2_O:O_O_O": 1865,
      "1_5_C:C_C_S": 1866,
      "2_1_N:F_N_N": 1867,
      "1_6_F:O_F_N": 1868,
      "1_1_C:B_C_O": 1869,
      "2_1_I:C_I_C": 1870,
      "2_4_N:N_N_B": 1871,
      "2_6_O:L_O_O": 1872,
      "1_3_C:C_C_B": 1873,
      "1_3_C:N_C_B": 1874,
      "2_5_O:S_O_O": 1875,
      "2_1_O:P_O_O": 1876,
      "1_6_C:C_C_E": 1877,
      "2_0_S:P_S_O": 1878,
      "1_6_N:S_N_L": 1879,
      "2_5_C:N_C_O": 1880,
      "2_6_L:C_L_O": 1881,
      "2_6_N:N_N_P": 1882,
      "1_5_C:N_C_O": 1883,
      "2_6_B:C_B_S": 1884,
      "_N:C_N_U": 1885,
      "1_2_L:F_L_C": 1886,
      ":C_I_O": 1887,
      "_O_I": 1888,
      "1_3_O:S_O_P": 1889,
      "2_5_C:C_C_S": 1890,
      "2_1_F:F_F_P": 1891,
      ":I_O_I": 1892,
      "1_1_C:S_C_F": 1893,
      "2_1_S:C_S_L": 1894,
      "1_3_N:N_N_S": 1895,
      "1_2_N:L_N_C": 1896,
      "2_3_O:O_O_S": 1897,
      "S:F_S_N": 1898,
      "1_6_C:B_C_C": 1899,
      "1_6_C:E_C_C": 1900,
      "2_4_O:C_O_B": 1901,
      "1_3_L:O_L_C": 1902,
      "2_6_C:O_C_F": 1903,
      "T_CB:N_CA_C": 1904,
      "1_2_C:C_C_L": 1905,
      "2_2_F:N_F_C": 1906,
      "2_0_C:P_C_P": 1907,
      "1_1_O:E_O_O": 1908,
      "2_4_O:N_O_S": 1909,
      "1_1_N:C_N_S": 1910,
      ":B_N": 1911,
      "1_6_N:O_N_P": 1912,
      "1_0_N:S_N_C": 1913,
      "1_0_N:C_N_O": 1914,
      "_N:P_N_N": 1915,
      "1_3_O:N_O_N": 1916,
      "2_6_S:N_S_N": 1917,
      "1_1_L:N_L_S": 1918,
      "_S:C_S_P": 1919,
      "2_4_F:F_F_C": 1920,
      "1_1_O:C_O_L": 1921,
      "1_6_C:N_C_L": 1922,
      "2_6_S:N_S_O": 1923,
      "2_3_N:N_N_S": 1924,
      "1_5_O:F_O_C": 1925,
      "1_2_N:C_N_L": 1926,
      "2_4_O:S_O_N": 1927,
      "1_6_C:F_C_O": 1928,
      "2_0_C:O_C_P": 1929,
      "1_4_L:N_L_C": 1930,
      "2_1_N:L_N_N": 1931,
      "1_5_O:E_O_C": 1932,
      "2_4_N:O_N_N": 1933,
      "2_3_O:S_O_O": 1934,
      "1_6_E:N_E_C": 1935,
      "2_1_N:O_N_F": 1936,
      "1_1_F:F_F_P": 1937,
      "1_2_B:O_B_C": 1938,
      "1_1_S:S_S_C": 1939,
      "2_6_O:L_O_N": 1940,
      "1_6_C:S_C_S": 1941,
      "2_2_B:C_B_C": 1942,
      "1_5_F:N_F_C": 1943,
      "_CD2_CG": 1944,
      ":N_N_E": 1945,
      "1_1_I:C_I_C": 1946,
      "L:C_L_N": 1947,
      "2_0_S:N_S_C": 1948,
      "2_1_O:N_O_L": 1949,
      "2_3_L:O_L_C": 1950,
      "1_1_S": 1951,
      "1_0_N:N_N_N": 1952,
      "2_0_O:O_O_N": 1953,
      "2_0_I:O_I_C": 1954,
      "1_0_N:N_N_O": 1955,
      "2_2_C:C_C_L": 1956,
      ":B_F_C": 1957,
      "2_1_N:S_N_N": 1958,
      ":I_O_O": 1959,
      "1_0_O:N_O_S": 1960,
      "2_2_L:L_L_C": 1961,
      "1_1_N:L_N_N": 1962,
      "1_0_I": 1963,
      "1_6_L:C_L_O": 1964,
      "2_5_L:O_L_C": 1965,
      "1_0_O:O_O_N": 1966,
      "1_4_O:F_O_C": 1967,
      "1_6_N:N_N_P": 1968,
      "1_4_N": 1969,
      "1_3_O:N_O_P": 1970,
      "1_2_O:S_O_F": 1971,
      "1_2_P:O_P_O": 1972,
      "1_3_F:C_F_F": 1973,
      "2_5_O:L_O_C": 1974,
      "2_2_O:O_O_N": 1975,
      ":E_O_N": 1976,
      "2_6_C:L_C_N": 1977,
      "2_1_O:O_O_B": 1978,
      "S:C_S_P": 1979,
      "1_6_C:O_C_F": 1980,
      "1_5_F": 1981,
      "2_2_N:C_N_L": 1982,
      "1_5_O:S_O_O": 1983,
      "1_1_N:F_N_N": 1984,
      "2_1_C:P_C_S": 1985,
      ":I_O_C": 1986,
      "2_5_O:E_O_C": 1987,
      "1_4_O:C_O_B": 1988,
      "1_3_O:S_O_O": 1989,
      "_S:S_S_C": 1990,
      "1_3_O:C_O_F": 1991,
      "1_5_S:C_S_C": 1992,
      "2_1_F:S_F_C": 1993,
      "B:C_B_N": 1994,
      "2_6_N:F_N_N": 1995,
      ":B_N_O": 1996,
      "2_4_L:N_L_C": 1997,
      "2_2_O:S_O_F": 1998,
      "2_0_O:O_O_P": 1999,
      "2_1_L:O_L_O": 2000,
      "2_4_N:O_N_S": 2001,
      "2_3_O:N_O_N": 2002,
      "2_0_U:C_U_N": 2003,
      "2_2_C:L_C_C": 2004,
      "2_1_N:L_N_C": 2005,
      "1_6_S": 2006,
      "1_4_C:S_C_S": 2007,
      "1_3_C:F_C_L": 2008,
      "1_6_B:N_B_C": 2009,
      "1_6_N:F_N_N": 2010,
      "1_5_L:N_L_C": 2011,
      "1_6_S:N_S_N": 2012,
      "_O:P_O_S": 2013,
      "2_6_C:L_C_O": 2014,
      "1_6_L:N_L_N": 2015,
      ":E_N_N": 2016,
      ":S_N_P": 2017,
      "1_4_O:S_O_N": 2018,
      "2_0_N:S_N_C": 2019,
      "1_1_O:P_O_O": 2020,
      "2_0_N:N_N_O": 2021,
      "H:C_H_C": 2022,
      "2_6_S": 2023,
      "2_1_S:C_S_S": 2024,
      "1_1_L:O_L_N": 2025,
      "1_4_O:L_O_C": 2026,
      ":P_S_C": 2027,
      "2_1_O:B_O_C": 2028,
      "1_0_U:C_U_N": 2029,
      "2_3_O:N_O_P": 2030,
      "1_2_O:L_O_S": 2031,
      "_H:C_H_C": 2032,
      "2_1_L:O_L_N": 2033,
      "2_6_F:O_F_N": 2034,
      "1_1_O:N_O_L": 2035,
      "1_0_P:C_P_C": 2036,
      "2_4_N": 2037,
      "2_4_F:O_F_C": 2038,
      "1_3_F:C_F_O": 2039,
      "1_1_L:O_L_O": 2040,
      "2_6_C:C_C_I": 2041,
      "2_1_S": 2042,
      "1_1_E": 2043,
      "2_1_C:S_C_S": 2044,
      "Y_CD2": 2045,
      "2_3_S:O_S_C": 2046,
      "1_0_S:N_S_C": 2047,
      "2_2_O:F_O_S": 2048,
      "2_6_O:O_O_F": 2049,
      ":CG_CD2_CG": 2050,
      "2_3_F:C_F_O": 2051,
      "2_6_F:F_F_N": 2052,
      "Y_CD2:CG_CD2_CG": 2053,
      ":O_N_B": 2054,
      "2_0_F:L_F_F": 2055,
      "1_6_C:L_C_N": 2056,
      "1_4_B:O_B_C": 2057,
      "_L:F_L_C": 2058,
      "2_4_C:S_C_S": 2059,
      "_C:S_C_O": 2060,
      "1_0_C:P_C_O": 2061,
      "2_6_O:S_O_S": 2062,
      ":L_S_C": 2063,
      "2_3_C:N_C_B": 2064,
      ":F_O_F": 2065,
      "1_1_N:L_N_C": 2066,
      "2_2_L:F_L_C": 2067,
      "1_2_O:B_O_C": 2068,
      "2_1_C:N_C_F": 2069,
      "1_6_F:N_F_F": 2070,
      "1_0_C:P_C_P": 2071,
      "_N_P": 2072,
      "2_3_C:C_C_B": 2073,
      "1_1_C:C_N_P": 2074,
      "1_4_O:S_O_F": 2075,
      "2_3_F:C_F_F": 2076,
      "1_2_N:C_N_U": 2077,
      "2_0_O:N_O_N": 2078,
      "M_CG:CB_CG_CG": 2079,
      "1_0_O:N_O_O": 2080,
      "1_6_I:C_I_C": 2081,
      "2_5_O:N_O_S": 2082,
      "2_6_B:N_B_C": 2083,
      "1_1_F:S_F_C": 2084,
      "1_6_O:O_O_F": 2085,
      "1_1_N:L_N_O": 2086,
      "K_CA:N_CA_C": 2087,
      "2_3_O:C_O_F": 2088,
      "_C:L_C_S": 2089,
      ":F_N_F": 2090,
      "2_5_O:S_O_N": 2091,
      "_V_O": 2092,
      "1_4_O:N_O_O": 2093,
      "_C:I_C_O": 2094,
      "B:C_B_O": 2095,
      ":V_V_O": 2096,
      "_V:V_V_O": 2097,
      "2_6_E:N_E_C": 2098,
      "2_2_N:S_N_C": 2099,
      "2_1_L:N_L_O": 2100,
      "1_1_S:C_S_S": 2101,
      "1_0_O:O_O_P": 2102,
      "1_0_O:N_O_N": 2103,
      "2_5_O:F_O_C": 2104,
      "2_0_O:S_O_S": 2105,
      "1_0_C:O_C_P": 2106,
      "1_6_B": 2107,
      "2_4_O:S_O_F": 2108,
      "1_1_L:N_L_O": 2109,
      "2_2_B:O_B_C": 2110,
      "2_2_O:B_O_C": 2111,
      "1_2_N:S_N_C": 2112,
      "2_0_I:C_I_O": 2113,
      "1_4_F:N_F_C": 2114,
      ":F_L": 2115,
      "1_5_N": 2116,
      "2_6_L:N_L_N": 2117,
      "2_3_O:P_O_N": 2118,
      "1_0_S:P_S_O": 2119,
      "1_0_F:L_F_F": 2120,
      "2_4_O:I_O_I": 2121,
      "2_1_C:O_C_F": 2122,
      "2_1_S:F_S_N": 2123,
      "2_6_F:N_F_F": 2124,
      "1_2_N:F_N_C": 2125,
      "V_CG2": 2126,
      "1_4_L:L_L_C": 2127,
      "_O:P_O_F": 2128,
      "1_4_C:C_C_F": 2129,
      "_C:C_C_U": 2130,
      "2_5_F:N_F_C": 2131,
      "1_1_F:L_F_F": 2132,
      ":S_F_F": 2133,
      "_CG2_CA": 2134,
      "2_1_O:E_O_N": 2135,
      "1_1_N:O_N_F": 2136,
      "2_5_N:P_N_P": 2137,
      "2_5_L:N_L_C": 2138,
      "1_1_C:S_C_L": 2139,
      "1_6_C:U_C_C": 2140,
      "1_3_C:C_C_P": 2141,
      "2_6_I:C_I_C": 2142,
      "2_6_N:S_N_O": 2143,
      "_C:C_C_I": 2144,
      "1_1_C:N_C_F": 2145,
      "_C:S_C_N": 2146,
      "2_1_O:B_O_N": 2147,
      "1_0_L:C_L_L": 2148,
      "_C:E_C_N": 2149,
      "1_2_O:S_O_L": 2150,
      "_O:C_O_I": 2151,
      "2_1_F:L_F_C": 2152,
      "2_2_N:L_N_C": 2153,
      "1_3_L:N_L_C": 2154,
      "1_3_O:P_O_N": 2155,
      "1_3_C:L_C_L": 2156,
      "2_5_F": 2157,
      "S:O_S_P": 2158,
      "2_5_S:C_S_C": 2159,
      "2_4_O:N_O_O": 2160,
      "1_6_L:O_L_N": 2161,
      "_O:C": 2162,
      "1_1_C:B_C_N": 2163,
      "1_1_N:S_N_N": 2164,
      "2_6_P:C_P_P": 2165,
      "2_5_O:N_O_O": 2166,
      "2_1_C:N_C_B": 2167,
      "1_1_O:O_O_B": 2168,
      "S:F_S_C": 2169,
      "1_2_C:O_C_S": 2170,
      ":N_O_B": 2171,
      "1_6_C:C_C_I": 2172,
      "2_0_L:O_L_C": 2173,
      "1_4_O:L_O_S": 2174,
      "2_6_C:O_C_L": 2175,
      "1_6_O:S_O_S": 2176,
      "2_1_F:L_F_F": 2177,
      "2_1_C:S_C_L": 2178,
      "2_4_N:C_N_F": 2179,
      "1_2_O:S_O_P": 2180,
      "2_6_O:C_O_B": 2181,
      "1_5_C:F_C_C": 2182,
      "2_4_F:N_F_C": 2183,
      "1_3_F:C_F_N": 2184,
      "_L:S_L_C": 2185,
      "2_5_O:C_O_B": 2186,
      "2_2_O:L_O_S": 2187,
      "_S:O_S_S": 2188,
      "1_6_F:S_F_C": 2189,
      "B:N_B_C": 2190,
      "2_6_N:P_N_N": 2191,
      "2_1_C:B_C_N": 2192,
      "1_2_L:C_L_N": 2193,
      "2_4_B:O_B_C": 2194,
      "1_1_O:B_O_C": 2195,
      "2_2_C:O_C_S": 2196,
      "2_4_O:F_O_C": 2197,
      "_C:O_C_B": 2198,
      "1_1_C:P_C_S": 2199,
      "1_1_F:L_F_C": 2200,
      "1_5_O:B_O_C": 2201,
      "1_1_C:O_C_F": 2202,
      "1_4_O:I_O_I": 2203,
      "1_5_O:N_O_O": 2204,
      "1_5_O:N_O_S": 2205,
      "1_0_I:O_I_C": 2206,
      ":F_L_F": 2207,
      ":N_I_C": 2208,
      "1_6_N:P_N_N": 2209,
      "1_1_C:N_C_B": 2210,
      "1_5_C:L_C_C": 2211,
      "2_6_O:B_O_C": 2212,
      "1_4_N:C_N_F": 2213,
      "1_5_O:S_O_N": 2214,
      "2_0_P:P_P_N": 2215,
      "2_2_N:F_N_C": 2216,
      "2_6_C:F_C_S": 2217,
      "1_1_S:F_S_N": 2218,
      "1_4_F": 2219,
      "1_1_O:B_O_N": 2220,
      "1_1_N:N_N_E": 2221,
      "1_2_F:C_F_L": 2222,
      "_O_B": 2223,
      "2_1_N:N_N_E": 2224,
      ":F_S_C": 2225,
      "2_3_L:N_L_C": 2226,
      "1_5_N:P_N_P": 2227,
      "2_0_L:C_L_C": 2228,
      "1_1_E:E_O_C": 2229,
      "1_6_H:C_H_C": 2230,
      "2_2_O:S_O_P": 2231,
      "2_1_O:I_O_O": 2232,
      "1_2_C:O_C_F": 2233,
      ":O_N_L": 2234,
      ":B_O_P": 2235,
      "2_1_N:B_N_O": 2236,
      "1_1_N:N_C_N": 2237,
      "K_O:C": 2238,
      "1_4_C:F_C_N": 2239,
      "1_6_S:N_S_O": 2240,
      "1_6_C:L_C_O": 2241,
      "1_6_P:C_P_P": 2242,
      ":T": 2243,
      "2_6_S:C_S_P": 2244,
      "2_1_H:C_H_C": 2245,
      ":F_L_N": 2246,
      ":C_F_B": 2247,
      "A_O": 2248,
      "E:C_E_C": 2249,
      "1_2_C:N_C_F": 2250,
      "1_5_O:C_O_B": 2251,
      "1_0_L:O_L_C": 2252,
      ":L_S_N": 2253,
      "A_O:N_CA_C": 2254,
      "2_1_F:C_F_S": 2255,
      "2_6_N:E_N_N": 2256,
      "2_2_F:C_F_L": 2257,
      ":C_F_P": 2258,
      "1_6_O:B_O_C": 2259,
      "2_2_L:C_L_N": 2260,
      ":P_S_P": 2261,
      "2_1_F:N_F_O": 2262,
      "2_6_B": 2263,
      ":B_O_B": 2264,
      "2_0_C:L_C_C": 2265,
      "1_6_O:N_O_F": 2266,
      "_S:C_S_F": 2267,
      "1_2_O:F_O_P": 2268,
      "1_3_O:C_O_L": 2269,
      "1_6_O:C_O_B": 2270,
      "2_0_O:N_O_O": 2271,
      "1_5_O:O_O_N": 2272,
      "2_0_L:C_L_L": 2273,
      "2_2_S:C_S_O": 2274,
      "2_4_C:C_C_F": 2275,
      "1_5_O:L_O_S": 2276,
      "2_2_N:C_N_U": 2277,
      "1_0_L:C_L_C": 2278,
      "2_6_F:S_F_C": 2279,
      "1_6_B:C_B_S": 2280,
      "2_5_O:B_O_C": 2281,
      "1_6_S:C_S_P": 2282,
      "2_1_C:I_C_O": 2283,
      "2_2_O:S_O_L": 2284,
      "1_3_F:F_F_C": 2285,
      "1_2_F:L_F_C": 2286,
      "1_6_B:O_B_C": 2287,
      "1_6_C:F_C_S": 2288,
      "2_3_P:O_P_C": 2289,
      "2_2_C:O_C_F": 2290,
      "1_0_N": 2291,
      "1_6_N:F_N_O": 2292,
      "1_6_N:L_N_N": 2293,
      "1_5_F:L_F_C": 2294,
      "2_2_C:N_C_F": 2295,
      "2_4_F": 2296,
      "2_5_N": 2297,
      ":P_N_C": 2298,
      "1_2_S:C_S_O": 2299,
      "2_6_B:O_B_C": 2300,
      "1_4_C:L_C_C": 2301,
      "1_1_O:I_O_O": 2302,
      "1_1_N:B_N_O": 2303,
      "2_1_F:O_F_N": 2304,
      "1_1_F:N_F_O": 2305,
      "2_6_N:L_N_N": 2306,
      "2_6_O:N_O_F": 2307,
      ":L_L_N": 2308,
      "1_4_O:F_O_S": 2309,
      "2_4_O:L_O_C": 2310,
      ":O_E_C": 2311,
      "1_4_N:N_N_B": 2312,
      "2_6_O:O_O_L": 2313,
      "1_0_C:L_C_C": 2314,
      "1_5_C:C_C_F": 2315,
      ":N_O_I": 2316,
      "1_1_C:S_C_S": 2317,
      "1_6_N:S_N_O": 2318,
      "1_6_N:E_N_N": 2319,
      "I:O_I_C": 2320,
      "2_1_N:C_N_L": 2321,
      "2_0_V:V_V_O": 2322,
      "A_CG2_CA": 2323,
      ":CA_CG2_CA": 2324,
      "1_6_C:O_C_L": 2325,
      "2_1_C:N_C_L": 2326,
      "1_6_O:F_O_F": 2327,
      "V_CG2:CA_CG2_CA": 2328,
      "2_3_F:C_F_N": 2329,
      "2_1_N:O_N_B": 2330,
      "_S:N_S_O": 2331,
      "2_1_S:P_S_O": 2332,
      "2_6_C:N_C_B": 2333,
      "2_1_O:C_O_P": 2334,
      "1_1_C:I_C_C": 2335,
      "2_0_O:P_O_N": 2336,
      "1_1_H:C_H_C": 2337,
      "2_2_O:F_O_P": 2338,
      "E:N_E_C": 2339,
      "2_4_L:L_L_C": 2340,
      "1_2_C:F_C_O": 2341,
      "2_6_O:F_O_F": 2342,
      "1_4_C:N_C_L": 2343,
      "2_1_O:C_O_B": 2344,
      "1_1_N:N_N": 2345,
      "1_1_N:O_N_B": 2346,
      "2_1_N:N_N": 2347,
      "1_2_S:O_S_P": 2348,
      "1_6_F:N_F_O": 2349,
      ":U_N_C": 2350,
      "2_0_O:O_O_F": 2351,
      ":O_L_S": 2352,
      ":T_N_N": 2353,
      ":B_N_N": 2354,
      "_I:N_I_C": 2355,
      "1_5_O:N_O_L": 2356,
      "_S_O": 2357,
      "2_1_N:O_N_P": 2358,
      "2_5_C:F_C_C": 2359,
      "2_1_O:N_O_P": 2360,
      "2_1_C:N_C_P": 2361,
      "2_0_S:S_S_C": 2362,
      "1_0_P:P_P_N": 2363,
      "1_2_I:C_I_C": 2364,
      "2_6_N:F_N_O": 2365,
      "_O:S_O_B": 2366,
      "1_0_O:N_O_F": 2367,
      "1_5_N:L_N_C": 2368,
      "Q_OE1:CG_OE1_OE2": 2369,
      "1_2_C:F_C_N": 2370,
      "_L_O": 2371,
      "1_5_S:O_S_C": 2372,
      ":O_O_I": 2373,
      "2_6_H:C_H_C": 2374,
      "2_1_S:C_S_P": 2375,
      "1_1_F:O_F_N": 2376,
      "2_0_F:C_F_C": 2377,
      "2_0_O:C_O_F": 2378,
      "2_0_O:F_O_C": 2379,
      "1_0_I:C_I_O": 2380,
      "1_3_F:O_F_C": 2381,
      "1_2_C:O_C_L": 2382,
      "2_5_S:O_S_C": 2383,
      "2_5_C:C_C_F": 2384,
      "2_0_C:C_C_U": 2385,
      "1_0_O:C_O_F": 2386,
      "_E:C": 2387,
      "2_6_L:O_L_N": 2388,
      "1_1_O:E_O_N": 2389,
      "1_6_N:B_N_C": 2390,
      "1_4_N:S_N_P": 2391,
      "_E_O": 2392,
      "2_1_N:C_N_F": 2393,
      "2_2_C:F_C_N": 2394,
      "2_4_O:L_O_S": 2395,
      "1_4_C:N_C_F": 2396,
      "2_1_C:I_C_C": 2397,
      "1_1_N:C_N_L": 2398,
      "1_1_C:C_C_P": 2399,
      "1_1_B:C_B_N": 2400,
      ":F_B_C": 2401,
      "1_0_C:C_C_U": 2402,
      "Y_CA:N_CA_C": 2403,
      "_S:L_S_C": 2404,
      "2_0_N": 2405,
      "1_0_O:S_O_S": 2406,
      "2_1_L:F_L_N": 2407,
      "1_4_O:O_O_N": 2408,
      ":N_U": 2409,
      ":O_B_N": 2410,
      "1_1_C:E_C_N": 2411,
      "1_5_N:C_N_L": 2412,
      ":B_O_S": 2413,
      "1_1_S:P_S_O": 2414,
      "2_4_N:S_N_P": 2415,
      "2_1_N:C_N_P": 2416,
      "2_1_B:C_B_N": 2417,
      "1_2_S": 2418,
      "2_6_N:B_N_C": 2419,
      "1_1_O:N_O_P": 2420,
      "1_1_C:N_C_P": 2421,
      "1_0_V:V_V_O": 2422,
      "1_2_B:N_B_C": 2423,
      ":L_N_S": 2424,
      ":F_F_S": 2425,
      "1_1_S:S_O_C": 2426,
      "2_4_C:N_C_L": 2427,
      "1_3_P:O_P_C": 2428,
      "2_1_C:E_C_N": 2429,
      "1_2_C:B_C_C": 2430,
      "1_2_C:N_C_L": 2431,
      "1_6_O:O_O_L": 2432,
      "1_1_N:O_N_P": 2433,
      "2_5_C:L_C_C": 2434,
      "2_1_L:F_L_F": 2435,
      "_W": 2436,
      "1_6_C:N_C_B": 2437,
      "2_2_C:F_C_O": 2438,
      "1_1_F:C_F_S": 2439,
      ":B_L_C": 2440,
      "_U:N_U": 2441,
      ":O_F": 2442,
      "2_3_O:S_O_N": 2443,
      "2_4_C:N_C_F": 2444,
      "1_1_O:C_O_P": 2445,
      "A_CB:C_N_CA": 2446,
      "1_6_N:F_N_F": 2447,
      ":I_N_C": 2448,
      ":W": 2449,
      "2_3_O:C_O_L": 2450,
      "2_3_C:C_C_P": 2451,
      ":S_O_P": 2452,
      "_E:O_E_C": 2453,
      "2_5_O:O_O_N": 2454,
      ":V_O_N": 2455,
      "1_4_N:F_N_C": 2456,
      "1_6_S:P_S_C": 2457,
      "2_3_S:O_S_O": 2458,
      "1_1_C:N_C_L": 2459,
      "1_5_O:N_O_N": 2460,
      "2_5_N:C_N_L": 2461,
      "2_6_S:P_S_C": 2462,
      "E_CD:CG_CD": 2463,
      "2_1_C:C_C_B": 2464,
      "1_2_C:L_C_N": 2465,
      "2_2_C:N_C_L": 2466,
      ":F_F_L": 2467,
      "1_6_S:F_S_C": 2468,
      "2_6_S:C_S_F": 2469,
      "2_1_C:C_C_P": 2470,
      "_P_S": 2471,
      "2_1_E:C_E_C": 2472,
      "1_5_C:C_C_L": 2473,
      "1_0_N:O_N_N": 2474,
      "2_0_O:L_O_C": 2475,
      "V_CG2:C_N_CA": 2476,
      "1_1_C:I_C_O": 2477,
      "1_5_O:S_O_P": 2478,
      "2_5_C:C_C_L": 2479,
      "2_5_O:S_O_P": 2480,
      "2_5_O:S_O_S": 2481,
      "1_6_F:C_F_P": 2482,
      "1_1_L:F_L_F": 2483,
      "1_4_N:C_N_L": 2484,
      "1_4_S:O_S_C": 2485,
      "2_4_S:O_S_C": 2486,
      "1_1_O:C_O_B": 2487,
      "_P:S": 2488,
      "2_0_C:I_C_C": 2489,
      "1_6_F:O_F_O": 2490,
      "2_6_B:C_B_O": 2491,
      "2_5_O:N_O_L": 2492,
      "1_3_O:F_O_C": 2493,
      "2_6_S:P_S_P": 2494,
      "K_O:C_OG1_CA": 2495,
      "D1_CD2_CG": 2496,
      ":O_B_O": 2497,
      "2_3_F:O_F_C": 2498,
      "1_2_O:P_O_S": 2499,
      "H_CD2:ND1_CD2_CG": 2500,
      "2_1_F:S_F_F": 2501,
      "1_0_C:C_C_P": 2502,
      "1_6_F:B_F_C": 2503,
      "2_6_N:F_N_F": 2504,
      ":I_O_N": 2505,
      ":V_O_C": 2506,
      ":N_": 2507,
      "1_3_C:N_C_P": 2508,
      "1_2_L:C_L": 2509,
      "1_0_O:F_O_C": 2510,
      "1_3_O:N_O_S": 2511,
      "2_1_S:L_S_N": 2512,
      "K_O:C_CG2_CA": 2513,
      "1_3_N": 2514,
      "1_2_C:L_C_O": 2515,
      "2_2_O:P_O_S": 2516,
      "2_1_N:B_N_C": 2517,
      "2_1_N:P_N_C": 2518,
      "2_0_E:C_E_C": 2519,
      "2_0_L:C_L_O": 2520,
      "1_0_F:F_F_C": 2521,
      "1_5_O:F_O_S": 2522,
      ":I_I_C": 2523,
      ":W_O_C": 2524,
      "1_4_L:F_L_C": 2525,
      "1_3_O:S_O_F": 2526,
      "2_3_F:F_F_C": 2527,
      "2_3_O:S_O_F": 2528,
      "1_1_N:C_N_F": 2529,
      "2_2_C:O_C_L": 2530,
      "2_2_N:O_N_S": 2531,
      "1_1_S:C_S_P": 2532,
      "2_5_C:N_C_L": 2533,
      "1_1_S:L_S_N": 2534,
      "1_1_N:O_N_L": 2535,
      "1_0_S:S_S_C": 2536,
      "1_0_C:S_C_O": 2537,
      "1_2_E:N_E_C": 2538,
      "2_6_F:O_F_O": 2539,
      "2_6_F:N_F_O": 2540,
      "L:N_L_F": 2541,
      ":C_I_N": 2542,
      "P:C": 2543,
      "1_3_C:N_C_F": 2544,
      "2_3_N:C_N_F": 2545,
      "2_1_C:B_C_B": 2546,
      "1_6_F:L_F_C": 2547,
      "1_2_N:O_N_S": 2548,
      "P:C_P_C": 2549,
      "2_4_C:O_C_S": 2550,
      "1_3_O:L_O_C": 2551,
      "1_3_O:B_O_C": 2552,
      "2_3_O:N_O_S": 2553,
      "E_CD:CG_CD_NE": 2554,
      "_OE2": 2555,
      "2_6_S:S_S_C": 2556,
      ":CG_OE2": 2557,
      "1_3_O:S_O_N": 2558,
      "E_OE2:CG_OE2": 2559,
      "2_1_B:C_B_O": 2560,
      "1_2_O:N_O_F": 2561,
      "1_0_O:L_O_C": 2562,
      "2_4_O:N_O_L": 2563,
      "1_6_S:P_S_P": 2564,
      "E_OE2:CG_OE2_CG": 2565,
      "2_4_C:F_C_N": 2566,
      "2_3_N": 2567,
      "1_1_N:C_N_P": 2568,
      "1_6_O:B_O_N": 2569,
      "1_5_C:F_C_N": 2570,
      "1_0_C:I_C_C": 2571,
      "2_2_I:C_I_C": 2572,
      "2_1_L:L_L_N": 2573,
      "1_4_O:N_O_L": 2574,
      "1_6_L:S_L_C": 2575,
      "_F_P": 2576,
      "1_2_O:C_O_I": 2577,
      "2_2_N:C_N_B": 2578,
      "2_0_S:N_S_O": 2579,
      "_B_F": 2580,
      "1_2_S:C_S_P": 2581,
      "1_6_F:P": 2582,
      "2_6_C:S_C_P": 2583,
      "1_4_O:S_O_L": 2584,
      "2_4_O:S_O_L": 2585,
      "2_4_L:S_L_C": 2586,
      "2_1_C:S_C_P": 2587,
      "2_0_C:C_C_P": 2588,
      "1_2_S:F_S_C": 2589,
      "2_2_S:O_S_P": 2590,
      "1_2_F:C_F_S": 2591,
      "1_2_F:B_F_C": 2592,
      "2_6_C:S_C_F": 2593,
      "1_3_O:N_O_O": 2594,
      "1_3_O:B_O_B": 2595,
      "1_3_O:N_O_I": 2596,
      "_E:C_E_O": 2597,
      "T_N": 2598,
      "T:N_": 2599,
      "2_3_C:C_C_F": 2600,
      ":C_O_E": 2601,
      "2_6_F:C_F_P": 2602,
      "2_2_F:C_F_S": 2603,
      "_E_N": 2604,
      "H1_CZ": 2605,
      "1_4_O:S_O_P": 2606,
      ":O_O_E": 2607,
      "1_1_C:C_C_B": 2608,
      "1_2_C:C_C_B": 2609,
      "1_2_C:I_C_C": 2610,
      "R_NH1:NE_NH1_CZ": 2611,
      "2_2_O:S_O_S": 2612,
      "2_1_N:O_N_L": 2613,
      "1_5_O:S_O_S": 2614,
      "1_5_L:L_L_C": 2615,
      "1_2_F:C_F_B": 2616,
      "2_4_O:F_O_P": 2617,
      "Y_CD1:CD1_CG1_CB": 2618,
      "1_4_L:S_L_C": 2619,
      "1_3_S:O_S_O": 2620,
      "1_3_C:C_C_F": 2621,
      "2_2_C:C_C_P": 2622,
      "1_1_I": 2623,
      "1_0_L:C_L_O": 2624,
      "2_2_O:B_O_O": 2625,
      "1_1_L:O_L_S": 2626,
      "1_4_O:F_O_P": 2627,
      "1_6_C:S_C_P": 2628,
      "T:N_T_N": 2629,
      "G_CA": 2630,
      "1_4_C:O_C_S": 2631,
      "1_1_C:B_C_B": 2632,
      "2_2_C:L_C_N": 2633,
      "2_0_S:O_S_S": 2634,
      "1_0_S:O_S_N": 2635,
      "1_2_I:O_I_C": 2636,
      "2_2_L:C_L": 2637,
      "_S:O_S_P": 2638,
      "2_6_F:P": 2639,
      "2_6_N:U_N_C": 2640,
      "2_4_O:O_O_N": 2641,
      "2_4_O:F_O_S": 2642,
      "2_5_F:C_F_S": 2643,
      "2_6_I:N_I_C": 2644,
      "2_4_N:C_N_L": 2645,
      "2_4_O:S_O_S": 2646,
      "_P_F": 2647,
      "2_2_C:L_C_O": 2648,
      "1_0_F:C_F_C": 2649,
      "1_0_O:P_O_N": 2650,
      "2_2_S:C_S_P": 2651,
      "2_5_O:L_O_S": 2652,
      "2_6_L:S_L_C": 2653,
      "_S:S_S_O": 2654,
      "1_5_F:C_F_L": 2655,
      "2_6_S:F_S_C": 2656,
      "G_CA:C_N_CA": 2657,
      ":Y": 2658,
      "1_4_N:C_N_B": 2659,
      "2_6_O:B_O_N": 2660,
      "2_2_O:P_O_F": 2661,
      ":C_O_I": 2662,
      "1_1_B": 2663,
      "1_1_F:S_F_F": 2664,
      "2_2_S:F_S_C": 2665,
      "1_2_O:I_O_C": 2666,
      "1_2_L:S_L_C": 2667,
      "2_3_O:B_O_B": 2668,
      "2_5_N:L_N_C": 2669,
      "_U:N_U_C": 2670,
      ":Y_O_C": 2671,
      ":N_L_O": 2672,
      "_N:C_N_I": 2673,
      "1_2_N:N_N_S": 2674,
      "1_2_O:S_O_S": 2675,
      "1_2_O:P_O_F": 2676,
      "1_5_C:N_C_L": 2677,
      "1_2_O:B_O_O": 2678,
      "1_1_L:F_L_N": 2679,
      "1_6_B:O_B_N": 2680,
      "_CE1:CD1_CE1_CE1": 2681,
      "1_2_C:L_C_S": 2682,
      "_O:P_O_B": 2683,
      "1_2_B:C_B_O": 2684,
      "1_1_L:L_L_N": 2685,
      "2_4_N:F_N_C": 2686,
      "1_5_N:F_N_C": 2687,
      "2_1_O:N_O_B": 2688,
      "2_4_C:O_C_F": 2689,
      "2_1_I": 2690,
      "1_1_B:C_B_O": 2691,
      "2_1_N:B_N_N": 2692,
      "1_1_N:P_N_C": 2693,
      "2_0_C:S_C_O": 2694,
      "1_0_O:C_O_L": 2695,
      "_C:F_C_P": 2696,
      "_L:C_L_F": 2697,
      "2_3_O:B_O_C": 2698,
      "1_5_F:C_F_S": 2699,
      "1_4_O:S_O_S": 2700,
      "2_3_C:O_C_F": 2701,
      "1_2_N:N_N_O": 2702,
      "1_2_N:C_N_B": 2703,
      "1_0_C:S_C_S": 2704,
      "1_2_B:C_B_N": 2705,
      "2_2_B:N_B_C": 2706,
      "2_2_F:L_F_C": 2707,
      "2_6_B:C_B_N": 2708,
      "1_4_F:C_F_L": 2709,
      "1_2_S:L_S_C": 2710,
      "2_4_L:C_L_O": 2711,
      "1_6_O:N_O_L": 2712,
      "2_1_N:O_N_S": 2713,
      "2_1_F:B_F_C": 2714,
      "2_0_C:N_C_N": 2715,
      "2_0_F:C_F_O": 2716,
      "2_0_S:O_S_N": 2717,
      "_S:O_S_F": 2718,
      "_B:C_B_C": 2719,
      "1_0_O:O_O_F": 2720,
      "1_4_O:N_O_F": 2721,
      "E_OE1:CG_OE": 2722,
      "2_6_C:O_C_B": 2723,
      "1_4_C:O_C_F": 2724,
      "2_4_O:S_O_P": 2725,
      "1_1_O:I_O_C": 2726,
      "2_2_O:C_O_I": 2727,
      ":L_O_P": 2728,
      "1_6_B:C_B_O": 2729,
      "1_6_L:O_L_O": 2730,
      ":B_N_S": 2731,
      "E_OE1:CG_OE1_CA": 2732,
      "1_5_C:P_C_C": 2733,
      "2_0_F:O_F_C": 2734,
      "2_4_O:N_O_F": 2735,
      "1_4_N:L_N_C": 2736,
      "2_4_N:S_N_S": 2737,
      "1_6_B:F_B_C": 2738,
      "2_6_C:L_C_S": 2739,
      "2_6_P:S": 2740,
      "1_6_I:N_I_C": 2741,
      "1_1_O:O_O_I": 2742,
      "1_3_C:O_C_F": 2743,
      "2_6_O:N_O_L": 2744,
      "2_2_C:O_C_P": 2745,
      "2_2_C:C_C_B": 2746,
      "Q_OE1:CG_OE1_CA": 2747,
      "1_5_N:C_N_F": 2748,
      "2_0_C:O_C_N": 2749,
      "2_0_O:C_O_L": 2750,
      "2_6_F:L_F_C": 2751,
      "1_6_N:O_N_F": 2752,
      "1_4_F:L_F_C": 2753,
      "2_1_N:N_N_L": 2754,
      "D_CB:CA_CB_CG": 2755,
      "1_6_S:C_S_F": 2756,
      "2_4_C:L_C_C": 2757,
      "2_6_O:B_O_O": 2758,
      "2_2_N:N_N_O": 2759,
      "1_5_L:F_L_C": 2760,
      "1_1_N:B_N_C": 2761,
      "2_5_O:S_O_F": 2762,
      "2_0_O:C_O_P": 2763,
      "2_2_B:C_B_N": 2764,
      "2_1_L:O_L_S": 2765,
      "2_0_O:B_O_O": 2766,
      "2_0_O:F_O_N": 2767,
      "1_2_N:L_N_S": 2768,
      "2_6_P:N_P_P": 2769,
      "2_5_F:L_F_C": 2770,
      "2_5_F:C_F_L": 2771,
      "1_4_F:C_F_S": 2772,
      "2_4_F:C_F_L": 2773,
      "2_3_C:N_C_P": 2774,
      "2_5_N:C_N_F": 2775,
      "2_2_S": 2776,
      "2_6_N:O_N_F": 2777,
      "2_3_O:N_O_O": 2778,
      "1_1_E:C_E_C": 2779,
      "2_4_F:C_F_S": 2780,
      "2_6_C:E_C_C": 2781,
      "2_1_O:V_O_N": 2782,
      "2_4_L:F_L_C": 2783,
      "1_3_F": 2784,
      "1_3_F:N_F_C": 2785,
      "1_2_C:O_C_P": 2786,
      "1_5_C:O_C_S": 2787,
      "2_5_O:N_O_N": 2788,
      "2_5_L:L_L_C": 2789,
      ":S_O_F": 2790,
      "2_0_F": 2791,
      "2_0_C:O_C_S": 2792,
      "1_0_F:O_F_C": 2793,
      "1_0_S:O_S_S": 2794,
      "1_0_S:N_S_O": 2795,
      "1_2_I": 2796,
      "_I:O_I_C": 2797,
      "1_5_O:F_O_P": 2798,
      "2_5_O:F_O_S": 2799,
      "2_3_O:N_O_I": 2800,
      ":H": 2801,
      "I_O": 2802,
      ":N_B_N": 2803,
      "2_1_O:O_O_I": 2804,
      ":CB_CG1_CD1": 2805,
      "1_2_C:C_C_I": 2806,
      "2_6_O:S_O_P": 2807,
      "1_5_C:C_C_P": 2808,
      "1_5_C:L_C_N": 2809,
      "2_5_C:O_C_S": 2810,
      "2_5_C:C_C_P": 2811,
      "1_0_F:C_F_O": 2812,
      "2_6_F:B_F_C": 2813,
      "2_2_N:T_N_N": 2814,
      "1_0_N:S_N_O": 2815,
      "1_1_N:N_N_B": 2816,
      "1_2_L:C_L_F": 2817,
      "I_O:CB_CG1_CD1": 2818,
      "1_2_O:P_O_P": 2819,
      "1_5_C:N_C_F": 2820,
      "1_5_C:B_C_C": 2821,
      "2_1_F:F_F_L": 2822,
      "1_0_C:S_C_N": 2823,
      "1_2_B": 2824,
      "2_0_O:N_O_F": 2825,
      "1_6_B:C_B_N": 2826,
      "1_3_O:F_O_S": 2827,
      "_S:S_S": 2828,
      "1_6_C:L_C_S": 2829,
      "1_6_C:O_C_B": 2830,
      "1_1_O:N_O_B": 2831,
      "1_3_C:L_C_C": 2832,
      "2_1_C:O_C_B": 2833,
      "2_2_N:N_N_S": 2834,
      "1_5_O:S_O_F": 2835,
      "1_1_C:S_C_B": 2836,
      "_B_P": 2837,
      "2_2_E:N_E_C": 2838,
      "2_2_T:N_T_N": 2839,
      "1_6_C:S_C_F": 2840,
      "_P:P_P_S": 2841,
      "2_3_O:L_O_C": 2842,
      "T_CG2:CG1_CG2_CA": 2843,
      "2_1_O:I_O_C": 2844,
      "2_1_O:V_O_C": 2845,
      "1_1_O:V_O_N": 2846,
      "2_3_C:N_C_F": 2847,
      "1_0_C:N_C_N": 2848,
      "1_0_N:O_N_S": 2849,
      ":P_N_O": 2850,
      "2_2_E:C_E_C": 2851,
      "1_2_F:S_F_C": 2852,
      "2_1_L:B_L_C": 2853,
      "1_1_L:L": 2854,
      "1_3_O:L_O_S": 2855,
      "2_0_I:I_I_C": 2856,
      "1_5_F:S_F_C": 2857,
      "2_5_N:F_N_C": 2858,
      "1_1_N:N_N_F": 2859,
      ":O_F_S": 2860,
      ":N_H_C": 2861,
      "2_6_S:O_S_S": 2862,
      "1_6_C:I_C_C": 2863,
      "1_3_N:N_N_O": 2864,
      "1_3_L:L_L_C": 2865,
      "1_1_N:B_N_N": 2866,
      "2_5_S:L_S_C": 2867,
      "1_1_F:F_F_L": 2868,
      "2_0_C:S_C_N": 2869,
      "1_2_E": 2870,
      "2_2_I": 2871,
      "2_2_O:N_O_F": 2872,
      "1_0_O:B_O_O": 2873,
      "2_3_N:S_N_P": 2874,
      "_S:S_S_S": 2875,
      "_S_F": 2876,
      "2_1_O:O_O_E": 2877,
      "1_3_N:C_N_F": 2878,
      "L_CD1:CD1_CG1_CB": 2879,
      "1_2_C:S_C_N": 2880,
      "2_2_C:I_C_C": 2881,
      "2_2_C:L_C_S": 2882,
      "2_2_C:C_C_I": 2883,
      "1_1_L:N_L_F": 2884,
      "2_1_N:S_N_O": 2885,
      ":F_S_F": 2886,
      "1_1_N:S_N_O": 2887,
      "2_5_N:S_N_C": 2888,
      "_ND1_CA": 2889,
      "H_ND1:CG_ND1_CA": 2890,
      "1_1_C:S_C_P": 2891,
      "1_0_C:O_C_S": 2892,
      "1_0_E:C_E_C": 2893,
      ":B_F_O": 2894,
      "2_2_B:C_B_O": 2895,
      "2_2_I:O_I_C": 2896,
      "1_2_N:B_N_C": 2897,
      "1_6_P:N_P_P": 2898,
      ":T_N_C": 2899,
      "F_CD1:C": 2900,
      "2_4_N:C_N_B": 2901,
      "B_CD1_CD2": 2902,
      "1_2_C:C_C_P": 2903,
      "_O:C_O_E": 2904,
      "1_5_S:L_S_C": 2905,
      "1_1_N:O_N_S": 2906,
      "2_5_C:L_C_N": 2907,
      "2_0_C:O_C_O": 2908,
      "2_0_C:S_C_S": 2909,
      "2_2_F:S_F_C": 2910,
      "2_2_O:O_O_B": 2911,
      "L:N_L_L": 2912,
      "2_2_L:S_L_C": 2913,
      "1_0_I:I_I_C": 2914,
      "1_4_N:S_N_S": 2915,
      "F_CD1:CB_CD1_CD2": 2916,
      "F_CE1:CD1_CE1_CE1": 2917,
      ":N_F": 2918,
      "1_4_L:C_L_O": 2919,
      "1_1_O:P_O_C": 2920,
      "1_2_N:O_N_N": 2921,
      "2_1_L:N_L_F": 2922,
      "1_5_L:C_L_O": 2923,
      "2_0_N:O_N_N": 2924,
      "1_6_N:U_N_C": 2925,
      "_P:N_P_O": 2926,
      "2_1_L:O_L": 2927,
      "1_1_S:P_S_C": 2928,
      "2_6_B:O_B_O": 2929,
      "2_1_N:N_N_F": 2930,
      ":C_C_O": 2931,
      "1_4_L:C_L_N": 2932,
      "1_1_O:V_O_C": 2933,
      "2_3_N:N_N_O": 2934,
      "2_2_C:B_C_C": 2935,
      "2_1_P:C_P_C": 2936,
      "1_0_F": 2937,
      "1_0_C:O_C_N": 2938,
      "1_2_S:S_S_C": 2939,
      "2_6_N:L_N_O": 2940,
      "1_2_O:F_O_N": 2941,
      "1_5_O:Y_O_C": 2942,
      "2_5_O:B_O_P": 2943,
      "2_3_O:F_O_C": 2944,
      "1_6_B:F": 2945,
      "1_6_F:P_F_C": 2946,
      "_CB:CG_CB_CA": 2947,
      "2_6_P:O": 2948,
      "1_6_S:O_S_S": 2949,
      "1_6_E:O_E_C": 2950,
      "2_4_N:S_N_C": 2951,
      "2_2_O:P_O_P": 2952,
      "1_6_O:B_O_O": 2953,
      "1_1_S:F_S_C": 2954,
      "2_5_C:N_C_F": 2955,
      "_C:N_C_I": 2956,
      "1_2_S:N_S": 2957,
      "1_2_S:C_S_F": 2958,
      "1_6_F:S_F_F": 2959,
      "2_6_F:S_F_F": 2960,
      "2_6_P:C_P_S": 2961,
      "1_2_O:L_O_N": 2962,
      "1_2_O:O_O_B": 2963,
      ":F_N_S": 2964,
      "2_2_O:I_O_C": 2965,
      "1_1_L:B_L_C": 2966,
      "1_0_O:F_O_N": 2967,
      "2_6_L:O_L_O": 2968,
      "2_6_L:N_L_O": 2969,
      "2_6_B:F_B_C": 2970,
      "_C:H": 2971,
      ":O_W": 2972,
      "2_6_U:N_U_C": 2973,
      "1_1_O:W_O_C": 2974,
      "1_2_C:F_C_S": 2975,
      "2_2_C:F_C_S": 2976,
      "1_6_O:S_O_P": 2977,
      "2_1_S:F_S_C": 2978,
      "1_5_C:L_C_O": 2979,
      "2_5_C:P_C_C": 2980,
      ":P_O_N": 2981,
      "1_1_F:B_F_C": 2982,
      "2_1_C:S_C_B": 2983,
      "2_0_N:O_N_S": 2984,
      "1_0_C:O_C_O": 2985,
      "1_2_E:C_E_C": 2986,
      "2_5_O:F_O_P": 2987,
      "_E:C_E_N": 2988,
      "2_6_C:I_C_C": 2989,
      "1_4_N:S_N_C": 2990,
      "1_4_O:P_O_S": 2991,
      "1_3_L:F_L_C": 2992,
      "2_2_C:S_C_N": 2993,
      "2_1_F:F_F_S": 2994,
      "2_0_C:C_C_I": 2995,
      "1_0_O:C_O_P": 2996,
      "2_6_N:I_N_C": 2997,
      "2_2_F:B_F_C": 2998,
      "1_2_O:N_O_L": 2999,
      "_C:E_C_O": 3000,
      ":P_S_N": 3001,
      "_C:I_C_N": 3002,
      "2_0_N:S_N_O": 3003,
      "_U:N_U_N": 3004,
      "2_2_L:C_L_L": 3005,
      "_C:H_C_C": 3006,
      "1_6_S:S_S_C": 3007,
      "1_4_C:L_C_N": 3008,
      "1_1_O:C_O_E": 3009,
      "2_3_L:C_L_N": 3010,
      "2_6_O:E_O_C": 3011,
      "2_1_N:P_N_O": 3012,
      "1_5_S:N_S_C": 3013,
      "1_5_N:S_N_C": 3014,
      "2_5_C:F_C_N": 3015,
      "2_5_O:S_O_B": 3016,
      "1_0_C:C_C_I": 3017,
      "2_2_S:C_S_F": 3018,
      "1_6_F:C_F_B": 3019,
      "2_4_N:L_N_C": 3020,
      "2_1_S:P_S_C": 3021,
      "2_5_F:S_F_C": 3022,
      "1_1_N:N_N_L": 3023,
      "_O_L": 3024,
      "2_6_S:S_S_O": 3025,
      "2_6_S:O_S_F": 3026,
      "1_6_C:B_C_N": 3027,
      "1_6_E:C_E_O": 3028,
      "1_6_U:N_U_C": 3029,
      "1_4_C:B_C_C": 3030,
      "2_4_L:C_L_N": 3031,
      "2_4_O:P_O_F": 3032,
      "2_3_F:N_F_C": 3033,
      "1_1_C:O_C_B": 3034,
      "2_1_N:F_N_F": 3035,
      "2_5_O:S_O_L": 3036,
      "2_5_O:P_O_S": 3037,
      "2_5_L:F_L_C": 3038,
      ":L_F_N": 3039,
      ":B_F_F": 3040,
      "1_6_N:I_N_C": 3041,
      "2_2_O:N_O_B": 3042,
      "1_1_L:O_L": 3043,
      "2_5_O:B_O_S": 3044,
      ":U_N_N": 3045,
      "2_6_F:P_F_C": 3046,
      "2_6_F:P_F_P": 3047,
      "1_1_B:B_O_C": 3048,
      ":O_E_O": 3049,
      "1_6_P:S": 3050,
      "1_4_S:C_S_P": 3051,
      "2_1_O:I_O_N": 3052,
      "1_1_O:I_O_N": 3053,
      "2_1_N:C_N_B": 3054,
      "1_2_C:S_C_O": 3055,
      "2_1_B:O_B_C": 3056,
      "2_1_F:C_F_L": 3057,
      "1_1_N:N_C_O": 3058,
      "2_0_O:P_O_P": 3059,
      "2_2_S:S_S_C": 3060,
      "2_6_F:F_F_S": 3061,
      "2_2_F:C_F_B": 3062,
      "1_6_N:L_N_O": 3063,
      "1_1_C:C_O_P": 3064,
      "1_2_O:N_O_B": 3065,
      "1_4_O:B_O_P": 3066,
      "1_5_O:B_O_P": 3067,
      "1_2_N:T_N_N": 3068,
      "2_2_N:O_N_O": 3069,
      ":F_L_O": 3070,
      "1_0_N:F_N_O": 3071,
      "2_1_N:N_N_B": 3072,
      "1_3_N:S_N_P": 3073,
      "1_6_F:P_F_P": 3074,
      "2_2_L:C_L_F": 3075,
      "1_2_I:N_I_C": 3076,
      "F_CD2:CD1_CD2_CB": 3077,
      "_CA_CA": 3078,
      "2_6_C:B_C_N": 3079,
      "1_4_C:F_C_O": 3080,
      "2_1_O:W_O_C": 3081,
      "2_4_O:P_O_S": 3082,
      "1_3_C:S_C_C": 3083,
      "1_3_L:C_L_L": 3084,
      "2_3_L:L_L_C": 3085,
      "_O:P_O_L": 3086,
      "2_0_N:N_N_L": 3087,
      "2_2_B": 3088,
      "1_6_F:L_F_F": 3089,
      "2_1_L:L": 3090,
      "2_2_O:L_O_N": 3091,
      "2_2_O:B_O_N": 3092,
      "1_5_O:I_O_C": 3093,
      "1_5_O:B_O_S": 3094,
      "2_4_O:B_O_P": 3095,
      "2_5_O:I_O_C": 3096,
      "2_5_O:Y_O_C": 3097,
      "_H:N_H_C": 3098,
      "2_2_N:S_N_O": 3099,
      "_O:C_CA_CA": 3100,
      "2_6_B:O_B_N": 3101,
      "1_0_N:O_N_O": 3102,
      "1_2_L:C_L_L": 3103,
      "2_2_S:L_S_C": 3104,
      "1_2_E:O_E_C": 3105,
      "1_CE2_CD2": 3106,
      "W:O_W": 3107,
      ":O_I": 3108,
      "2_6_C:B_C_O": 3109,
      "2_6_C:F_C_P": 3110,
      "_CE2:CE": 3111,
      "1_6_C:F_C_P": 3112,
      "2_1_O:C_C_O": 3113,
      "2_3_L:C_L_L": 3114,
      "1_1_N:C_N_B": 3115,
      "1_6_O:E_O_C": 3116,
      "1_1_N:F_N_F": 3117,
      ":B_O_F": 3118,
      "2_6_N:B_N_S": 3119,
      "1_2_O:B_O_N": 3120,
      "1_2_O:B_O_P": 3121,
      "2_6_C:S_C_L": 3122,
      "1_6_L:N_L_O": 3123,
      "2_2_N:B_N_C": 3124,
      "2_6_L:F_L_C": 3125,
      "1_1_E:E_O_O": 3126,
      "2_1_I:C_I_N": 3127,
      "1_3_F:C_F_L": 3128,
      ":N_F_L": 3129,
      "_CE2:CE1_CE2_CD2": 3130,
      "_C_I": 3131,
      "2_1_O:C_O_E": 3132,
      "2_4_C:L_C_N": 3133,
      "1_1_O:O_O_E": 3134,
      "1_3_C:F_C_N": 3135,
      "1_3_O:S_O_L": 3136,
      "2_3_F": 3137,
      "2_2_C:S_C_O": 3138,
      "2_1_E": 3139,
      "1_5_L:C_L_N": 3140,
      "1_1_F:C_F_L": 3141,
      "_C:L_C_F": 3142,
      "1_6_N:B_N_S": 3143,
      "1_0_O:F_O_O": 3144,
      "2_3_O:F_O_S": 3145,
      "2_1_S:L_S_C": 3146,
      "1_6_B:O_B_O": 3147,
      "2_0_N:T_N_N": 3148,
      "2_0_F:N_F_O": 3149,
      "1_2_S:N_S_P": 3150,
      "D_CG:CB_CG_CD": 3151,
      "L_CB:N_CA_C": 3152,
      "Y_CE1:CD1_CE1_CE1": 3153,
      "2_6_P:P_P_S": 3154,
      "1_6_C:B_C_O": 3155,
      "1_6_C:P_C_S": 3156,
      "1_6_S:O_S_F": 3157,
      "1_6_I:O_I_C": 3158,
      "_S:F_S_C": 3159,
      "2_1_O:C_O_I": 3160,
      "_P_L": 3161,
      "_P:L": 3162,
      "1_6_O:S_O_F": 3163,
      "1_5_C:O_C_L": 3164,
      "1_5_O:P_O_S": 3165,
      "2_5_S:N_S_C": 3166,
      "2_5_C:O_C_L": 3167,
      "2_5_L:C_L_O": 3168,
      "1_1_F:F_F_S": 3169,
      "_C:F_C_B": 3170,
      "1_6_O:P_O_S": 3171,
      "2_1_S:N_S_F": 3172,
      "1_3_O:O_O_N": 3173,
      ":O_F_B": 3174,
      "2_6_P:S_P_C": 3175,
      "Y_CD2:N": 3176,
      "2_6_I": 3177,
      "2_6_U:N_U_N": 3178,
      "1_6_P:O": 3179,
      "1_6_P:P_P_S": 3180,
      "2_1_O:P_O_N": 3181,
      "2_4_S:C_S_P": 3182,
      "2_4_C:S_C_O": 3183,
      "1_3_L:C_L_O": 3184,
      "1_3_N:O_N_S": 3185,
      "2_3_L:F_L_C": 3186,
      "N_OD1:CB_OD1_CA": 3187,
      "2_1_B:N_B_C": 3188,
      "2_1_N:T_N_C": 3189,
      "1_5_L:S_L_C": 3190,
      "2_5_L:C_L_N": 3191,
      "1_1_F:O_F_S": 3192,
      ":S_F_N": 3193,
      "2_0_C:N_C_O": 3194,
      "2_0_S:S_S_S": 3195,
      "2_0_P:N_P_O": 3196,
      "1_2_S:O_S_N": 3197,
      "1_2_T:N_T_N": 3198,
      ":L_O_L": 3199,
      "2_2_E": 3200,
      "2_6_F:L_F_F": 3201,
      "1_6_P:C_P_S": 3202,
      ":S_N_F": 3203,
      "_L:C_L_P": 3204,
      "2_2_O:N_O_L": 3205,
      "2_2_N:L_N_S": 3206,
      "_S:S_S_N": 3207,
      "2_6_S:F_S_F": 3208,
      "1_0_N:T_N_N": 3209,
      "2_4_F:L_F_C": 3210,
      "1_3_N:F_N_C": 3211,
      "2_1_I:C_I_O": 3212,
      "Y_CD2:NE2_CD2_CG": 3213,
      "L_CG:CD_CG_CB": 3214,
      "Y_CE2:CE1_CE2_CD2": 3215,
      ":C_E_N": 3216,
      "1_4_S:N_S_C": 3217,
      "1_4_O:S_O_B": 3218,
      "2_1_O:P_O_C": 3219,
      "1_3_N:C_N_L": 3220,
      "1_3_L:C_L_N": 3221,
      "2_3_S:N_S_C": 3222,
      "_C:O_C_I": 3223,
      "2_1_C:E_C_O": 3224,
      "1_6_O:I_O_O": 3225,
      "2_1_L:N_L_L": 3226,
      "2_5_C:B_C_C": 3227,
      "2_5_S:O_S_P": 3228,
      ":S_F_O": 3229,
      "2_0_C:C_C_B": 3230,
      "_C:P_C_F": 3231,
      "_C:N_C_U": 3232,
      "2_2_O:F_O_N": 3233,
      "2_0_O:F_O_O": 3234,
      "2_3_O:O_O_N": 3235,
      "1_6_B:N_B_N": 3236,
      "1_5_N:B_N_C": 3237,
      "1_1_I:I_O_C": 3238,
      "1_1_L:L_L_O": 3239,
      "2_6_P:O_P_F": 3240,
      "2_1_L:L_L_O": 3241,
      "_P:L_P_O": 3242,
      "S_O:C_CA_CA": 3243,
      ":C_W": 3244,
      "2_6_S:P_S_O": 3245,
      "2_6_E:O_E_C": 3246,
      "1_4_O:P_O_F": 3247,
      "1_4_O:C_O_I": 3248,
      "2_4_O:S_O_B": 3249,
      "2_3_O:S_O_L": 3250,
      "1_1_C:F_C_S": 3251,
      "1_2_O:C_O_E": 3252,
      "2_6_O:S_O_F": 3253,
      "2_2_O:P_O_B": 3254,
      "1_1_L:N_L_L": 3255,
      "1_5_O:S_O_L": 3256,
      "1_1_N:T_N_C": 3257,
      "2_5_N:C_N_B": 3258,
      "2_5_O:C_O_I": 3259,
      ":L_O_F": 3260,
      "1_0_O:N_O_L": 3261,
      "1_4_O:I_O_C": 3262,
      "1_4_O:B_O_S": 3263,
      "1_5_O:N_O_F": 3264,
      "2_4_O:B_O_O": 3265,
      "1_6_C:S_C_L": 3266,
      "1_3_O:F_O_P": 3267,
      "2_3_O:F_O_P": 3268,
      "1_6_S:F_S_F": 3269,
      "2_6_S:L_S_C": 3270,
      "2_6_B:F": 3271,
      ":O_F_P": 3272,
      "2_1_L:O_L_L": 3273,
      "1_6_P:S_P_C": 3274,
      "R_CA:N_CA_C": 3275,
      ":N_B_F": 3276,
      ":O_B_P": 3277,
      "2_6_C:P_C_S": 3278,
      "2_6_N:C_N_I": 3279,
      "2_6_I:O_I_C": 3280,
      "1_6_S:P_S_O": 3281,
      "1_6_C:H_C_C": 3282,
      "1_4_C:L_C_O": 3283,
      "2_4_O:C_O_I": 3284,
      "2_3_C:S_C_C": 3285,
      "2_1_C:C_C_I": 3286,
      "_P:F": 3287,
      "2_2_O:C_O_E": 3288,
      "1_5_C:C_C_B": 3289,
      "1_5_N:C_N_B": 3290,
      "1_5_C:O_C_F": 3291,
      "1_5_C:S_C_N": 3292,
      "1_5_O:C_O_I": 3293,
      "2_1_F:O_F_S": 3294,
      "2_1_F:L_F_N": 3295,
      "2_5_S:C_S_O": 3296,
      "2_5_C:S_C_O": 3297,
      "2_5_O:P_O_F": 3298,
      "1_0_S:S_S_S": 3299,
      "2_6_O:P_O_S": 3300,
      "1_6_F:F_F_S": 3301,
      "2_6_N:O_N_L": 3302,
      "1_4_O:O_O_B": 3303,
      "1_2_N:S_N_O": 3304,
      "S:F_S_O": 3305,
      "1_4_N:B_N_C": 3306,
      "2_6_B:N_B_N": 3307,
      "1_2_S:P_S_O": 3308,
      "1_3_N:L_N_C": 3309,
      "2_6_P:S_P_O": 3310,
      "2_0_F:O_F_N": 3311,
      "W:O_W_O": 3312,
      "S_CB:CG_CB_CA": 3313,
      "1_6_I": 3314,
      "1_4_C:O_C_L": 3315,
      "2_4_C:B_C_C": 3316,
      "1_3_C:O_C_S": 3317,
      "2_3_C:L_C_C": 3318,
      "2_3_C:F_C_N": 3319,
      "2_3_L:S_L_C": 3320,
      ":C_O_H": 3321,
      "2_1_B:C": 3322,
      "2_1_I:O_I_C": 3323,
      "1_5_S:N_S_N": 3324,
      "2_5_C:L_C_O": 3325,
      "S:C_S_B": 3326,
      "2_0_C:B_C_C": 3327,
      "2_0_E:C_E_O": 3328,
      "1_0_P:N_P_O": 3329,
      "1_2_P:C_P_C": 3330,
      "_C:B_C_F": 3331,
      "1_6_P:C_P_F": 3332,
      "2_1_L:F_L_O": 3333,
      "1_4_O:B_O_O": 3334,
      "1_6_S:L_S_C": 3335,
      "2_0_N:O_N_O": 3336,
      "2_3_N:F_N_C": 3337,
      "2_2_I:C_I_N": 3338,
      "1_0_F:N_F_O": 3339,
      "H:N_H_C": 3340,
      "W:C_W": 3341,
      "_S:P_S_C": 3342,
      "1_4_C:S_C_O": 3343,
      "1_1_O:C_O_I": 3344,
      "1_3_N:C_N_B": 3345,
      "1_3_O:S_O_S": 3346,
      "2_3_L:C_L_O": 3347,
      "2_6_O:I_O_N": 3348,
      "1_1_B:C": 3349,
      "1_5_S:O_S_O": 3350,
      "1_5_O:S_O_B": 3351,
      "1_5_B:C_B_C": 3352,
      "2_5_N:O_N_S": 3353,
      ":S_B_C": 3354,
      "1_0_C:N_C_O": 3355,
      "1_0_C:C_C_B": 3356,
      "1_0_P:O_P_N": 3357,
      "1_0_E:C_E_O": 3358,
      "2_2_S:N_S": 3359,
      "2_2_S:O_S_N": 3360,
      "1_6_F:B_F_F": 3361,
      "2_6_N:U_N_N": 3362,
      "1_6_N:U_N_N": 3363,
      "2_6_P:C_P_F": 3364,
      "1_5_O:F_O_N": 3365,
      "2_5_O:B_O_O": 3366,
      "2_5_O:O_O_B": 3367,
      "1_1_S:S_F_C": 3368,
      "2_0_P:C_P_N": 3369,
      "1_6_L:F_L_C": 3370,
      "2_5_N:B_N_C": 3371,
      "1_2_S:P_S_C": 3372,
      "1_1_I:C_I_N": 3373,
      "2_1_L:O_L_F": 3374,
      "1_6_B:F_B_O": 3375,
      "2_6_P:O_P_S": 3376,
      "1_1_L:O_L_L": 3377,
      "G_N": 3378,
      "G:N_": 3379,
      "U:C_U": 3380,
      "_G": 3381,
      "_N_OG1": 3382,
      ":N_B_O": 3383,
      "2_6_N:N_N_B": 3384,
      "2_6_S:O_S_P": 3385,
      "2_6_L:C_L_F": 3386,
      "2_6_C:N_C_I": 3387,
      "2_6_C:H_C_C": 3388,
      "2_6_L:C_L_P": 3389,
      "1_6_C:N_C": 3390,
      "1_6_C:F_C_B": 3391,
      "1_4_S:C_S_O": 3392,
      "1_4_C:L_C_S": 3393,
      "1_4_B:C_B_C": 3394,
      "2_4_S:C_S_O": 3395,
      "2_4_C:I_C_C": 3396,
      "1_3_N:S_N_C": 3397,
      "2_3_O:S_O_S": 3398,
      "2_3_O:P_O_S": 3399,
      "_C:C_C_E": 3400,
      "2_1_C:F_C_S": 3401,
      "2_1_C:I_C_N": 3402,
      "T_OG1:CA_N_OG1": 3403,
      "R_NH2:C_N_CA": 3404,
      "1_1_C:C_C_I": 3405,
      "1_2_N:C_N_P": 3406,
      "1_2_N:C_N_I": 3407,
      "2_6_O:N_O_B": 3408,
      "2_6_O:C_O_I": 3409,
      "2_2_N:O_N_N": 3410,
      "_L_L": 3411,
      "_L:B_L_C": 3412,
      "2_1_S:S": 3413,
      "1_1_B:O_B_C": 3414,
      "1_1_B:N_B_C": 3415,
      ":F_O_B": 3416,
      "1_5_C:S_C_O": 3417,
      "1_1_N:N_O_C": 3418,
      "2_5_C:C_C_B": 3419,
      "2_5_C:O_C_F": 3420,
      "2_5_S:N_S_N": 3421,
      "2_0_N:P_N_C": 3422,
      "2_2_P:C_P_C": 3423,
      "1_6_F:B_F_O": 3424,
      ":E_N_C": 3425,
      "2_2_O:B_O_P": 3426,
      "1_5_O:O_O_B": 3427,
      "1_2_N:S_N_N": 3428,
      "2_5_O:N_O_F": 3429,
      ":E_O_P": 3430,
      "E_CD:CG_CD_CE": 3431,
      "1_1_I:C_I_O": 3432,
      ":H_N_C": 3433,
      "2_2_I:C_I_O": 3434,
      "G:N_G_N": 3435,
      ":C_C_N": 3436,
      ":O_V": 3437,
      "2_6_N:N_N": 3438,
      "_N:C_N_E": 3439,
      "1_6_N:C_N_U": 3440,
      "1_6_S:S_S_O": 3441,
      "1_6_E:C_E_N": 3442,
      "1_4_S:F_S_C": 3443,
      "2_4_C:F_C_O": 3444,
      "2_4_B:C_B_C": 3445,
      "1_1_O:P_O_N": 3446,
      "1_1_O:L_O_L": 3447,
      "2_3_C:O_C_S": 3448,
      "1_1_C:I_C_N": 3449,
      "1_2_O:S_O_B": 3450,
      "2_6_O:I_O_C": 3451,
      "2_2_N:C_N_I": 3452,
      "_L_P": 3453,
      "1_6_O:B_O_B": 3454,
      "1_6_O:I_O_N": 3455,
      "1_6_O:C_O_I": 3456,
      "2_1_S:F_S_O": 3457,
      "2_1_S:C_S_B": 3458,
      "1_1_P:C_P_C": 3459,
      "2_1_N:C_C_N": 3460,
      "1_1_N:P_N_O": 3461,
      "2_5_S:C_S_L": 3462,
      "2_5_C:F_C_O": 3463,
      "1_1_F:L_F_N": 3464,
      "2_0_S:N_S_N": 3465,
      "2_0_S:S_S_O": 3466,
      "2_0_P:L_P_O": 3467,
      "1_0_L:C_L_N": 3468,
      "_P:O_P_L": 3469,
      ":B_C_C": 3470,
      "2_6_F:C_F_B": 3471,
      "_E:O_E_O": 3472,
      "1_2_O:L_O_P": 3473,
      "1_1_L:F_L_O": 3474,
      "1_6_B:C_B_F": 3475,
      "1_5_O:B_O_O": 3476,
      "2_4_O:B_O_S": 3477,
      "2_5_O:L_O_P": 3478,
      "_P:P_P_F": 3479,
      "2_2_N:S_N_N": 3480,
      "2_3_O:L_O_S": 3481,
      "1_1_S:S_N_C": 3482,
      "1_1_S:L_S_C": 3483,
      "1_0_N:O_N_F": 3484,
      "2_0_N:O_N_F": 3485,
      "1_1_I:N_I_C": 3486,
      "1_1_B:B_C_C": 3487,
      "1_2_I:C_I_O": 3488,
      "2_2_I:N_I_C": 3489,
      ":N_F_S": 3490,
      "1_6_B:F_B_F": 3491,
      ":O_I_O": 3492,
      "E_CG:CD_CG_CB": 3493,
      "V_CG2:CG2_OG1_CA": 3494,
      ":O_B_S": 3495,
      ":O_E_N": 3496,
      "2_6_E:C_E_N": 3497,
      "2_6_C:P_C_F": 3498,
      "1_6_C:N_C_I": 3499,
      "1_6_U:N_U_N": 3500,
      "1_6_H:N_H_C": 3501,
      "1_4_P:O_P_C": 3502,
      "1_4_C:I_C_C": 3503,
      "2_1_O:S_O_S": 3504,
      "2_4_S:N_S_C": 3505,
      "2_4_O:P_O_B": 3506,
      "1_1_O:C_C_O": 3507,
      "1_1_O:C_O_H": 3508,
      "1_3_O:P_O_F": 3509,
      "2_3_N:C_N_L": 3510,
      "2_3_N:O_N_S": 3511,
      "2_1_C:O_C_I": 3512,
      "1_2_O:P_O_B": 3513,
      "2_6_O:O_O_B": 3514,
      "2_6_O:I_O_O": 3515,
      "2_2_O:S_O_B": 3516,
      "1_1_S:O_S_P": 3517,
      "1_1_I:O_I_C": 3518,
      ":F_S_O": 3519,
      "1_5_C:F_C_O": 3520,
      "1_5_C:I_C_C": 3521,
      "1_5_O:P_O_F": 3522,
      "2_1_F:S_F_O": 3523,
      "2_5_S:O_S_O": 3524,
      "2_5_C:N_C_B": 3525,
      "2_5_C:I_C_C": 3526,
      "2_5_C:S_C_N": 3527,
      "2_5_L:S_L_C": 3528,
      ":O_N_U": 3529,
      "C_SG:C_N_CA": 3530,
      "2_0_C:N_C_P": 3531,
      "2_0_P:N_P_C": 3532,
      "2_0_N:P_N_O": 3533,
      "1_0_O:P_O_P": 3534,
      "1_0_N:C_N_L": 3535,
      "1_0_N:N_N_L": 3536,
      "1_0_S:S_S_O": 3537,
      ":P_N_N": 3538,
      "1_2_W:O_W_O": 3539,
      ":L_F_O": 3540,
      ":B_S_C": 3541,
      "1_6_O:P_O_F": 3542,
      "1_2_F:B_F_O": 3543,
      "_C:L_C_P": 3544,
      "2_6_F:B_F_F": 3545,
      "1_1_S:N_S_F": 3546,
      "2_6_B:C_B_F": 3547,
      "2_5_O:F_O_N": 3548,
      "2_5_O:B_O_N": 3549,
      "1_0_P:C_P_N": 3550,
      "1_3_O:N_O_F": 3551,
      "2_4_N:L_N_S": 3552,
      "1_5_N:U_N_C": 3553,
      "1_4_F:S_F_C": 3554,
      ":O_F_L": 3555,
      ":W_O_O": 3556,
      "1_2_B:O_B_O": 3557,
      "1_2_S:N_S_O": 3558,
      ":O_I_N": 3559,
      "2_1_E:C_E_N": 3560,
      "1_6_P:O_P_S": 3561,
      "1_6_P:O_P_F": 3562,
      "2_2_E:O_E_C": 3563,
      "E_CB:CA_CB_CG": 3564,
      "E_CD:N_CD_CG": 3565,
      "K_CB:CG_CB_CA": 3566,
      "2_6_W": 3567,
      "2_6_E:C_E_O": 3568,
      "2_6_H:N_H_C": 3569,
      "2_6_C:F_C_B": 3570,
      "1_6_S:O_S_P": 3571,
      "1_6_L:C_L_F": 3572,
      "1_6_C:P_C_F": 3573,
      "1_6_P:F": 3574,
      "1_4_C:O_C_P": 3575,
      "2_1_O:S_O_P": 3576,
      "2_1_O:L_O_L": 3577,
      "2_4_C:O_C_P": 3578,
      "2_4_C:S_C_N": 3579,
      "2_4_S:L_S_C": 3580,
      "1_3_C:F_C_O": 3581,
      "1_3_C:N_C_L": 3582,
      "1_3_L:S_L_C": 3583,
      "2_3_C:O_C_P": 3584,
      "D_OD1:CB_OD1_CA": 3585,
      "2_6_C:C_C_G": 3586,
      "1_2_N:N_N_P": 3587,
      "2_6_O:O_O_I": 3588,
      "2_6_O:C_O_E": 3589,
      "2_2_N:C_N_P": 3590,
      "2_2_C:O_C_B": 3591,
      "_L_F": 3592,
      "1_6_O:O_O_B": 3593,
      "1_6_C:C_C_H": 3594,
      "2_1_B": 3595,
      "_O:C_O_W": 3596,
      "2_1_N:B_N": 3597,
      "P_CB:N_CA_C": 3598,
      "1_5_C:O_C_P": 3599,
      "1_1_N:N_O_N": 3600,
      "1_1_N:I_N_C": 3601,
      "2_5_C:C_C_I": 3602,
      "2_5_B:C_B_C": 3603,
      "1_1_F:N_F_L": 3604,
      ":S_L_N": 3605,
      "2_0_L:C_L_F": 3606,
      "2_0_C:N_C_U": 3607,
      "1_0_C:N_C_S": 3608,
      "1_0_N:P_N_C": 3609,
      "1_0_V": 3610,
      "1_0_P:O_P_L": 3611,
      "_B_L": 3612,
      "1_2_H:N_H_C": 3613,
      "2_6_N:B_N_N": 3614,
      "1_6_N:B_N_N": 3615,
      "1_1_C:C_F_P": 3616,
      "_E:O_E_N": 3617,
      "2_6_B:C_B_P": 3618,
      "1_5_O:B_O_N": 3619,
      "2_4_O:O_O_B": 3620,
      "2_4_O:B_O_N": 3621,
      "2_4_O:L_O_P": 3622,
      ":L_N_L": 3623,
      "1_1_S:S_C_N": 3624,
      "1_1_S:S_S_O": 3625,
      "2_6_L:N": 3626,
      "2_3_O:B_O_O": 3627,
      "1_6_B:N_B_F": 3628,
      "1_2_S:P_S_N": 3629,
      "2_3_N:L_N_C": 3630,
      "2_1_I:N_I_C": 3631,
      "2_2_S:P_S_O": 3632,
      "1_6_B:F_B_N": 3633,
      "1_1_L:O_L_F": 3634,
      "2_3_F:C_F_L": 3635,
      "2_6_I:C_I_O": 3636,
      "2_2_S:N_S_O": 3637,
      "2_1_N:B_N_B": 3638,
      "F_CE2": 3639,
      "F_CD1:CG_CD1": 3640,
      "I_O:C_CA_CA": 3641,
      "K_CD:N_CD_CG": 3642,
      "R_CB:N_CA_C": 3643,
      ":CD1": 3644,
      ":C_E_O": 3645,
      "2_6_N:C_N_U": 3646,
      "2_6_P:F": 3647,
      "1_6_C:E_C_O": 3648,
      "1_6_L:C_L_P": 3649,
      "1_4_B": 3650,
      "1_4_C:S_C_N": 3651,
      "1_4_S:L_S_C": 3652,
      "2_4_C:L_C_O": 3653,
      "2_4_C:O_C_L": 3654,
      "2_4_C:C_C_I": 3655,
      "2_3_C:N_C_L": 3656,
      "2_1_C:N_C_I": 3657,
      "2_2_C:S_C_S": 3658,
      "1_6_O:I_O_C": 3659,
      "2_1_W:C_W": 3660,
      "2_1_N:P_N_N": 3661,
      "1_5_C:F_C_S": 3662,
      "1_5_E:O_E_C": 3663,
      "1_5_S:O_S_P": 3664,
      "2_1_F:N_F_L": 3665,
      "2_5_C:O_C_P": 3666,
      "2_5_S:S_S_C": 3667,
      "2_5_C:L_C_S": 3668,
      "2_0_C:P_C_N": 3669,
      "2_0_P:O_P_N": 3670,
      "2_0_P:O_P_P": 3671,
      "1_0_L": 3672,
      "1_0_C:B_C_C": 3673,
      "1_0_S:N_S_N": 3674,
      "1_0_E:O_E_C": 3675,
      "1_0_L:C_L_F": 3676,
      "1_0_P:L_P_O": 3677,
      "_C:N_C_E": 3678,
      "2_2_U:C_U": 3679,
      "2_6_O:P_O_F": 3680,
      "_C:B_C_S": 3681,
      "1_6_F:O_F_P": 3682,
      "2_6_F:B_F_O": 3683,
      "2_6_N:O_N_B": 3684,
      "2_6_N:O_N_U": 3685,
      "1_6_N:S_N_P": 3686,
      "1_6_N:O_N_L": 3687,
      "1_6_N:S_N_F": 3688,
      "1_1_C:C_O_S": 3689,
      "2_0_O:L_O_F": 3690,
      "1_4_O:L_O_P": 3691,
      "2_6_S:N_S_F": 3692,
      "1_2_N:O_N_F": 3693,
      ":V_N_C": 3694,
      "_P:P_P_E": 3695,
      ":F_F_B": 3696,
      "1_3_O:B_O_O": 3697,
      ":B_N_F": 3698,
      "1_5_F:C_F_B": 3699,
      "1_6_B:N_B_O": 3700,
      "2_6_B:N_B_F": 3701,
      "2_4_F:S_F_C": 3702,
      "2_5_N:U_N_C": 3703,
      "2_0_N:F_N_O": 3704,
      "1_2_L:C_L_S": 3705,
      "1_1_B:B_N_C": 3706,
      "2_2_S:P_S_C": 3707,
      "1_3_F:C_F_S": 3708,
      "1_2_I:C_I_N": 3709,
      "1_2_E:O_E_O": 3710,
      "1_0_F:F_F_N": 3711,
      ":O_W_C": 3712,
      "W:O_W_C": 3713,
      "2_6_B:F_B_N": 3714,
      "1_6_C:N_C_H": 3715,
      "1_0_V:O_V": 3716,
      "F_CE2:CD1": 3717,
      "F_CD1:CG_CD1_CA": 3718,
      "F_CE2:CD1_CE2_CD2": 3719,
      "K_CB:N_CA_C": 3720,
      "U:N_U": 3721,
      ":C_H": 3722,
      "_O_V": 3723,
      "_N_O": 3724,
      "2_6_C:L_C_F": 3725,
      "2_6_N:C_N_E": 3726,
      "2_6_P:P_P_F": 3727,
      "2_6_C:L_C_P": 3728,
      "1_6_N:N_N_B": 3729,
      "1_6_C:L_C_F": 3730,
      "1_4_N:N_N_O": 3731,
      "1_4_E:O_E_C": 3732,
      "2_1_O:C_O": 3733,
      "2_4_C:L_C_S": 3734,
      "2_4_S:O_S_P": 3735,
      "2_4_O:P_O_L": 3736,
      "1_1_O:O_F_C": 3737,
      "1_3_C:L_C_N": 3738,
      "1_3_C:O_C_L": 3739,
      "1_3_O:P_O_S": 3740,
      ":O_O_W": 3741,
      "2_3_O:P_O_F": 3742,
      "2_3_O:S_O_B": 3743,
      "2_1_C:L_C_L": 3744,
      "1_1_C:F_C_L": 3745,
      "1_1_C:L_C_F": 3746,
      "1_2_C:S": 3747,
      "1_2_C:O_C_B": 3748,
      "2_6_O:F_O_P": 3749,
      "2_2_C:P_C_O": 3750,
      "2_2_C:N_C_P": 3751,
      "2_2_O:P_O_L": 3752,
      "1_6_O:N_O_B": 3753,
      "2_1_G:N_G_N": 3754,
      "1_1_G:N_G_N": 3755,
      "2_1_N:F_N_S": 3756,
      "1_5_B": 3757,
      "1_5_C:N_C_B": 3758,
      "1_5_S:C_S_P": 3759,
      "1_5_L:C_L_F": 3760,
      ":P_B_C": 3761,
      ":P_L_O": 3762,
      "2_1_F:S_F_N": 3763,
      "2_5_L:C_L_F": 3764,
      "1_1_F:L_F_O": 3765,
      ":S_E_C": 3766,
      "2_0_F:N_F_C": 3767,
      "2_0_S:S_S_N": 3768,
      "2_0_S:P_S_C": 3769,
      "1_0_C:N_C_P": 3770,
      "1_0_N:C_N_F": 3771,
      "1_0_S:C_S_F": 3772,
      "1_0_C:N_C_U": 3773,
      "1_0_P:P_P_E": 3774,
      "_P:P_P_P": 3775,
      ":B_F_N": 3776,
      "2_2_S:C_S_L": 3777,
      "2_2_W:O_W_O": 3778,
      "2_1_L:C_L_B": 3779,
      "S:O_S_F": 3780,
      "1_1_L:C_L_B": 3781,
      "_P:C_P_C": 3782,
      "_B:B_B_O": 3783,
      "1_6_F:C_F_L": 3784,
      "2_6_N:S_N_P": 3785,
      "2_6_N:H_N_C": 3786,
      "1_6_N:H_N_C": 3787,
      "1_1_C:C_L_P": 3788,
      "1_6_P:C_P_L": 3789,
      "_I:C_I_O": 3790,
      "_E_S": 3791,
      "_E_P": 3792,
      "2_1_S:N_S_L": 3793,
      ":F_N_L": 3794,
      "2_2_O:B_O_F": 3795,
      "2_0_O:O_O_B": 3796,
      "2_0_O:W_O_O": 3797,
      "1_6_B:C_B_P": 3798,
      "1_4_O:L_O_N": 3799,
      "1_4_O:F_O_N": 3800,
      "1_2_N:S_N_L": 3801,
      "1_2_N:I_N_C": 3802,
      "1_2_N:F_N_S": 3803,
      ":V_O_V": 3804,
      "1_1_O:O_C_N": 3805,
      "_H:C_H": 3806,
      ":U_O_N": 3807,
      "1_6_S:N_S_F": 3808,
      "_V_C": 3809,
      "2_3_O:B_O_P": 3810,
      "2_6_P:S_P_P": 3811,
      "1_3_F:L_F_C": 3812,
      "1_2_B:F_B_C": 3813,
      "1_1_L:L_C_C": 3814,
      "1_0_F:O_F_N": 3815,
      "1_6_P:S_P_O": 3816,
      "2_2_B:O_B_P": 3817,
      "2_3_F:L_F_C": 3818,
      "2_1_B:C_B_S": 3819,
      "2_1_S:S_S_N": 3820,
      "2_1_S:S_S_O": 3821,
      "2_6_N:N_N_U": 3822,
      "2_6_W:O_W_C": 3823,
      "2_6_L:N_L_F": 3824,
      "1_0_V:O_V_V": 3825,
      "_H:C_H_N": 3826,
      "E_CB:CG_CB_CA": 3827,
      "F_CE2:CE1_CE2_CD2": 3828,
      "I_CD1": 3829,
      "_T": 3830,
      ":C_E_S": 3831,
      ":N_E_N": 3832,
      "2_6_C:U": 3833,
      "2_6_L:L_L_C": 3834,
      "2_6_C:E_C_N": 3835,
      "2_6_S:S_S_N": 3836,
      "2_6_C:B_C_F": 3837,
      "_N:C_N_H": 3838,
      "1_6_N:N_N": 3839,
      "1_6_N:C_N_I": 3840,
      "1_6_C:I_C_N": 3841,
      "1_6_S:S_S_N": 3842,
      "1_6_C:B_C_F": 3843,
      "1_6_P:P_P_F": 3844,
      "1_6_E:O_E_N": 3845,
      "_S:F_S_O": 3846,
      "_S:B_S_C": 3847,
      "1_4_O:P_O_B": 3848,
      "2_1_O:P_O": 3849,
      "2_1_O:C_O_H": 3850,
      "2_4_B": 3851,
      "2_4_N:N_N_O": 3852,
      "2_4_P:O_P_C": 3853,
      "2_4_S:C_S_N": 3854,
      "2_4_L:C_L_S": 3855,
      "1_1_O:S_O_S": 3856,
      "1_1_O:V_O_V": 3857,
      "1_3_C:O_C_P": 3858,
      "1_3_S:N_S_C": 3859,
      "1_3_C:L_C_S": 3860,
      "1_3_C:S_C_N": 3861,
      "1_3_S:L_S_C": 3862,
      "2_3_N:C_N_B": 3863,
      "2_3_O:C_O_I": 3864,
      "2_1_C:F_C_L": 3865,
      "2_1_N:C_N_I": 3866,
      "2_1_C:C_C_E": 3867,
      "2_6_C:C_C_H": 3868,
      "2_6_C:C_C_W": 3869,
      "1_1_C:L_C_L": 3870,
      "1_1_C:O_C_I": 3871,
      "1_2_C:B_C_O": 3872,
      "2_6_O:E_O_O": 3873,
      "2_2_C:B_C_O": 3874,
      "1_6_O:N_O_I": 3875,
      "1_6_O:W_O_C": 3876,
      "1_6_O:C_O_E": 3877,
      "K_CD:CG_CD_NE": 3878,
      "1_1_S:F_S_O": 3879,
      "1_1_S:O_S_F": 3880,
      "1_5_N:N_N_O": 3881,
      "1_5_E:C_E_C": 3882,
      "1_5_N:O_N_S": 3883,
      "1_5_B:O_B_C": 3884,
      "1_5_B:N_B_C": 3885,
      ":P_B_O": 3886,
      "2_5_N:C_N_P": 3887,
      "2_5_L:C_L_L": 3888,
      "2_5_S:O_S_N": 3889,
      "2_5_C:F_C_S": 3890,
      "2_5_O:P_O_B": 3891,
      "2_5_E:O_E_O": 3892,
      "1_1_F:F": 3893,
      "1_1_F:S_F_N": 3894,
      "1_1_F:O_F_L": 3895,
      ":S_L_L": 3896,
      "1_1_N:N_C_S": 3897,
      "2_0_C:N_C_S": 3898,
      "2_0_L:C_L_N": 3899,
      "2_0_S:C_S_F": 3900,
      "2_0_E:O_E_C": 3901,
      "1_0_L:N_L_C": 3902,
      "1_0_F:N_F_C": 3903,
      "1_2_B:C": 3904,
      "1_2_S:C_S_L": 3905,
      "1_2_S:C_S_S": 3906,
      "2_2_H:N_H_C": 3907,
      "S:O_S_S": 3908,
      "1_2_F:O_F_B": 3909,
      "1_6_F:B_F_N": 3910,
      "2_6_F:C_F_L": 3911,
      "2_6_F:S_F_N": 3912,
      "2_6_N:F_N_S": 3913,
      "2_6_N:S_N_F": 3914,
      "2_6_N:E_N_C": 3915,
      "2_2_F:B_F_O": 3916,
      "2_2_F:O_F_B": 3917,
      "1_6_N:O_N_B": 3918,
      "1_6_N:B_N_F": 3919,
      "2_1_O:F_O_S": 3920,
      "1_1_O:F_O_S": 3921,
      "_B:C_B_N": 3922,
      "1_2_O:W_O_C": 3923,
      "1_2_O:B_O_F": 3924,
      "1_2_O:F_O_B": 3925,
      "1_2_O:O_O_W": 3926,
      "2_2_O:L_O_P": 3927,
      "1_1_L:S_L_N": 3928,
      "1_1_S:N_S_L": 3929,
      "1_5_O:N_O_B": 3930,
      "1_5_O:L_O_P": 3931,
      "2_6_S:N_S_P": 3932,
      "2_4_O:F_O_N": 3933,
      "2_4_O:N_O_B": 3934,
      "1_2_N:O_N_P": 3935,
      "2_5_O:N_O_B": 3936,
      ":L_N_F": 3937,
      "1_1_S:S_S_N": 3938,
      "1_3_O:I_O_C": 3939,
      "2_2_N:F_N_S": 3940,
      "2_3_O:N_O_F": 3941,
      "1_4_N:L_N_S": 3942,
      "1_5_F:B_F_C": 3943,
      "2_6_S:P_S_N": 3944,
      "2_4_N:F_N_S": 3945,
      "2_4_F:C_F_B": 3946,
      "2_2_L:C_L_S": 3947,
      "2_6_F:P_F_O": 3948,
      "2_6_P:S_P_N": 3949,
      "1_2_B:O_B_N": 3950,
      "1_2_B:O_B_P": 3951,
      "1_1_L:L_C_P": 3952,
      "2_3_F:C_F_S": 3953,
      "2_6_I:C_I_N": 3954,
      "2_6_B:F_B_O": 3955,
      "2_6_B:F_B_F": 3956,
      "1_6_I:O_I_O": 3957,
      "2_2_S:N_S_P": 3958,
      "1_6_C:N_C_E": 3959,
      "2_6_P:F_P_O": 3960,
      "2_1_W:C_W_O": 3961,
      "2_2_U:C_U_C": 3962,
      "2_1_O:C_O_W": 3963,
      "I_CD1:C_N_CA": 3964,
      "2_6_C:U_C_N": 3965,
      "F_CD2": 3966,
      "I_CG2:CG1_CG2_CA": 3967,
      "K_CG:CD_CG_CB": 3968,
      "V:V_N_C": 3969,
      "_C_E": 3970,
      ":N_F_P": 3971,
      ":N_V_C": 3972,
      ":O_B_F": 3973,
      ":O_E_P": 3974,
      "2_6_S:C_S": 3975,
      "2_6_C:B": 3976,
      "2_6_U:C_U_N": 3977,
      "2_6_E:O_E_N": 3978,
      "2_6_C:N_C_E": 3979,
      "2_6_H:C_H_N": 3980,
      "1_6_V": 3981,
      "1_6_C:O_C_I": 3982,
      "1_6_C:L_C_P": 3983,
      "1_6_P:P_P_P": 3984,
      "1_6_B:B_B_O": 3985,
      "1_6_N:C_N_H": 3986,
      "H2_NE": 3987,
      "_S:P_S_N": 3988,
      "1_4_S:C_S_L": 3989,
      "1_4_N:P_N_C": 3990,
      "1_4_I:C_I_C": 3991,
      "1_4_C:C_C_I": 3992,
      "1_4_S:O_S_P": 3993,
      "1_4_O:P_O_L": 3994,
      "2_1_O:B_O_B": 3995,
      "2_1_O:S_O_F": 3996,
      "2_4_S:C_S_L": 3997,
      "2_4_S:S_S_C": 3998,
      "2_4_H:N_H_C": 3999,
      "2_4_S:F_S_C": 4000,
      "2_4_L:B_L_C": 4001,
      "_CD2:CD1_CD2_CG": 4002,
      "1_1_O:L_O_S": 4003,
      "1_1_O:L_O_F": 4004,
      "1_3_S:C_S_N": 4005,
      "1_3_C:B_C_C": 4006,
      "1_3_C:I_C_C": 4007,
      "1_3_C:C_C_I": 4008,
      "1_3_O:C_O_I": 4009,
      "1_3_E:O_E_C": 4010,
      "1_3_O:P_O_B": 4011,
      "2_3_S:C_S_O": 4012,
      "2_3_C:L_C_O": 4013,
      "2_3_C:L_C_N": 4014,
      "2_3_B:O_B_C": 4015,
      "2_1_C:F_C_P": 4016,
      "2_1_C:L_C_F": 4017,
      "2_1_C:B_C_F": 4018,
      "R_NH2:NE_N": 4019,
      "1_1_N:C_N_I": 4020,
      "1_1_C:F_C_P": 4021,
      "1_2_N:P_N_C": 4022,
      "1_2_C:U_C_C": 4023,
      "1_2_O:P_O_L": 4024,
      "2_6_O:F_O_S": 4025,
      "2_6_O:E_O_N": 4026,
      "2_6_O:B_O_B": 4027,
      "2_6_O:N_O_I": 4028,
      "2_6_O:B_O_S": 4029,
      "2_6_O:W_O_C": 4030,
      "N_OD1:CB_OD1_OD2": 4031,
      "2_2_N:P_N_C": 4032,
      "2_2_O:C_O_W": 4033,
      "_L_S": 4034,
      "1_6_O:O_O_I": 4035,
      "1_6_O:B_O_S": 4036,
      "1_6_O:U_O_N": 4037,
      "1_6_C:C_C_G": 4038,
      "2_1_S:O_S_P": 4039,
      "1_1_S:C_S_B": 4040,
      "1_1_V:V_N_C": 4041,
      "2_1_N:L_N_L": 4042,
      "1_5_N:C_N_P": 4043,
      "1_5_S:C_S_N": 4044,
      "1_5_S:C_S_O": 4045,
      "1_5_C:S_C_S": 4046,
      "1_5_C:L_C_S": 4047,
      "1_5_C:C_C_I": 4048,
      "1_5_O:P_O_B": 4049,
      "1_5_S:P_S_C": 4050,
      "1_5_L:B_L_C": 4051,
      "1_5_I:C_I_O": 4052,
      "1_1_N:L_N_L": 4053,
      ":P_F_O": 4054,
      "2_1_F:C_F_B": 4055,
      "2_1_F:O_F_P": 4056,
      "2_1_F:N_F_S": 4057,
      "2_5_E:C_E_C": 4058,
      "2_5_E:O_E_C": 4059,
      ":N_O_E": 4060,
      "1_1_F:C_F_B": 4061,
      "1_1_F:S_F_O": 4062,
      "1_1_F:O_F_P": 4063,
      "1_1_F:N_F_S": 4064,
      ":S_L_O": 4065,
      "W_CD1:C_N_CA": 4066,
      "1_1_N:N_F_C": 4067,
      "2_0_L": 4068,
      "2_0_N:C_N_L": 4069,
      "2_0_P:S": 4070,
      "2_0_E:C_E_N": 4071,
      "2_0_S:F_S_O": 4072,
      "1_0_N:P_N_P": 4073,
      "1_0_P:N_P_C": 4074,
      "1_0_S:O_S_F": 4075,
      "1_0_S:S_S_N": 4076,
      "_C:P_C_L": 4077,
      "2_2_B:C": 4078,
      "2_2_W:C_W": 4079,
      "_S:N_S_P": 4080,
      "1_6_F:O_F_B": 4081,
      "1_6_F:S_F_N": 4082,
      "1_6_F:N_F_S": 4083,
      "1_6_F:F_F_B": 4084,
      "2_6_F:N_F_L": 4085,
      "2_6_F:O_F_B": 4086,
      "2_6_F:S_F_O": 4087,
      "2_6_N:F_N": 4088,
      "1_6_N:F_N_L": 4089,
      "_I:C_I_N": 4090,
      "_E:N_E_N": 4091,
      "1_2_O:B_O_S": 4092,
      "1_2_O:E_O_P": 4093,
      "2_1_L:F_L": 4094,
      "2_2_O:B_O_S": 4095,
      "1_0_O:L_O_F": 4096,
      "1_4_O:B_O_N": 4097,
      "1_5_O:E_O_P": 4098,
      "S:S_S_O": 4099,
      "_C:E_C_P": 4100,
      "2_4_O:I_O_C": 4101,
      "1_2_N:S_N_F": 4102,
      "2_5_O:F_O_B": 4103,
      "L_CD2:C_N_CA": 4104,
      "1_3_O:B_O_P": 4105,
      "2_0_I:N_I_C": 4106,
      "2_2_N:S_N_L": 4107,
      "1_6_S:P_S_N": 4108,
      "2_4_N:B_N_C": 4109,
      "1_1_E:C_E_N": 4110,
      "1_1_E:E_O_P": 4111,
      "1_6_B:S_B_C": 4112,
      "1_5_N:L_N_S": 4113,
      "1_5_N:I_N_C": 4114,
      "2_5_F:B_F_C": 4115,
      ":T_N_O": 4116,
      "2_4_F:B_F_C": 4117,
      "2_5_N:S_N_O": 4118,
      "2_1_N:N_N_P": 4119,
      "2_0_N:F_N_C": 4120,
      "2_0_N:L_N_F": 4121,
      "1_3_N:L_N_S": 4122,
      "1_3_N:F_N_S": 4123,
      "1_6_F:P_F_F": 4124,
      "1_1_I:O_I_N": 4125,
      "1_1_B:P_B_O": 4126,
      "2_2_S:P_S_N": 4127,
      "1_3_F:S_F_C": 4128,
      "1_3_F:B_F_C": 4129,
      "1_2_B:S_B_C": 4130,
      "1_2_B:O_B_S": 4131,
      "_S:S_S_P": 4132,
      "1_1_L:O_L_P": 4133,
      "2_2_B:O_B_N": 4134,
      "2_2_B:O_B_O": 4135,
      "2_1_E:O_E_O": 4136,
      "2_6_I:O_I_O": 4137,
      ":C_W_C": 4138,
      "1_6_I:C_I_O": 4139,
      "1_6_I:C_I_N": 4140,
      "2_1_B:C_B_P": 4141,
      "1_1_B:C_B_S": 4142,
      "1_1_B:C_B_F": 4143,
      "1_1_B:C_B_P": 4144,
      "1_6_P:F_P_C": 4145,
      "1_0_L:P_L_O": 4146,
      "U:N_U_N": 4147,
      "1_2_C:S_C_F": 4148,
      "2_1_O:P_O_S": 4149,
      "F_CD2:C_N_CA": 4150,
      "2_6_S:C_S_B": 4151,
      "2_6_C:B_C_P": 4152,
      "R_NH2:NE_NH2_NE": 4153,
      "2_1_L:F_L_L": 4154,
      "D_CA:N_CA_C": 4155,
      "H_CB:CA_CB_CG": 4156,
      "I_CG1:CA_CG1_CG2": 4157,
      "I_O:C_O": 4158,
      "I_O:C": 4159,
      "N_O:C": 4160,
      "P_CD:N_CD": 4161,
      "R_CD:N_CD_CG": 4162,
      "S_CB:CA_CB_CG": 4163,
      "T_C": 4164,
      "T:C": 4165,
      "V:O_V": 4166,
      "W_CB:CG_CB_CA": 4167,
      "Y_CD2:CD1_CD2_CG": 4168,
      "_T_N": 4169,
      "_T:N_": 4170,
      "_C_U": 4171,
      ":C_V_O": 4172,
      ":C_V_C": 4173,
      "_NH1_NH2": 4174,
      ":N_B_S": 4175,
      "_CD2_CA": 4176,
      ":O_B_B": 4177,
      ":O_U": 4178,
      "2_6_C:N_C": 4179,
      "2_6_S:O_S": 4180,
      "2_6_V": 4181,
      "2_6_S:S_S_S": 4182,
      "2_6_C:N_C_U": 4183,
      "2_6_C:B_C_S": 4184,
      "2_6_P:P_P_P": 4185,
      "2_6_B:B_B_O": 4186,
      "2_6_S:S_S_P": 4187,
      "E2_CA": 4188,
      "_N:C_N_V": 4189,
      "1_6_C:F_C_L": 4190,
      "1_6_C:E_C_N": 4191,
      "1_6_E:C": 4192,
      "1_6_W": 4193,
      "1_6_H:C_H_N": 4194,
      "1_6_E:N_E_N": 4195,
      "1_6_C:E_C_P": 4196,
      "_S:I": 4197,
      ":CB_OD2_CB": 4198,
      "1_4_C:P_C_O": 4199,
      "1_4_S:C_S_N": 4200,
      "1_4_L:C_L_S": 4201,
      "1_4_S:O_S_N": 4202,
      "1_4_B:N_B_C": 4203,
      "1_4_C:F_C_S": 4204,
      "1_4_S:N_S_O": 4205,
      "1_4_I:O_I_C": 4206,
      "1_4_S:B_S_C": 4207,
      "2_1_O:N_O_I": 4208,
      "2_1_O:B_O_F": 4209,
      "2_4_C:P_C_C": 4210,
      "2_4_N:P_N_C": 4211,
      "2_4_I:C_I_C": 4212,
      "2_4_E:O_E_C": 4213,
      "2_4_L:C_L_F": 4214,
      "2_4_I:O_I_C": 4215,
      "1_1_O:O_S": 4216,
      "1_1_O:B_O_B": 4217,
      "1_1_O:N_O_I": 4218,
      "1_1_O:S_O_P": 4219,
      "1_1_O:S_O_F": 4220,
      "1_3_S:C_S_O": 4221,
      "1_3_L:C_L_S": 4222,
      "1_3_C:S_C_S": 4223,
      "1_3_C:S_C_O": 4224,
      "1_3_O:S_O_B": 4225,
      "1_3_S:O_S_P": 4226,
      "1_3_N:C_N_I": 4227,
      "1_3_B:C_B_C": 4228,
      "1_3_O:C_O_W": 4229,
      ":O_O_V": 4230,
      "2_3_S:C_S_N": 4231,
      "2_3_C:O_C_L": 4232,
      "2_3_N:S_N_C": 4233,
      "_C:O_C_E": 4234,
      "D_OD2:C_N_CA": 4235,
      "D_OD2:CB_OD2_CB": 4236,
      "2_1_C:P_C_L": 4237,
      "1:CG_NH1_NH2": 4238,
      "2_6_C:C_C_U": 4239,
      "1_1_C:L_C_S": 4240,
      "1_1_C:N_C_I": 4241,
      "1_1_C:E_C_O": 4242,
      "1_1_C:C_C_E": 4243,
      "1_1_C:N_C_E": 4244,
      "1_2_O:C_O": 4245,
      "1_2_C:P_C_O": 4246,
      "1_2_C:E_C_C": 4247,
      "1_2_C:S_C_S": 4248,
      "1_2_N:N_N_B": 4249,
      "1_2_O:C_O_W": 4250,
      "2_6_O:B_O_F": 4251,
      "2_6_O:U_O_N": 4252,
      "R_NH1:CG_NH1_NH2": 4253,
      "2_2_C:S": 4254,
      "2_2_N:P_N_N": 4255,
      "1_6_O:F_O_S": 4256,
      "1_6_O:E_O_O": 4257,
      "1_6_O:V_O_C": 4258,
      "1_6_O:O_O_E": 4259,
      "1_6_O:B_O_F": 4260,
      "1_6_O:F_O_B": 4261,
      "1_6_O:W_O_O": 4262,
      "1_6_C:C_C_U": 4263,
      "1_6_C:C_C_W": 4264,
      "2_1_V": 4265,
      "2_1_U:N_U_N": 4266,
      "1_1_W:O_W_C": 4267,
      "2_1_N:V": 4268,
      "2_1_N:I_N_C": 4269,
      "1_5_N:N_N_S": 4270,
      "1_5_N:O_N_N": 4271,
      "1_5_C:P_C_O": 4272,
      "1_5_L:C_L_S": 4273,
      "1_5_I:C_I_C": 4274,
      "1_5_S:O_S_N": 4275,
      "1_5_S:P_S_O": 4276,
      "1_5_C:B_C_N": 4277,
      "1_5_S:S_S_C": 4278,
      "1_5_C:C_C_E": 4279,
      "1_5_P:C_P_C": 4280,
      "1_5_B:C_B_N": 4281,
      "1_1_N:P_N_N": 4282,
      "2_1_F:L_F_O": 4283,
      "2_1_F:O_F_L": 4284,
      "2_1_F:N_F_P": 4285,
      "2_5_B": 4286,
      "2_5_N:N_N_O": 4287,
      "2_5_B:C": 4288,
      "2_5_B:O_B_C": 4289,
      "2_5_S:P_S_O": 4290,
      "2_5_S:C_S_P": 4291,
      "2_5_I:O_I_C": 4292,
      "2_5_S:P_S_C": 4293,
      "2_5_L:B_L_C": 4294,
      "2_5_S:P_S_N": 4295,
      "_O:P_O_E": 4296,
      "1_1_F:B_F_F": 4297,
      "1_1_F:F_F_B": 4298,
      ":S_O_L": 4299,
      "_CG1_CA": 4300,
      "_C:S_C_F": 4301,
      "2_1_C:S_C_I": 4302,
      "2_1_C:S_C_U": 4303,
      "2_0_N:P_N_P": 4304,
      "2_0_O:N_O_P": 4305,
      "2_0_N:C_N_F": 4306,
      "2_0_C:O_C_F": 4307,
      "2_0_E:N_E_C": 4308,
      "2_0_O:P_O_S": 4309,
      "2_0_P:O_P_L": 4310,
      "1_0_P:O_P_P": 4311,
      "1_0_N:P_N_O": 4312,
      "1_0_S:C_S_P": 4313,
      "1_0_E:C_E_N": 4314,
      "1_0_S:I": 4315,
      "1_2_U:C_U": 4316,
      "1_2_W:O_W_C": 4317,
      "1_2_S:O_S_S": 4318,
      "1_2_S:S_S_O": 4319,
      "1_2_V:O_V": 4320,
      ":L_B_C": 4321,
      ":L_B_O": 4322,
      ":L_O_B": 4323,
      ":L_S_O": 4324,
      ":B_S_O": 4325,
      "2_2_S:C_S_S": 4326,
      "2_2_U:N_U": 4327,
      "2_2_S:O_S_S": 4328,
      "1_6_F:F_F_L": 4329,
      "1_6_F:N_F_L": 4330,
      "2_6_F:F_F_P": 4331,
      "2_6_F:O_F_S": 4332,
      "2_6_F:O_F_P": 4333,
      "2_6_N:U": 4334,
      "2_6_N:B_N_O": 4335,
      "2_6_N:B_N_F": 4336,
      "1_6_N:B_N_O": 4337,
      "1_6_N:O_N_U": 4338,
      "2_1_O:F_O_L": 4339,
      "1_1_C:C_S_C": 4340,
      "_E:S_E_C": 4341,
      "1_2_O:E_O_C": 4342,
      "_U:O_U": 4343,
      "2_1_S:N_S_P": 4344,
      "2_1_L:S_L_N": 4345,
      "2_1_L:S_L_L": 4346,
      "2_2_O:E_O_C": 4347,
      "1_1_L:L_O_C": 4348,
      "1_1_L:F_L": 4349,
      "1_0_O:L_O_N": 4350,
      "1_0_O:O_O_L": 4351,
      "1_0_O:W_O_C": 4352,
      "1_1_S:N_S_P": 4353,
      "1_4_O:N_O_B": 4354,
      "1_5_O:B_O_F": 4355,
      "2_4_O:L_O_N": 4356,
      "1_1_S:S_C_O": 4357,
      "2_0_P:C_P_L": 4358,
      "1_6_P:N_P_S": 4359,
      "1_2_L:B_L_C": 4360,
      "1_6_S:N_S_P": 4361,
      "1_3_O:N_O_L": 4362,
      "1_3_O:O_O_B": 4363,
      "2_0_I:O_I": 4364,
      "2_2_N:O_N_P": 4365,
      "2_2_N:I_N_C": 4366,
      "2_6_L:L_L_N": 4367,
      "2_6_L:S_L_O": 4368,
      "2_3_O:F_O_N": 4369,
      "2_3_O:O_O_B": 4370,
      "2_3_O:I_O_C": 4371,
      "1_1_S:P_S_N": 4372,
      "1_4_N:S_N_N": 4373,
      "1_4_N:O_N_F": 4374,
      "1_4_N:S_N_O": 4375,
      "1_4_N:I_N_C": 4376,
      "1_4_N:B_N_S": 4377,
      "1_4_N:S_N_F": 4378,
      "1_6_S:F_S_O": 4379,
      "1_6_S:B_S_O": 4380,
      "2_6_S:F_S_O": 4381,
      "2_4_N:O_N_P": 4382,
      "2_4_N:S_N_O": 4383,
      "2_4_N:I_N_C": 4384,
      "2_1_S:P_S_N": 4385,
      "1_1_E:N_E_C": 4386,
      "1_1_E:O_E_C": 4387,
      "1_1_E:O_E_O": 4388,
      "1_1_E:C_E_O": 4389,
      "1_1_E:S_E_C": 4390,
      "Y_CD2:C_N_CA": 4391,
      "1_6_B:O_B_S": 4392,
      "1_6_B:O_B_F": 4393,
      "2_5_F:C_F_B": 4394,
      "1_4_F:B_F_C": 4395,
      "2_6_B:O_B_P": 4396,
      "2_6_B:S_B_C": 4397,
      "2_6_B:P_B_C": 4398,
      "2_6_B:O_B_B": 4399,
      "1_0_N:F_N_N": 4400,
      "1_0_N:F_N_F": 4401,
      "2_5_N:S_N_N": 4402,
      "2_0_N:F_N_F": 4403,
      "1_2_S:B_S_C": 4404,
      "1_3_N:S_N_O": 4405,
      "1_3_N:B_N_C": 4406,
      "2_3_N:L_N_S": 4407,
      "1_6_F:P_F_O": 4408,
      "1_1_B:S_B_C": 4409,
      "2_0_F:C_F_S": 4410,
      "1_2_B:N_B_N": 4411,
      "1_1_L:L_L_L": 4412,
      "1_1_L:L_L_P": 4413,
      "1_1_L:L_L_F": 4414,
      "1_2_E:C_E_N": 4415,
      "1_2_E:O_E_P": 4416,
      "2_1_L:O_L_P": 4417,
      "1_0_F:O_F_O": 4418,
      "2_2_B:F_B_C": 4419,
      "2_2_B:N_B_O": 4420,
      "2_2_B:O_B_S": 4421,
      "2_1_L:L_L_L": 4422,
      "2_1_L:L_L_P": 4423,
      "2_1_E:O_E_C": 4424,
      "2_1_E:C_E_O": 4425,
      "2_6_I:O_I_N": 4426,
      "2_2_E:C_E_N": 4427,
      "2_2_E:C_E_O": 4428,
      "2_2_E:C_E_S": 4429,
      "1_6_I:O_I_N": 4430,
      "2_1_B:C_B_F": 4431,
      "2_1_B:C_B_L": 4432,
      "1_1_B:C_B_L": 4433,
      "2_6_W:C_W_C": 4434,
      "1_6_P:F_P_O": 4435,
      "2_1_B:F_B_C": 4436,
      "2_1_B:O_B_O": 4437,
      "2_1_B:P_B_C": 4438,
      "2_6_L:N_L_L": 4439,
      "1_4_B:O_B_N": 4440,
      "2_1_W:C_W_C": 4441,
      "1_0_L:O_L_O": 4442,
      "2_2_U:C_U_N": 4443,
      "1_2_C:S_C_L": 4444,
      "1_5_B:F_B_C": 4445,
      "1_6_N:N_N_E": 4446,
      "1_6_N:N_N_U": 4447,
      "1_1_F:F_C_P": 4448,
      "1_2_B:C_B_F": 4449,
      "1_6_V:C_V_C": 4450,
      "2_2_W:C_W_C": 4451,
      "2_6_N:F_N_B": 4452,
      "I_O:C_OE2_CA": 4453,
      "P_CD:N_CD_CA": 4454,
      "T:C_T_N": 4455,
      "_T:N_T_C": 4456,
      "2_6_C:N_C_H": 4457,
      "2_6_S:O_S_L": 4458,
      "1_6_E:C_E_P": 4459,
      "1_1_O:O_S_O": 4460,
      "2_2_C:S_C_L": 4461,
      "2_1_N:V_N_N": 4462,
      "2_5_B:C_B_O": 4463,
      "1_0_S:I_S_C": 4464,
      "1_2_V:O_V_C": 4465,
      "2_2_U:N_U_C": 4466,
      "2_6_N:U_N_O": 4467,
      "_U:O_U_N": 4468,
      "1_1_L:F_L_P": 4469,
      "2_0_I:O_I_S": 4470,
      "A_O:C": 4471,
      "C_O:C": 4472,
      "F_CA:N_CA_C": 4473,
      "F_CD2:CD1_CD2_CG": 4474,
      "H_CG:CB_CG_CD": 4475,
      "N_CA:N_CA_C": 4476,
      "Q_CA:N_CA_C": 4477,
      "R_CB:CG_CB_CA": 4478,
      "T_CG2": 4479,
      "T_CB:CA_CB_CG": 4480,
      "V:N_V_C": 4481,
      "W:N": 4482,
      "W_CG:CD_CG_CB": 4483,
      "Y_CE1:ND1_CE1_NE2": 4484,
      ":C_CG2_CA": 4485,
      "_CG_CA": 4486,
      ":N_C_N": 4487,
      ":N_I": 4488,
      ":N_V_O": 4489,
      ":N_B_L": 4490,
      ":O_C_O": 4491,
      ":O_C_S": 4492,
      ":O_H_C": 4493,
      ":O_T": 4494,
      "2_6_E": 4495,
      "2_6_H": 4496,
      "2_6_C:F_C_L": 4497,
      "2_6_C:I_C_O": 4498,
      "2_6_U:N_U": 4499,
      "2_6_C:H": 4500,
      "2_6_C:E_C_O": 4501,
      "2_6_C:I_C_N": 4502,
      "2_6_E:O_E_O": 4503,
      "2_6_N:C_N_H": 4504,
      "2_6_C:P_C_L": 4505,
      "2_6_E:N_E_N": 4506,
      "2_6_C:O_C_E": 4507,
      "2_6_U:O_U_N": 4508,
      "1_6_S:O_S": 4509,
      "1_6_U:C_U_N": 4510,
      "1_6_C:N_C_U": 4511,
      "1_6_E:O_E_O": 4512,
      "1_6_T": 4513,
      "1_6_S:S_S_P": 4514,
      "1_6_C:O_C_E": 4515,
      "1_6_U:O_U_N": 4516,
      "_S_L": 4517,
      "1_4_C:P_C_C": 4518,
      "1_4_S:C_S_S": 4519,
      "1_4_C:B_C_O": 4520,
      "1_4_N:P_N_O": 4521,
      "1_4_N:C_N_I": 4522,
      "1_4_H:N_H_C": 4523,
      "1_4_S:P_S_C": 4524,
      "1_4_L:B_L_C": 4525,
      "1_4_N:C_N_E": 4526,
      "1_4_E:O_E_O": 4527,
      "1_4_P:C_P_C": 4528,
      "1_4_I:C_I_O": 4529,
      "1_4_B:C_B_N": 4530,
      "1_4_I:C_I_N": 4531,
      "1_4_E:S_E_C": 4532,
      ":N_CA_CA": 4533,
      "2_1_O:L_O_S": 4534,
      "2_1_O:U": 4535,
      "2_1_O:B_O_P": 4536,
      "2_1_O:L_O_F": 4537,
      "2_1_O:N_O_E": 4538,
      "2_1_O:O_O_V": 4539,
      "2_1_O:S_O_L": 4540,
      "2_1_O:L_O_B": 4541,
      "2_4_C:P_C_O": 4542,
      "2_4_S:N_S_N": 4543,
      "2_4_L:C_L_L": 4544,
      "2_4_S:O_S_N": 4545,
      "2_4_S:P_S_O": 4546,
      "2_4_C:F_C_S": 4547,
      "2_4_S:C_S_F": 4548,
      "2_4_E:C_E_N": 4549,
      "2_4_N:C_N_E": 4550,
      "2_4_B:C_B_N": 4551,
      "2_4_S:N_S_P": 4552,
      "2_4_C:S_C_F": 4553,
      "2_4_E:S_E_C": 4554,
      "1_1_O:C_O": 4555,
      "1_1_O:P_O": 4556,
      "1_1_O:O_N_O": 4557,
      "1_1_O:O_L_C": 4558,
      "1_1_O:B_O_P": 4559,
      "1_1_O:S_O_L": 4560,
      "1_3_N:O_N_N": 4561,
      "1_3_S:C_S_S": 4562,
      "1_3_S:C_S_L": 4563,
      "1_3_C:B_C_O": 4564,
      "1_3_B:O_B_C": 4565,
      "1_3_C:F_C_S": 4566,
      "1_3_S:C_S_P": 4567,
      "1_3_S:O_S_S": 4568,
      "1_3_S:C_S_F": 4569,
      "1_3_S:N_S_O": 4570,
      "1_3_E:C": 4571,
      "1_3_L:C_L_F": 4572,
      "1_3_S:F_S_C": 4573,
      "1_3_N:C_N_V": 4574,
      "2_3_S:C_S_L": 4575,
      "2_3_I": 4576,
      "2_3_L:C_L_S": 4577,
      "2_3_C:F_C_O": 4578,
      "2_3_C:B_C_C": 4579,
      "2_3_U:C_U_C": 4580,
      "2_3_S:O_S_N": 4581,
      "2_3_S:P_S_O": 4582,
      "2_3_C:I_C_C": 4583,
      "2_3_S:C_S_P": 4584,
      "2_3_S:S_S_C": 4585,
      "2_3_C:S_C_O": 4586,
      "2_3_C:L_C_S": 4587,
      "2_3_C:C_C_I": 4588,
      "2_3_C:S_C_N": 4589,
      "2_3_S:O_S_S": 4590,
      "2_3_S:C_S_F": 4591,
      "2_3_S:N_S_O": 4592,
      "2_3_S:L_S_C": 4593,
      "2_3_O:P_O_B": 4594,
      "2_3_L:C_L_F": 4595,
      "2_3_B:C_B_C": 4596,
      "2_3_O:P_O_L": 4597,
      "2_3_H:N_H_C": 4598,
      "2_3_L:B_L_C": 4599,
      "2_3_N:C_N_E": 4600,
      "2_3_E:O_E_O": 4601,
      "2_3_P:C_P_C": 4602,
      "A_CB:CA_CB": 4603,
      "_C:C_C_H": 4604,
      "2_1_C:H_C_C": 4605,
      "2_1_C:N_C_E": 4606,
      "2_1_C:E_C_P": 4607,
      "2_6_C:C_C_V": 4608,
      "1_1_C:B_C_F": 4609,
      "1_1_C:B_C_S": 4610,
      "1_2_C:P_C_C": 4611,
      "1_2_C:N_C_P": 4612,
      "1_2_N:P_N_O": 4613,
      "1_2_C:B_C_N": 4614,
      "1_2_N:P_N_N": 4615,
      "1_2_N:C_N_E": 4616,
      "1_2_C:B_C_S": 4617,
      "1_2_C:C_C_H": 4618,
      "2_6_O:L_O_S": 4619,
      "2_6_O:V_O_N": 4620,
      "2_6_O:O_O_E": 4621,
      "2_6_O:N_O_E": 4622,
      "_P_B": 4623,
      "E_O:C_CG2_CA": 4624,
      "E_OE2:C_N_CA": 4625,
      "2_2_C:P_C_C": 4626,
      "2_2_C:B_C_N": 4627,
      "2_2_C:C_C_U": 4628,
      "2_2_C:B_C_S": 4629,
      "2_2_O:P_O_E": 4630,
      "N_ND2:C_N_CA": 4631,
      "1_6_O:F": 4632,
      "1_6_O:L_O_S": 4633,
      "1_6_O:F_O_P": 4634,
      "1_6_O:E_O_N": 4635,
      "1_6_O:L_O_F": 4636,
      "1_6_O:N_O_E": 4637,
      "1_6_C:C_C_V": 4638,
      "2_1_E:N_E_C": 4639,
      "2_1_T:N_T_N": 4640,
      "2_1_U:C_U": 4641,
      "2_1_W:O_W_C": 4642,
      "2_1_S:O_S_F": 4643,
      "2_1_T:C_T_N": 4644,
      "S_OG:C_N_CA": 4645,
      "1_1_W:C_W": 4646,
      "1_1_U:C_U": 4647,
      "1_1_U:N_U_N": 4648,
      "1_1_T:C_T_N": 4649,
      "_O:C_O_V": 4650,
      "_O:C_O_T": 4651,
      "2_1_N:S_N_F": 4652,
      "2_1_N:F_N_L": 4653,
      "2_1_N:T_N_O": 4654,
      "2_1_N:N_C_N": 4655,
      ":F_S_N": 4656,
      "1_5_L:C_L_L": 4657,
      "1_5_C:B_C_O": 4658,
      "1_5_E:N_E_C": 4659,
      "1_5_S:O_S_S": 4660,
      "1_5_C:O_C_B": 4661,
      "1_5_S:N_S_O": 4662,
      "1_5_I:N_I_C": 4663,
      "1_5_E:C_E_O": 4664,
      "1_5_O:C_O_E": 4665,
      "1_5_E:C_E_N": 4666,
      "1_5_O:P_O_L": 4667,
      "1_5_S:F_S_C": 4668,
      "1_5_E:O_E_O": 4669,
      "1_5_C:B_C_S": 4670,
      "1_5_S:B_S_C": 4671,
      "1_5_S:N_S_P": 4672,
      "1_5_I:C_I_N": 4673,
      "1_5_N:C_N_V": 4674,
      "1_5_C:S_C_F": 4675,
      "1_5_O:C_O_V": 4676,
      "1_1_N:N_O_O": 4677,
      "1_1_N:E_N_N": 4678,
      "1_1_N:E_N_C": 4679,
      "1_1_N:T_N_O": 4680,
      ":P_B_P": 4681,
      "2_1_F:L": 4682,
      "2_1_F:B_F_O": 4683,
      "2_1_F:B_F_F": 4684,
      "2_1_F:F_F_B": 4685,
      "2_1_F:P_F_O": 4686,
      "2_5_N:O_N_N": 4687,
      "2_5_C:P_C_O": 4688,
      "2_5_C:N_C_P": 4689,
      "2_5_C:P_C_N": 4690,
      "2_5_S:C_S_N": 4691,
      "2_5_N:P_N_C": 4692,
      "2_5_I:C_I_C": 4693,
      "2_5_B:N_B_C": 4694,
      "2_5_C:B_C_N": 4695,
      "2_5_S:C_S_F": 4696,
      "2_5_S:N_S_O": 4697,
      "2_5_I:N_I_C": 4698,
      "2_5_O:C_O_E": 4699,
      "2_5_E:C_E_N": 4700,
      "2_5_O:P_O_L": 4701,
      "2_5_S:F_S_C": 4702,
      "2_5_C:C_C_E": 4703,
      "2_5_P:C_P_C": 4704,
      "2_5_I:C_I_O": 4705,
      "2_5_S:B_S_C": 4706,
      "2_5_I:C_I_N": 4707,
      "2_5_O:P_O_E": 4708,
      "S:C_S_E": 4709,
      "1_1_F:C_F_P": 4710,
      "1_1_F:P_F_O": 4711,
      ":S_I_C": 4712,
      "K_NZ:C_N_CA": 4713,
      "2_0_S:C_S": 4714,
      "2_0_N:C_N_P": 4715,
      "2_0_S:N_S": 4716,
      "2_0_L:N_L_C": 4717,
      "2_0_O:C_O_B": 4718,
      "2_0_C:N_C_F": 4719,
      "2_0_C:L_C_N": 4720,
      "2_0_C:O_C_L": 4721,
      "2_0_C:P_C_S": 4722,
      "2_0_S:C_S_P": 4723,
      "2_0_S:O_S_P": 4724,
      "2_0_B:C_B_C": 4725,
      "2_0_O:P_O_L": 4726,
      "2_0_S:F_S_C": 4727,
      "2_0_P:L": 4728,
      "2_0_C:C_C_E": 4729,
      "2_0_P:P_P_E": 4730,
      "2_0_S:P_S_N": 4731,
      "2_0_S:N_S_P": 4732,
      "2_0_T:N_T_C": 4733,
      "2_0_O:C_O_T": 4734,
      "1_1_C:S_C_I": 4735,
      "1_1_C:S_C_E": 4736,
      "1_0_P:O": 4737,
      "1_0_N:C_N_P": 4738,
      "1_0_S:N_S": 4739,
      "1_0_S:C_S_L": 4740,
      "1_0_C:P_C_N": 4741,
      "1_0_O:C_O_B": 4742,
      "1_0_F:C_F_N": 4743,
      "1_0_C:F_C_O": 4744,
      "1_0_C:L_C_O": 4745,
      "1_0_C:O_C_F": 4746,
      "1_0_C:O_C_L": 4747,
      "1_0_N:N_N_F": 4748,
      "1_0_E:N_E_C": 4749,
      "1_0_O:P_O_S": 4750,
      "1_0_E:C": 4751,
      "1_0_P:S": 4752,
      "1_0_B:C_B_C": 4753,
      "1_0_S:F_S_C": 4754,
      "1_0_P:L": 4755,
      "1_0_S:F_S_O": 4756,
      "1_0_T:N_T_C": 4757,
      "1_2_W:C_W": 4758,
      "1_2_W:N": 4759,
      "1_2_S:C_S_E": 4760,
      ":L_L_O": 4761,
      ":L_L_S": 4762,
      ":L_S_L": 4763,
      ":B_B_C": 4764,
      ":B_O_I": 4765,
      "2_2_L:N_L_N": 4766,
      "2_2_L:N_L_F": 4767,
      "2_2_W:O_W_C": 4768,
      "2_2_S:S_S_O": 4769,
      "2_2_V:N_V_C": 4770,
      "2_6_O:P_O_L": 4771,
      "1_2_F:N_F_L": 4772,
      "1_6_F:O_F_S": 4773,
      "2_6_F:L_F_O": 4774,
      "2_6_F:O_F_L": 4775,
      "2_6_F:B_F_N": 4776,
      "2_6_F:N_F_P": 4777,
      "2_6_N:F_N_L": 4778,
      "2_2_F:C_F_P": 4779,
      "2_2_F:O_F_L": 4780,
      "1_6_N:E_N_C": 4781,
      "1_6_N:L_N_L": 4782,
      "1_6_N:V_N_C": 4783,
      "2_6_P:C_P_B": 4784,
      "1_1_O:F_O_L": 4785,
      ":S_N_B": 4786,
      "_E_I": 4787,
      "1_2_O:O_O_L": 4788,
      "1_2_O:O_O_V": 4789,
      "2_1_L:T": 4790,
      "2_1_L:S_L_O": 4791,
      "2_2_O:V_O_C": 4792,
      "2_2_O:W_O_C": 4793,
      "2_2_O:E_O_P": 4794,
      "2_2_O:L_O_B": 4795,
      "2_2_O:B_O_I": 4796,
      "1_1_L:P_L_O": 4797,
      "2_0_O:L_O_N": 4798,
      "2_0_O:L_O_O": 4799,
      "2_0_O:O_O_L": 4800,
      "2_0_O:B_O_B": 4801,
      "2_0_O:W_O_C": 4802,
      "1_0_O:I_O_O": 4803,
      "1_0_O:T": 4804,
      "1_0_O:B_O_B": 4805,
      "1_0_O:I_O_N": 4806,
      "1_0_O:W_O_O": 4807,
      "1_0_O:V_O_V": 4808,
      "1_1_S:N_S_B": 4809,
      "2_6_C:S_C_B": 4810,
      "1_4_O:O_O_O": 4811,
      "1_4_O:E_O_C": 4812,
      "1_4_O:V_O_C": 4813,
      "1_5_O:O_O_O": 4814,
      "1_5_O:L_O_N": 4815,
      "1_5_O:F_O_B": 4816,
      "1_5_O:O_O_W": 4817,
      "2_6_S:N_S_L": 4818,
      "2_6_S:N_S_B": 4819,
      ":I_C_C": 4820,
      ":I_O_B": 4821,
      "2_4_O:O_O_L": 4822,
      "2_4_O:I_O_B": 4823,
      "1_2_N:B_N_S": 4824,
      "1_2_N:E_N_C": 4825,
      "2_5_O:O_O_L": 4826,
      "2_5_O:B_O_F": 4827,
      "1_1_S:S_O_P": 4828,
      "2_6_P:N_P_S": 4829,
      "2_0_P:C_P_S": 4830,
      ":P_S_F": 4831,
      ":O_L_F": 4832,
      ":O_L_L": 4833,
      "1_6_S:N_S_L": 4834,
      "1_0_P:C_P_P": 4835,
      "1_0_P:C_P_L": 4836,
      "1_3_O:L_O_N": 4837,
      "1_3_O:F_O_N": 4838,
      "1_3_O:B_O_N": 4839,
      "1_3_O:N_O_B": 4840,
      "1_3_O:L_O_P": 4841,
      "1_3_O:B_O_F": 4842,
      "1_6_L:L_L_C": 4843,
      "1_6_L:F_L_F": 4844,
      "1_6_L:O_L_S": 4845,
      "1_6_L:S_L_N": 4846,
      "1_6_L:S_L_L": 4847,
      "1_6_L:L_L_O": 4848,
      "1_6_L:O_L_F": 4849,
      "2_2_L:F_L_F": 4850,
      "2_2_L:B_L_C": 4851,
      "2_0_I:C_I_N": 4852,
      "2_0_I:S_I_C": 4853,
      "2_2_N:S_N_S": 4854,
      "2_2_N:E_N_C": 4855,
      "2_6_L:O_L_S": 4856,
      "2_6_L:S_L_L": 4857,
      "2_6_L:L_L_S": 4858,
      "2_6_L:O_L_L": 4859,
      "2_3_O:E_O_C": 4860,
      "2_3_O:N_O_L": 4861,
      "2_3_O:B_O_N": 4862,
      "2_3_O:W_O_C": 4863,
      "2_3_O:L_O_P": 4864,
      "1_1_S:P_S_P": 4865,
      "1_1_S:O_C_O": 4866,
      "1_0_I:N_I_C": 4867,
      "1_4_N:O_N_O": 4868,
      "1_4_N:S_N_L": 4869,
      "1_4_N:F_N_S": 4870,
      "1_5_F:C_F_P": 4871,
      "1_5_F:O_F_B": 4872,
      "1_6_S:L_S_N": 4873,
      "1_6_S:L_S_O": 4874,
      "1_6_S:F_S_N": 4875,
      "1_6_S:L_S_L": 4876,
      "2_6_S:L_S_O": 4877,
      "2_6_S:P_S_F": 4878,
      "2_4_N:B_N_S": 4879,
      "2_4_N:E_N_C": 4880,
      "2_1_S:B_S_C": 4881,
      "2_1_S:O_C_S": 4882,
      "1_6_B:O_B_P": 4883,
      "1_6_B:P_B_P": 4884,
      "1_5_N:O_N_O": 4885,
      "1_5_N:O_N_P": 4886,
      "1_5_N:O_N_F": 4887,
      "1_5_N:S_N_O": 4888,
      "1_5_N:E_N_C": 4889,
      "1_5_N:V_N_C": 4890,
      "2_5_F:C_F_P": 4891,
      "2_5_F:O_F_B": 4892,
      "1_4_F:C_F_B": 4893,
      "1_4_F:C_F_P": 4894,
      "1_4_F:O_F_B": 4895,
      "K_O:C_CG1_CA": 4896,
      "2_6_B:N_B_O": 4897,
      "2_6_B:O_B_S": 4898,
      "2_6_B:O_B_F": 4899,
      "2_6_B:N_B_S": 4900,
      "1_0_N:F_N_C": 4901,
      "1_0_N:L_N_F": 4902,
      "1_0_N:T_N_O": 4903,
      "2_4_F:B_F_O": 4904,
      "2_5_N:S_N_L": 4905,
      "2_5_N:L_N_S": 4906,
      "2_5_N:I_N_C": 4907,
      "2_5_N:V_N_C": 4908,
      "1_1_N:N_N_P": 4909,
      "1_1_N:N_N_T": 4910,
      "2_0_N:F_N_N": 4911,
      "_W_C": 4912,
      "1_2_L:C_L_P": 4913,
      "1_3_N:O_N_O": 4914,
      "2_3_N:S_N_N": 4915,
      "2_3_N:B_N_C": 4916,
      "2_3_N:S_N_B": 4917,
      "1_6_F:P_F_N": 4918,
      "1_1_I:O_I_O": 4919,
      "1_1_I:I_C_C": 4920,
      "G_CA:N_CA_CA": 4921,
      "2_6_F:P_F_N": 4922,
      "1_1_B:B_O_P": 4923,
      "1_1_B:B_L_C": 4924,
      "1_1_B:O_B_O": 4925,
      "1_1_B:N_B_N": 4926,
      "1_1_B:P_B_C": 4927,
      "2_1_I:O_I_N": 4928,
      "2_1_I:N_I": 4929,
      "2_2_S:B_S_C": 4930,
      "2_0_F:N_F_N": 4931,
      "2_0_F:O_F_O": 4932,
      "2_0_F:S_F_O": 4933,
      "1_2_B:P_B_O": 4934,
      "1_2_B:L_B_C": 4935,
      "1_2_B:L_B_O": 4936,
      "1_2_B:N_B_L": 4937,
      "1_2_B:B_B_C": 4938,
      "1_1_L:L_C_N": 4939,
      "1_1_L:L_L_S": 4940,
      "1_2_E:C_E_S": 4941,
      "2_1_L:O_L_B": 4942,
      "1_0_F:C_F_S": 4943,
      "1_0_F:P_F_O": 4944,
      "1_1_L:O_L_B": 4945,
      "1_6_P:S_P_N": 4946,
      "1_6_P:S_P_P": 4947,
      "2_2_B:N_B_N": 4948,
      "2_2_B:S_B_C": 4949,
      "2_2_B:N_B_S": 4950,
      "2_1_L:L_L_S": 4951,
      "2_3_F:S_F_C": 4952,
      "2_3_F:C_F_B": 4953,
      "2_1_E:O_E_N": 4954,
      "2_1_E:C_E_S": 4955,
      "2_1_E:N_E_N": 4956,
      "2_2_E:O_E_O": 4957,
      "2_2_E:S_E_C": 4958,
      ":O_V_N": 4959,
      "2_6_N:N_N_I": 4960,
      "2_6_N:N_N_E": 4961,
      "2_6_N:N_N_V": 4962,
      "2_6_N:N_N_W": 4963,
      "1_6_P:F_P_N": 4964,
      "1_6_P:F_P_F": 4965,
      "2_1_B:O_B_P": 4966,
      "1_0_V:C_V_O": 4967,
      "2_6_P:F_P_C": 4968,
      "2_6_P:F_P_F": 4969,
      "1_4_B:F_B_C": 4970,
      "1_4_B:N_B_N": 4971,
      "1_4_B:N_B_O": 4972,
      "1_4_B:L_B_C": 4973,
      "1_0_L:O_L_N": 4974,
      "1_0_V:O_V_C": 4975,
      "2_1_O:C_O_U": 4976,
      "1_5_B:O_B_O": 4977,
      "1_5_B:N_B_N": 4978,
      "1_5_B:L_B_O": 4979,
      "2_1_O:P_O_F": 4980,
      "2_4_B:F_B_C": 4981,
      "2_4_B:O_B_N": 4982,
      "2_4_B:O_B_O": 4983,
      "2_4_B:N_B_N": 4984,
      "1_1_F:F_C_C": 4985,
      "1_1_F:F_C_N": 4986,
      "1_2_B:C_B_P": 4987,
      "1_2_B:C_B_L": 4988,
      "1_6_V:N_V_C": 4989,
      "2_0_L:O_L_N": 4990,
      "2_0_L:N_L_O": 4991,
      "2_0_L:P_L_O": 4992,
      "2_0_P:S_P_O": 4993,
      "2_0_P:S_P_C": 4994,
      "2_0_P:S_P_N": 4995,
      "2_2_B:C_B_S": 4996,
      "2_2_B:C_B_F": 4997,
      "2_2_B:C_B_L": 4998,
      "2_2_W:C_W_O": 4999,
      "2_6_N:F_N_P": 5000,
      "I_O:C_CB_CA": 5001,
      "I_O:C_CD2_CA": 5002,
      "N_O:C_CB_CA": 5003,
      "N_O:C_CG1_CA": 5004,
      "2_6_V:N_V_C": 5005,
      "2_6_V:O_V_N": 5006,
      "1_6_W:O_W_C": 5007,
      "1_6_W:C_W_C": 5008,
      "1_2_O:C_O_U": 5009,
      "1_2_O:C_O_V": 5010,
      "2_1_V:C_V_O": 5011,
      "2_1_V:N_V_O": 5012,
      "2_5_B:O_B_N": 5013,
      "2_5_B:O_B_O": 5014,
      "1_2_U:C_U_C": 5015,
      "1_2_U:C_U_O": 5016,
      "A_O:C_CD2_CA": 5017,
      "C_O:C_CG_CA": 5018,
      "T_CG2:C_N_CA": 5019,
      ":O_T_C": 5020,
      "2_6_E:O_E_P": 5021,
      "2_6_H:O_H_C": 5022,
      "2_6_U:N_U_O": 5023,
      "2_6_C:H_C_N": 5024,
      "1_6_S:O_S_B": 5025,
      "1_6_T:O_T_C": 5026,
      "2_1_O:U_O_O": 5027,
      "1_1_O:C_O_W": 5028,
      "1_1_O:P_O_B": 5029,
      "1_3_E:C_E_S": 5030,
      "2_3_I:O_I_O": 5031,
      "A_CB:CA_CB_CG": 5032,
      "1_6_O:F_O_L": 5033,
      "2_1_U:C_U_C": 5034,
      "1_1_W:C_W_C": 5035,
      "1_1_U:C_U_N": 5036,
      "2_1_F:L_F_P": 5037,
      "2_0_S:C_S_I": 5038,
      "2_0_S:N_S_F": 5039,
      "2_0_P:L_P_N": 5040,
      "1_0_P:O_P_S": 5041,
      "1_0_S:N_S_S": 5042,
      "1_0_E:C_E_I": 5043,
      "1_0_P:S_P_O": 5044,
      "1_0_P:L_P_C": 5045,
      "1_2_W:C_W_O": 5046,
      "1_2_W:N_W_C": 5047,
      "2_1_L:T_L_C": 5048,
      "1_0_O:T_O_N": 5049,
      "2_1_I:N_I_O": 5050
    },
    "merges": [
      "_ C",
      ": C",
      "_ O",
      "_ N",
      "_C _C",
      "2 _",
      "1 _",
      "_C D",
      "_C :C",
      "_C:C _C_C",
      "_C A",
      "_C G",
      ":C _N",
      "_C E",
      ": N",
      "4 _C:C_C_C",
      "_CD 2",
      "D 1",
      ": O",
      "_C B",
      ":C_N _CA",
      "_O :C_N_CA",
      "1 :C",
      "1 _O",
      "2_ 6",
      "_O _C",
      "_CG 2",
      "D 2",
      "1_ 4_C:C_C_C",
      "_C Z",
      "E 2",
      "_CE 2",
      "_N :C_N",
      "1_ 6",
      "2_ 4_C:C_C_C",
      "_N:C_N _C",
      ":C G",
      "_CD 1",
      "_CE 1",
      "_O D2",
      "_C :N",
      ":C _O_C",
      "H 2",
      "_ S",
      ":C B",
      "_C:N _C_C",
      "_O D1",
      "_CD 1:C",
      "1 _N",
      ":C E",
      "1_ 4",
      "_CD2 :C",
      ":N _CA",
      ":N_CA _C",
      "2_6 _C:C_C_C",
      "2_ 1_O",
      "2_ 4",
      "_O :C_O_C",
      "1 _CG2",
      "_O G",
      "_S D",
      "_N E",
      "D1 _CE1",
      "_O E",
      ":O D1",
      "_CD2 _CB",
      "_CD2:C D1",
      "_CD2:CD1 _CD2_CB",
      "L _CD2:CD1_CD2_CB",
      "1_ 1_O",
      "_CG2 :CG",
      "1_ 3",
      "1_6 _C:C_C_C",
      "_N D2",
      "1:C A",
      ":O _O",
      "L _CD1:C",
      "B _CD1",
      "L_CD1:C B_CD1",
      "L_CD1:CB_CD1 _CD2",
      "_CA :N_CA_C",
      "G _CA:N_CA_C",
      "E2 _CD2",
      ":C Z",
      "2_ 3",
      ":CB _CG",
      "_C :O",
      "A _CB",
      "_C:C _C",
      "_CE 1:C",
      "_CE1:C D1_CE1",
      "_CE1:CD1_CE1 _CZ",
      ":CB _OD1",
      "_OD1 :CB_OD1",
      "_C:O _C_C",
      "1_CG2 _CA",
      "_CG2:CG 1_CG2_CA",
      "V _CG2:CG1_CG2_CA",
      ":N _N",
      ":O_O _O",
      "R _N",
      "H 1_N",
      "H1_N H2",
      "D _OD2",
      "_OD2 _CB",
      ":OD1 _OD2_CB",
      "D_OD2 :OD1_OD2_CB",
      "G _O:C_N_CA",
      "_CE2 _CD2",
      "_CE2 :CZ",
      "_CE2:CZ _CE2_CD2",
      ":N _O_C",
      ":O _O_C",
      "1_O E2",
      "H _CE2",
      "H :CE",
      "Y _O",
      "1_O H_CE2",
      "H:CE 1_OH_CE2",
      "Y_O H:CE1_OH_CE2",
      "_OG 1",
      ":C D",
      "E2_CD2 _CG",
      "_ F",
      "_N E2",
      "1_4 _N:C_N_C",
      "_CG 1_CG2",
      "_CG 1:CA",
      "_CG1:CA _CG1_CG2",
      "V _CG1:CA_CG1_CG2",
      "G _CD1",
      "_CD1:C G_CD1",
      "_CD1:CG_CD1 _CE1",
      "A_CB :N_CA_C",
      "_C H2",
      "2_4 _N:C_N_C",
      ":N_N _C",
      "2_ 1",
      "_CZ 2",
      "1:C G",
      "_OE 1:CG",
      "_OE1:CG _OE",
      "_CB _CA",
      "_CG :CB_CG",
      "_CZ 3",
      "1 _CZ",
      "F _CZ",
      ":CE 1_CZ",
      "F_CZ :CE1_CZ",
      "F_CZ:CE1_CZ _CE2",
      "D _OD1:CB_OD1",
      "D_OD1:CB_OD1 _OD2",
      "1 _CD1",
      "_CD2:C E2_CD2_CG",
      "F _CE1:CD1_CE1_CZ",
      ":CG _SD",
      "_CD :CG",
      "_CD:CG _CD",
      "1_4 _C:N_C_C",
      "2_6 _N:C_N_C",
      ":N E",
      "2_6 _C:C_C",
      "T _OG",
      "T_OG 1:CA",
      "_CG2 _OG1",
      "T_OG1:CA _CG2_OG1",
      "R_N H2",
      ":N H1_NH2",
      "R_NH2 :NH1_NH2",
      "R_NH2:NH1_NH2 _NE",
      "2_6 _O:C_O_C",
      "1_ 1",
      "I _CG2",
      "I_CG2 :CB_CG",
      "I_CG2:CB_CG 1_CD1",
      "2_4 _C:N_C_C",
      "1_ 2",
      "Y _CE1:CD1_CE1_CZ",
      "2_6 _O",
      "F _CE2:CZ_CE2_CD2",
      "_ P",
      "2_1_O :O_O_O",
      "E _O",
      "E_O E2",
      "E 1_OE2",
      ":O E1_OE2",
      "E_OE2 :OE1_OE2",
      "E_OE2:OE1_OE2 _CG",
      "_N :N_N_C",
      "_N Z",
      ":NE _N",
      "R_N H",
      "1 :NE_N",
      "R_NH 1:NE_N",
      "R_NH1:NE_N H1_NH2",
      "Y _CE2:CZ_CE2_CD2",
      "N _OD1:CB_OD1",
      "N_OD1:CB_OD1 _ND2",
      "2_ 2",
      "N _ND2",
      ":OD1 _ND2",
      "N_ND2 :OD1_ND2",
      "N_ND2:OD1_ND2 _CB",
      "2_1_O :C_O_C",
      "_ L",
      "A _O:C_N_CA",
      "1_6 _O:C_O_C",
      "2_1_O :O_O_C",
      "G _CB_CA",
      ":C _O",
      "F _CD1:CG_CD1_CE1",
      "1_6 _N:C_N_C",
      "_C _N",
      "S _O:C_N_CA",
      "3 _CZ3",
      "M _SD",
      ":CG_SD _SD",
      "M_SD :CG_SD_SD",
      "_OE1:CG_OE 1_OE2",
      "E _OE1:CG_OE1_OE2",
      "L _O:C_N_CA",
      ":C A_CB",
      "_CB :CA_CB",
      "1_6 _O",
      "_CB:CA_CB _CG",
      "1_6 _C:C_C",
      "2_1 _C:C_C_C",
      "H _NE2",
      "1_N E2_CD2",
      ":CE 1_NE2_CD2",
      "H_NE2 :CE1_NE2_CD2",
      "_CG:CB_CG _CD",
      "2_ 1_",
      "_C:N _C_N",
      "K _CD:CG_CD",
      "I _O:C_N_CA",
      "S _OG",
      ":O G_CB_CA",
      "S_OG :OG_CB_CA",
      "Y _CD1:CG_CD1_CE1",
      "K _CE",
      ":CD _CE",
      "K_CE :CD_CE",
      "K_CD:CG_CD _CE",
      "K_CE:CD_CE _NZ",
      "1_1_O :O_O_O",
      "1_1_O :C_O_C",
      "_OG1 _CA",
      "2 _OG1_CA",
      "_CG2:CG 2_OG1_CA",
      "T _CG2:CG2_OG1_CA",
      "D _O:C_N_CA",
      "F _CD2:CE2_CD2_CG",
      "2_1_O :N_O_C",
      ":N D1_CE1",
      "_CE1 :ND1_CE1",
      "_CE1:ND1_CE1 _NE2",
      "H _CE1:ND1_CE1_NE2",
      "Y _CD2:CE2_CD2_CG",
      "1_3 _C:N_C_C",
      "V _O:C_N_CA",
      "1_1_O :O_O_C",
      "1_1 _C:C_C_C",
      "_N:C_N _N",
      "E _O:C_N_CA",
      "M _CG:CB_CG",
      "M_CG:CB_CG _SD",
      "T _O:C_N_CA",
      "_F _C",
      ":N_N _N",
      "Q _OE1:CG_OE",
      "1_N E2",
      "Q_OE1:CG_OE 1_NE2",
      "1_ 1_",
      "1_3 _C:C_C_C",
      "_O :C_O",
      "2_3 _C:N_C_C",
      "2_ 1_N",
      "_CG _CB",
      "_CG :CD",
      "_CG:CD _CG_CB",
      "P _CG:CD_CG_CB",
      "R _CD:CG_CD",
      "R_CD:CG_CD _NE",
      "2_6_C:C_C _N",
      ":O_O _N",
      "3 _CH2",
      "W _CH2",
      ":CZ 3_CH2",
      "W_CH2 :CZ3_CH2",
      "W_CH2:CZ3_CH2 _CZ2",
      ": F",
      "1_3 _C:O_C_C",
      "R _NE",
      ":CD _NE",
      "R_NE :CD_NE",
      "P _CB",
      ":CG _CB_CA",
      "P_CB :CG_CB_CA",
      "R_NE:CD_NE _CZ",
      "W _CZ3",
      ":CE 3_CZ3",
      "W_CZ3 :CE3_CZ3",
      "W_CZ3:CE3_CZ3 _CH2",
      "1_4 _O:C_O_C",
      "1_ 5",
      "2_3 _C:C_C_C",
      ":C _F_C",
      "1_ 1_N",
      "_L _C",
      "_O:C_O _P",
      "1_1_O :N_O_C",
      "F _O:C_N_CA",
      "2_4 _O:C_O_C",
      ": P",
      "M _CB:CA_CB_CG",
      "W _CZ2",
      ":C H2",
      "_CZ2 _CE2",
      "W_CZ2 :CH2",
      "W_CZ2:CH2 _CZ2_CE2",
      "L :C",
      "_CD2 :N",
      "H _CD2:N",
      "H_CD2:N E2_CD2_CG",
      "2_6_O :N_O_C",
      "L:C _L_C",
      "_CD :N",
      "_CD:N _CD",
      "_CD:N_CD _CG",
      "P _CD:N_CD_CG",
      "_F _F",
      "2_1_ F",
      "M _CE",
      ":CG_SD _CG",
      "M_CE :CG_SD_CG",
      "R _CG:CB_CG_CD",
      "2_3 _C:O_C_C",
      "N _O:C_N_CA",
      "M _O:C_N_CA",
      ":F _F_F",
      "Y _O:C_N_CA",
      "2_ 5",
      "P _O:C_N_CA",
      "2_6 _C:N_C_C",
      "1_6_C:C_C _N",
      ":N _O",
      "1_4 _C:O_C_C",
      "K _O:C_N_CA",
      ":C _S",
      "K _CG:CB_CG_CD",
      "3 :C",
      "W _CE",
      "_CE 3_CZ3",
      "D2 _CE3_CZ3",
      "3:C D2_CE3_CZ3",
      "W_CE 3:CD2_CE3_CZ3",
      "1_2 _C:C_C_C",
      "K _CB:CA_CB_CG",
      "R _O:C_N_CA",
      ":O _N",
      ":P _O",
      ":N_O _N",
      "_N :N_N_N",
      "_O :P_O",
      "S :C_S",
      "1 _CD2",
      "W _NE",
      "1:C E2",
      "_NE 1_CD2",
      "W_NE 1:CE2",
      "W_NE1:CE2 _NE1_CD2",
      "1_6_O :N_O_C",
      "1_1_ F",
      "_N D1",
      "H _ND1",
      "H_ND1 :CG",
      "_N D1_CE1",
      "H_ND1:CG _ND1_CE1",
      ": S",
      "_O:P_O _P",
      "1_2 _N:C_N_C",
      "2_2 _C:C_C_C",
      "S:C_S _C",
      "1_4 _C:N_C_N",
      "2_4 _C:O_C_C",
      "_CG 1",
      "D1 _CG1",
      "D1_CG1 _CB",
      "_CD1:C D1_CG1_CB",
      "I _CD1:CD1_CG1_CB",
      "2_2 _N:C_N_C",
      "2_1_N :N_N_C",
      "1 _CG",
      "Q _NE2",
      ":N E2",
      "_OE 1_CG",
      "Q_NE2 :NE2",
      "Q_NE2:NE2 _OE1_CG",
      "C _O:C_N_CA",
      ":O_N _C",
      "2_6 _N:N_N_C",
      "2_6 _N:C_N_N",
      "K _NZ",
      "Z _CE",
      ":N Z_CE",
      "K_NZ :NZ_CE",
      "K_NZ:NZ_CE _CD",
      "2_4 _C:N_C_N",
      "Q _O:C_N_CA",
      "1_3 _O:C_O_C",
      "2_ S:C_S_C",
      "1_6 _C:N_C_C",
      "2_3 _O:C_O_C",
      "2_1_ L:C_L_C",
      "2_6_C:C_C _S",
      "2_1_O :O_O_N",
      "1_5 _N:C_N_C",
      "H _O:C_N_CA",
      "2_6_O :O_O_O",
      "1_6 _N:N_N_C",
      "W _CD1",
      "1_CD1 _CG",
      ":NE 1_CD1_CG",
      "W_CD1 :NE1_CD1_CG",
      "2_6_C:C_C _L",
      "1_6 _N:C_N_N",
      "1_1_N :N_N_C",
      "2_1 _C:N_C_C",
      "2_1_F :F_F_F",
      "2_5 _N:C_N_C",
      "_N:C_N _S",
      "2_6_O :O_O_C",
      "1_3 _N:C_N_C",
      "2_6 _C:O_C_C",
      "1_1_O :O_O_N",
      "_C:C_C _S",
      "W _O:C_N_CA",
      "1_3 _N:N_N_C",
      "_C _O",
      "1_6_O :O_O_O",
      "2_1_F :C_F_C",
      "1_1_ L:C_L_C",
      ":C_O _O",
      "_F :C_F_C",
      "1_6_C:C_C _S",
      "2_6 _N:N_N_N",
      "2_3 _N:C_N_C",
      "2_1 _C:O_C_C",
      "_C:C_C _N",
      "C _S",
      "C_S G",
      ":S G_CB_CA",
      "C_SG :SG_CB_CA",
      "1_1_F :F_F_F",
      "0 _C:C_C_C",
      "1_6_O :O_O_C",
      "2_3 _N:N_N_C",
      "2_6_C:C_C _O",
      "2_1_N :N_N_N",
      "_N :O_N_C",
      "1_1 _C:N_C_C",
      "1_3 _O:C_O_P",
      "1_1_F :C_F_C",
      "_C :S",
      "1_6_C:C_C _L",
      "2_ 2_S:C_S_C",
      "2_1_O :N_O_N",
      "1_6 _C:O_C_C",
      "1_2 _O:C_O_C",
      "2_3 _O:C_O_P",
      "2_3 _O:P_O_P",
      "1_ 2_S:C_S_C",
      "1_1 _C:O_C_C",
      "2_2 _O:C_O_C",
      "1_3 _O:P_O_P",
      "1_6 _N:N_N_N",
      ":C_O _N",
      "_C:O _C_N",
      "1_6_C:C_C _O",
      "1_1_N :N_N_N",
      "1_1_O :N_O_N",
      "_C:O _C_O",
      "2_6 _F:C_F_C",
      "2_1 _N:C_N_C",
      "1_1_N :N",
      "1_1_N:N _C_C",
      "_N :N_N",
      "2_ 0_C:C_C_C",
      "2_1_O :C_O_O",
      "2_1_N :O_N_C",
      "1_5 _C:C_C_C",
      ":F _F_C",
      "1_5 _C:N_C_C",
      "1_6 _F:C_F_C",
      "1_ 0_C:C_C_C",
      "_N:C_N _O",
      "1_4 _N:N_N_C",
      "_F :F_F_F",
      "2_5 _C:C_C_C",
      "_N:N_N _S",
      "1_1 _N:C_N_C",
      "2_6_O :O_O_N",
      "_O :N_O_C",
      "2_4 _N:N_N_C",
      "1_1_N :O_N_C",
      "2_6_O :N_O_N",
      "1_3 _C:C_C_S",
      "2_1 _C:S",
      "2_ 0",
      "1_1 _C:S",
      "2_5 _C:N_C_C",
      "1_2 _O:C_O_P",
      "1_1_O :C_O_O",
      "1_6_O :O_O_N",
      "_C:C_C _O",
      "1_4 _O:C_O_P",
      ":O_N _O",
      "2_4 _O:C_O_P",
      "1_2 _C:N_C_C",
      "2_2 _C:N_C_C",
      "2_3 _C:C_C_S",
      "2_2 _O:C_O_P",
      "1_6_O :N_O_N",
      "2_1_O :C_O_N",
      "1_ 0",
      "1_4 _C:C_C_N",
      "_O:C_O _O",
      "_ B",
      "1_5 _O:C_O_C",
      "2_1 _C:O_C_N",
      "2_4 _C:C_C_N",
      "_C :P",
      "_S :C_S",
      "2_6 _N:N_N_S",
      "2_6 _F:F_F_F",
      ":N_O _O",
      "2_6 _N:C_N_S",
      "2_6 _N:O_N_C",
      "1_1_O :C_O_N",
      "1_4 _N:C_N_S",
      ":N _S",
      "2_4 _N:C_N_S",
      "2_1_N :O_N_O",
      "2_5 _O:C_O_C",
      "1_3 _C:N_C_N",
      "2_1_F :F_F_C",
      "2_1 _C:O_C_O",
      "_C:N _C",
      "1_6 _F:F_F_F",
      "1_1 _C:O_C_N",
      "2_3 _N:C_N_S",
      "2_1_C:S _C_O",
      "_P _O",
      "1_3 _N:C_N_S",
      ":O_O _P",
      "1_1_C:S _C_O",
      "_C :F",
      "2_3 _C:N_C_N",
      "1_4 _C:C_C_S",
      "1_6 _N:N_N_S",
      "_O:C_O _S",
      "1_1_F :F_F_C",
      ":P _N",
      "_N :P_N",
      "2_1_ S:C_S_C",
      ":P _O_C",
      ":N _L_C",
      "S :N_S",
      "_N:P_N _P",
      "_O :O_O_P",
      "2_4 _C:C_C_S",
      "1_6 _N:O_N_C",
      ":O_N _N",
      "_C:N_C _S",
      "1_6 _N:C_N_S",
      "1_4 _N:C_N_N",
      "1_4 _O:N_O_C",
      "L :N_L_C",
      "2_1 _C:C_C_N",
      "_P :O",
      "1_3 _N:C_N_N",
      "_CB:CA_CB _CA",
      "1_1 _C:O_C_O",
      "1_1_ S:C_S_C",
      "2_5 _O:P_O_P",
      "_C:F _C_C",
      "2_6_O :C_O_O",
      "2_4 _N:C_N_N",
      "_O :O_O_C",
      "1_3 _N:O_N_C",
      "_C:S _C_C",
      "1_2 _N:N_N_C",
      "2_6 _C:N_C_N",
      "2_3 _N:C_N_N",
      "2_4 _O:P_O_P",
      "1_1_N :O_N_O",
      "_C:N _C_O",
      "2_6 _N:C_N_O",
      "1_4 _O:P_O_P",
      "1_5 _O:P_O_P",
      "1_6_O :C_O_O",
      ":C_O _P",
      "1_2 _C:O_C_C",
      "S:C_S _N",
      "L:C _L",
      "_O:C_O _N",
      "K _CB:CA_CB_CA",
      "1_4 _N:O_N_C",
      "_S:C_S _C",
      "2_2 _N:N_N_C",
      "1_1 _C:C_C_N",
      "2_1_C:S _C_N",
      "_C:P _C_C",
      "2_1_O :N_O_O",
      "2_6_O :C_O_N",
      "1_1_C:S _C_N",
      "_F :F_F_C",
      "_P :P",
      "2_4 _N:O_N_C",
      "2_3 _N:O_N_C",
      "2_2 _C:O_C_C",
      "1_5 _C:N_C_N",
      "2_1 _C:N_C_N",
      "2_4 _O:N_O_C",
      "1_6 _C:N_C_N",
      "1_6_O :C_O_N",
      "_C _P",
      "1_ 2_",
      "_N:N_N _O",
      ": L",
      ":N_N _S",
      "1_6 _N:C_N_O",
      ":O _L_C",
      "_N:C_N _P",
      "_O:P_O _O",
      "1_3 _N:N_N_N",
      ":O _S",
      "_P _C",
      ": B",
      "S:N_S _N",
      "_P:P _P_O",
      ":C _F_F",
      "L :O_L_C",
      "_O :P_O_C",
      "2_1_ L:N_L_C",
      "2_3 _N:N_N_N",
      "K_CD:CG_CD _CD",
      "2_5 _C:N_C_N",
      "2_ 2_",
      "1_3 _C:C_C_N",
      "1_1_O :N_O_O",
      "_P:O _P_O",
      "_O :S",
      "2_6_C:C_C _P",
      "1_2 _N:C_N_N",
      "1_1 _C:N_C_N",
      "1_2 _O:C_O_O",
      ":N _F_C",
      "1_1_C:S _C_C",
      "_N:C_N _L",
      "2_1_C:S _C_C",
      "2_2 _C:O_C_O",
      "1_2 _C:O_C_O",
      "1_4 _N:N_N_N",
      "1_6_C:C_C _P",
      "2_4 _N:C_N_O",
      "2_2 _O:C_O_O",
      "2_3 _N:P_N_P",
      "1_4 _N:C_N_O",
      "2_1 _C:C_C_O",
      "2_1 _N:C_N_N",
      "_F _O",
      "_L :C",
      "2_4 _N:N_N_N",
      "2_2 _N:C_N_N",
      "_N :O_N_N",
      "2_1_ L:C_L",
      "_S:C_S _S",
      "_O _O",
      "_C:P _C_O",
      ":N_O _S",
      "2_3 _C:C_C_N",
      "S:N_S _C",
      "2_6_O :C_O_P",
      "1_3 _N:P_N_P",
      "2_1_ S:C_S_N",
      "1_6_O :C_O_P",
      ":C_O _S",
      "1_1_ L:N_L_C",
      "S:C_S _O",
      "_C:P _C_P",
      "2_1 _C:C_C_S",
      "_L:C _L_C",
      "1_1_ S:C_S_N",
      "2_1_N :N_N_S",
      "2_6_O :P_O",
      ":O_O _S",
      "2_0 _P:P_P_O",
      "2_6 _N:N_N_O",
      "1_1 _C:C_C_O",
      "1_2 _O:O_O_P",
      "1_6 _F:F_F_C",
      "_O _N",
      "2_6 _C:O_C_O",
      "2_1_ S:N_S_N",
      "1_1 _N:C_N_N",
      "2_6 _F:F_F_C",
      "S :O_S",
      "2_1_N :O_N_N",
      "1_1_ L:C_L",
      "1_4 _O:C_O_S",
      "1_6_O :P_O",
      "_F _N",
      "_P:O _P_C",
      "2_6_C:C_C _F",
      "1_4 _C:O_C_N",
      ":O _F_C",
      "1_3 _O:N_O_C",
      "_P :C",
      "2_6 _C:N_C_O",
      "_S :N_S",
      "2_6_O :P_O_C",
      "2_2 _O:O_O_P",
      "2_0 _C:C_C_O",
      "2_6 _C:O_C_N",
      "2_6 _N:C_N_L",
      "1_1 _C:C_C_S",
      "2_0 _C:S_C_C",
      "1_6 _C:O_C_N",
      "1_6 _C:O_C_O",
      "_O :N_O_N",
      "1_6_O :P_O_C",
      "1_6 _N:N_N_O",
      "2_4 _O:C_O_S",
      "1_2 _N:O_N_C",
      ":F _F_O",
      "_C:C_C _L",
      "_S :O_S",
      "_C:O _C_P",
      "_C _F",
      "1_2 _O:N_O_C",
      "_S:C_S _L",
      "2_0 _C:C_C_N",
      "_B _B",
      "_N _C",
      "1_1_N :O_N_N",
      "_C :B",
      "_O:S _O_C",
      "_S:N_S _C",
      "2_1_ L:O_L_C",
      "2_1_L:C_L _S",
      "1_2_ F",
      "1_3 _C:O_C_N",
      "1_1_N :N_N_S",
      "1_2 _O:O_O_C",
      "_C :L",
      "_B :B",
      "1_6 _C:N_C_O",
      "2_3 _O:N_O_C",
      "2_6 _S:C_S_S",
      "1_6 _F",
      "K _CG:CB_CG",
      "K_CG:CB_CG _CG",
      "2_6 _F",
      "2_6 _N:O_N_N",
      "_C:N_C _P",
      "1_0 _C:C_C_O",
      "2_4 _C:O_C_N",
      "2_6 _C:F_C_C",
      "1_4 _C:N_C_S",
      "_C:F _C_F",
      "1_4 _O:C_O_O",
      "2_4 _O:C_O_O",
      "_B:B _B_B",
      "1_6_C:C_C _F",
      "1_0 _C:C_C_N",
      "1_2 _C:C_C_N",
      "1_1_ S:N_S_N",
      "1_0 _C:S_C_C",
      "1_2 _C:C_C_O",
      "_C _B",
      "S:O_S _O",
      "2_5 _O:C_O_P",
      "2_1_ S:C_S_O",
      "_C:B _C_B",
      "1_6 _N:O_N_N",
      ":O_O _F",
      "1_5 _O:C_O_P",
      "2_6 _N",
      "2_1 _C:N_C_S",
      "1_6 _S:C_S_S",
      "2_2 _C:C_C_O",
      "1_1_ L:O_L_C",
      "2_2 _C:C_C_N",
      "1_6 _N:C_N_L",
      "2_1 _C:P_C_O",
      "2_2_ F",
      "2_1_F :C_F_F",
      "1_3 _O:C_O_S",
      "2_2 _O:N_O_C",
      ":N_N _O",
      "2_2 _N:O_N_C",
      "2_2 _O:O_O_C",
      "2_6_C:C_C _B",
      "1_1_ S:C_S_O",
      "1_6 _C:F_C_C",
      "2_6 _S:C_S_C",
      "2_6 _C:P_C_C",
      "1_4 _C:C_C_O",
      ":O _F_F",
      "_C:L _C_C",
      "2_6 _C:S_C_C",
      "2_6_O:P_O _P",
      "2_3 _O:C_O_S",
      "1_3 _N:C_N_P",
      "2_1_F :N_F_C",
      "2_2 _O:P_O_C",
      "1_1_L:C_L _S",
      ":C _F_O",
      "1_6 _N",
      ":S _O_C",
      "2_6 _P:C",
      "2_1 _C:P_C_C",
      "1_1 _C:P_C_C",
      "2_2 _O:P_O_O",
      "1_2 _O:P_O_C",
      "2_4 _C:C_C_O",
      "1_2 _O:P_O_O",
      ":N_O _P",
      "2_1_O :F",
      "_S:O_S _C",
      "2_0 _S:C_S_C",
      "1_2 _N:C_N_O",
      "1_6_O:P_O _P",
      "1_1 _C:P_C_O",
      "1_2 _C:C_C_S",
      "2_4 _C:N_C_S",
      "_L _N",
      "2_2 _N:C_N_O",
      ":C _F_N",
      "2_6 _P:O_P_C",
      "2_6 _P:O_P_O",
      "1_2 _O:C_O_N",
      "2_3 _N:C_N_P",
      "1_0 _P:P_P_O",
      "2_6 _S:C_S_L",
      "1_1_F :C_F_F",
      "2_2 _C:C_C_S",
      "2_6_O:P_O _O",
      "_L :N_L_C",
      "2_6 _S:N_S_C",
      "1_6 _L:C_L_C",
      "_P _N",
      "L :N",
      "2_1_O :N_O_S",
      "2_6_O :C_O_S",
      "M _CB:CA_CB_CA",
      "2_6 _L:C_L_C",
      "1_1_F :N_F_C",
      "1_6 _S:C_S_C",
      "_C _S",
      "_O:S _O_O",
      "1_6 _C:P_C_C",
      "_O :O_O_S",
      "_O :N_O_P",
      "2_6 _C:B_C_B",
      "1_4 _O:N_O_N",
      "2_3 _P:O_P_O",
      "1_1_O :F",
      "2_2 _O:C_O_N",
      "2_1_F :F_F_O",
      "1_3 _N:C_N_O",
      "2_6 _C:O_C_P",
      "1_1 _C:N_C_S",
      "1_3 _C:F_C_C",
      "2_1_ S:N_S_C",
      "_C:P _C_N",
      "2_6 _C:P_C_P",
      "2_1_ S:O_S_O",
      "_C:C_C _B",
      "1_3 _O:C_O_N",
      "1_0 _S:C_S_C",
      "1_6 _P:O_P_C",
      "2_6_O :N_O_O",
      "1_6 _C:S_C_C",
      "1_6_O:P_O _O",
      "L:N _L_N",
      "1_1 _C:C",
      "2_1_F :O_F_C",
      "2_3 _C:O_C_N",
      "2_3 _N:C_N_O",
      "K_CE:CD_CE _CE",
      "1_6_C:C_C _B",
      "1_6 _P:C",
      "2_1_O :O_O_S",
      "1_6 _P:O_P_O",
      "2_3 _O:C_O_N",
      "2_5 _O:C_O_O",
      "1_2_F :C_F_C",
      "1_6_O :C_O_S",
      "1_6 _C:O_C_P",
      "2_1_O :O_O_F",
      "_B _C",
      "1_6 _N:C_N_P",
      "2_6 _B:B_B_B",
      "1_5 _O:C_O_O",
      "_O:P_O _N",
      ":N _F_N",
      "2_6 _N:C_N_P",
      "R _CG:CB_CG",
      "R_CG:CB_CG _CA",
      "1_6 _B:B_B_B",
      "1_6 _S:C_S_L",
      "2_1 _C:N_C_O",
      "1_2_ S:N_S_C",
      "1_6 _C:N_C_P",
      "2_6 _C:N_C_P",
      "1_6_O :N_O_O",
      "2_1_N :N_N_O",
      ":F _N_C",
      "2_0 _C:N_C_C",
      ":S _N",
      "_C:O _C_S",
      "1_1_O :N_O_S",
      "_ I",
      "1_1_C:C _O_C",
      "2_0 _C:O_C_C",
      "_O:C_O _L",
      "2_3 _C:F_C_C",
      "2_2_ S:N_S_C",
      "_P:P _P_C",
      "1_6 _S:N_S_C",
      "2_4 _O:N_O_N",
      "1_5 _O:O_O_C",
      "1_6 _C:P_C_P",
      "1_5 _N:N_N_N",
      "2_6_O :N_O_S",
      "2_1_L:C_L _N",
      "1_4 _O:O_O_P",
      "1_2_ L:C_L_C",
      "2_5 _N:N_N_N",
      "_S:C_S _N",
      ": G",
      "_F :G",
      "_F:G _F_F",
      "1_1_F :O_F_C",
      "1_3 _C:C_C_O",
      "1_0 _C:N_C_C",
      "2_1_F :O_F_F",
      ":L _O_C",
      "2_4 _C:C_C_L",
      "_O:C_O _F",
      "1_1_F :F_F_O",
      "2_1_O :C_O_S",
      "1_4 _C:C_C_L",
      "_N:P_N _C",
      "1_5 _O:O_O_P",
      "2_2_F :C_F_C",
      "_S:O_S _O",
      "2_1 _N:C_N_O",
      "1_4 _O:O_O_C",
      "_N:C_N _F",
      "S:O_S _C",
      "2_2 _N:C_N_S",
      ":S _N_C",
      "1_3 _P:O_P_O",
      "_N:N_N _L",
      "1_4 _O:C_O_N",
      "_ E",
      "2_2_ L:C_L_C",
      "2_6_F :N_F_C",
      "R_CD:CG_CD _CD",
      "_F :C_F_F",
      "1_2 _N:C_N_S",
      "_S:C_S _O",
      "1_1_O :O_O_F",
      "2_3 _C:C_C_O",
      "2_4 _O:C_O_N",
      "2_1_L:C_L _O",
      "1_1_ S:N_S_C",
      "2_4 _O:O_O_P",
      "1_6_F :N_F_C",
      "1_1_N :N_N_O",
      ":L _O_N",
      ":S _O_O",
      "1_5 _N:C_N_S",
      "1_3 _C:N_C_S",
      "2_0 _O:C_O_C",
      "2_5 _O:O_O_P",
      "1_1_L:C_L _N",
      "1_0 _C:O_C_C",
      "_O:S _O_N",
      "_P:O _P_N",
      "2_6_O :S_O_C",
      "_C:C_C _F",
      "2_6_P:C _P_O",
      "1_0 _O:C_O_C",
      "1_1 _C:N_C_O",
      "1_1_ S:O_S_O",
      "_O:C_O _B",
      "1_1_O :O_O_S",
      "1_2 _O:S_O_C",
      "1_6 _C:B_C_B",
      "1_1_F :O_F_F",
      "2_1_ L:N_L_N",
      "2_6_P:C _P_C",
      "_B :C",
      "1_6_O :N_O_S",
      "1_5 _C:O_C_C",
      "2_3 _C:F_C_F",
      "2_2 _O:S_O_C",
      "2_4 _N:P_N_P",
      "1_2 _O",
      "1_4 _C:O_C_O",
      "1_4 _N:P_N_P",
      "2_5 _N:C_N_S",
      "_P :N",
      "2_5 _O:O_O_C",
      "2_1_O:F _O_O",
      "_F :C_F_O",
      "2_1 _C:F_C_C",
      ":F _O_C",
      "2_6 _L:N_L_C",
      "1_6_O :S_O_C",
      "1_4 _C:F_C_C",
      "2_6 _C:L_C_C",
      ":S_N _S",
      "2_3 _C:N_C_S",
      "1_1 _N:C_N_O",
      "2_4 _C:O_C_O",
      "_C:C_C _P",
      "1_3 _O:O_O_C",
      "1_2 _O:C_O_S",
      ":L _O_O",
      "_L:C _L",
      "_L :O_L_C",
      "1_6 _L:N_L_C",
      "_ U",
      "1_3 _O:C_O_O",
      "2_4 _O:O_O_C",
      "1_1_L:C_L _O",
      "1_5 _O:C_O_S",
      "2_1_O:F _O_N",
      "2_0 _F:G_F_F",
      "2_5 _C:O_C_C",
      "1_2_ L:O_L_C",
      "2_1_ S:N_S",
      "2_4 _C:C_C_B",
      "1_4 _C:C_C_B",
      "2_3 _O:C_O_O",
      "1_6_O :O_O_P",
      "2_6 _C:P_C_O",
      ":F _N",
      "2_0 _C:P_C_C",
      "1_1 _C:F_C_C",
      "1_1_O:F _O_O",
      "2_4 _C:P_C_P",
      ": E",
      "2_6_O :O_O_P",
      "2_1_ L",
      "1_1_O :C_O_S",
      "2_6 _S:O_S_C",
      "1_6 _C:L_C_C",
      "1_3 _C:O_C_O",
      "2_6 _N:N_N_L",
      "2_2_ L:O_L_C",
      "2_2 _O",
      "2_1_F :N_F_N",
      "1_6_P:C _P_C",
      "2_6 _C:P_C_N",
      "2_2 _O:C_O_S",
      "1_6_P:C _P_O",
      ":C_O _F",
      "_O:S _O",
      "1_5 _C:C_C_O",
      "2_6 _N:P_N_C",
      ":S _O_N",
      "1_4 _F:C_F_C",
      "1_1_O:F _O_N",
      "2_6 _P:P_P_C",
      "1_2_F :C_F_F",
      "2_0 _O:P_O_O",
      "1_4 _C:P_C_P",
      "2_6_O:P_O _N",
      "1_1_ L:N_L_N",
      "1_6 _C:F_C_F",
      "2_5 _O:C_O_S",
      "2_4 _O:P_O_C",
      "B :C",
      "1_1_ L",
      "1_4 _S:C_S_C",
      "2_3 _S:C_S_C",
      "S:C_S _F",
      "1_5 _F:C_F_C",
      ":L _L_C",
      "1_3 _S:C_S_C",
      ":N _F_F",
      "_C _L",
      ":F _L_C",
      "2_0 _O",
      "_C:F _C_N",
      "1_4 _O:P_O_C",
      "1_2 _C:O_C_N",
      "2_4 _S:C_S_C",
      "2_3 _C:O_C_O",
      "2_5 _O:P_O_C",
      "2_6 _C:N_C_S",
      "_C:N_C _F",
      "1_6 _C:P_C_O",
      "2_4 _F:C_F_C",
      "2_4 _O:P_O_O",
      "1 _CA",
      "1_5 _O:C_O_N",
      "2_5 _C:C_C_O",
      ":L _N_C",
      "_I _C",
      "1_6_O:P_O _N",
      "2_6 _P:O_P_N",
      "1_6 _C:P_C_N",
      "1_0 _O",
      "I_CG2:CB_CG 1_CA",
      ":F _F_N",
      "2_0 _S:C_S_N",
      "_P:N _P_C",
      "2_4 _C:F_C_C",
      "2_6_N :F_N_C",
      "_F :C_F_N",
      "1_6 _N:P_N_C",
      "B:C _B_C",
      "1_4 _O:P_O_O",
      "2_3 _O:O_O_C",
      ":O_O _L",
      "2_5 _O:C_O_N",
      "2_6_N :O_N_O",
      "1_5 _O:P_O_C",
      "1_2 _O:N_O_P",
      "2_5 _F:C_F_C",
      "2_5 _O:P_O_O",
      "1_1_ S:N_S",
      "1_6_N :O_N_O",
      "2_6 _N:C_N_F",
      "2_1_O :O_O_P",
      "2_6 _P:P_P_O",
      "1_1_F :N_F_N",
      "1_2_ S:O_S_C",
      "2_2 _C:N_C_N",
      "2_1_O :L_O_N",
      "1_6_F :C_F_F",
      "2_6 _B:C",
      "1_2 _C:N_C_N",
      ":F_N _O",
      "2_2 _O:N_O_P",
      "2_1_O :S_O_O",
      "2_0 _N:C_N_N",
      "1_6 _P:O_P_N",
      "1_5 _O:P_O_O",
      "1_5 _C:C_C_N",
      "1_6_N :F_N_C",
      "R_NE:CD_NE _NE",
      "2_6_N :S_N_S",
      "1_0 _C:P_C_C",
      "1_0 _F:G_F_F",
      "2_1 _C:O_C_S",
      "2_6 _C:S",
      "2_5 _C:C_C_N",
      "2_2 _C:O_C_N",
      "1_6 _B:C",
      "2_6_F :C_F_F",
      "1_6 _C:N_C_S",
      "2_2_F :C_F_F",
      "1_6 _P:P_P_C",
      "_E _C",
      "1_6 _S:O_S_C",
      "2_6 _C:F_C_F",
      "_P _P",
      "2_6_N :S_N_C",
      "2_2 _O:P_O_N",
      "1_0 _N:C_N_N",
      ":B _O_C",
      "1_2 _O:P_O_N",
      "1_1_O :L_O_N",
      "_O _S",
      "1_0 _O:P_O_O",
      ":C _F",
      "1_4 _O",
      "1_3 _O:O_O_P",
      "2_0 _O:O_O_C",
      "1_6 _N:N_N_L",
      "2_4 _N:C_N_P",
      "1_0 _S:C_S_N",
      "1_0 _O:N_O_C",
      ":C _I_C",
      "2_0 _N:C_N_C",
      "S:O_S _N",
      "2_0 _O:S_O_O",
      "2_1_S:N_S _O",
      "_L:C_L _S",
      "1_5 _O",
      "2_0 _S:O_S_C",
      "2_4 _C:C_C_P",
      "2_0 _C:C_C_S",
      "1_1_O :O_O_P",
      "2_0 _S:C_S_O",
      "1_0 _S:O_S_C",
      "2_1_O :L_O_O",
      "1_2_F :C_F_O",
      "1_4 _N:C_N_P",
      "_N:C_N _B",
      "2_1 _C:F_C_F",
      "1_5 _O:N_O_C",
      "1_5 _C:N_C_S",
      "1_6 _N:C_N_F",
      "2_1_O:F _O_C",
      "1_0 _C:C_C_S",
      "S :S",
      "2_5 _N:C_N_O",
      "1_2 _C:S_C_C",
      "1_6 _P:P_P_O",
      ":O_N _S",
      "2_3 _O:O_O_P",
      "_F :O_F_C",
      "1_6_N :S_N_S",
      "_P:O _P_P",
      "2_6 _S:N_S",
      "2_6_F :F_F_O",
      "_C:F _C_O",
      "2_0 _O:N_O_C",
      "_C:L _C_O",
      "1_3 _C:C_C_L",
      "2_2 _O:S_O_O",
      "2_1_S:N_S _S",
      "_S _C",
      "1_3 _C:F_C_F",
      "1_1_O :O_N_C",
      ": I",
      "_C :E",
      "1_0 _S:C_S_O",
      "2_4 _O",
      "2_2_ S:O_S_C",
      "1_1 _C:O_C_S",
      "1_0 _O:O_O_C",
      "_C:L _C_N",
      ":C _U",
      "1_6_F :O_F_C",
      "1_2 _O:O_O_S",
      "_C:B _C_C",
      "1_1_O:F _O_C",
      "_U :C_U",
      "2_5 _C:N_C_S",
      "2_6 _N:P_N_P",
      ":E _O_C",
      "2_0 _C:F_C_C",
      ":N_O _F",
      "1_1_O :S_O_O",
      "1_2 _N",
      "2_1_ S:C_S_F",
      "1_4 _F:C_F_F",
      "1_2 _O:S_O_O",
      ":C _E_C",
      "1_0 _N:C_N_C",
      "2_6_F :O_F_C",
      "2_3 _O:P_O_O",
      "2_1_L:C_L _L",
      "2_0 _O:O_O_S",
      "2_3 _C:C_C_L",
      "2_5 _O",
      "2_6 _P:N_P_C",
      "1_2 _O:C_O_F",
      "1_5 _N:C_N_O",
      ":B _O_O",
      "_CB :N_CA_C",
      "_C:E _C_C",
      "2_1_O :O_O_L",
      "1_3 _O:P_O_O",
      "2_1_N :F_N_O",
      "1_1 _C:F_C_F",
      "2_0 _O:S_O_N",
      ":C_O _L",
      ":F _O_N",
      "2_4 _F:C_F_F",
      "1_4 _C:C_C_P",
      "2_1_F :C_F_N",
      "1_1_S:N_S _O",
      "2_2 _O:O_O_S",
      "2_2_F :C_F_O",
      "1_2_ L:N_L_C",
      "2_3 _O:C_O_B",
      "2_1 _C:L_C_C",
      "2_0 _S:O_S_O",
      "2_5 _C:P_C_P",
      "2_5 _O:C_O_L",
      "1_6 _C:S",
      "1_5 _O:C_O_L",
      "1_4 _O:S_O_C",
      "1_1_ S:C_S_F",
      "2_1_F :N_F_F",
      ":L _N",
      "_P:P _P_N",
      "2_6 _S:O_S_O",
      "_E :C_E_C",
      "L:N _L",
      "2_5 _O:N_O_C",
      "1_6 _N:P_N_P",
      "2_4 _O:S_O_C",
      "2_1_O :L_O_C",
      "1_1_O :L_O_O",
      ":C_F _S",
      "1_1_ S:S",
      "2_0 _P:O_P_C",
      "1_6_F :C_F_N",
      "1_6_N :S_N_C",
      "_B:B _B_C",
      "1_1 _C:L_C_C",
      "1_0 _O:S_O_O",
      "1_0_O :O_O_O",
      "2_6_O :O_O_S",
      "1_6_O :O_O_S",
      "1_4 _C:N_C_O",
      "2_5 _O:S_O_C",
      "2_1_F :C_F_O",
      ":O _F_O",
      "1_4 _F:C_F_O",
      "2_0_O :O_O_O",
      "1_0 _O:S_O_N",
      "_I :C_I_C",
      "_C:O _C_F",
      "2_2 _O:C_O_F",
      "1_5 _O:S_O_C",
      "1_6_F :F_F_O",
      "2_0 _O:C_O_N",
      "1_1_F :C_F_N",
      "_C:N_C _L",
      "2_0 _F:F_F_F",
      "2_1_L :F_L_C",
      "2_1_ S:O_S_N",
      "1_6_O :F_O_C",
      "_C:O _C_L",
      "_S:N_S _N",
      ":S_N _N",
      "2_1 _C:P_C_N",
      "1_1_F :N_F_F",
      "2_6_S:N_S _S",
      "2_6_F :C_F_N",
      "2_0 _C:C_C_F",
      "1_6_B:C _B_B",
      "2_6 _C:O_C_S",
      "1_0 _P:O_P_C",
      "Q _CB:N_CA_C",
      ":S _L_C",
      "E _CG:CB_CG_CD",
      "1_4 _L:C_L_C",
      "_U:C_U _C",
      ": V",
      "2_1_O :S_O_N",
      "2_2 _C:S_C_C",
      "1_2_F :C_F_N",
      "1_3 _L:C_L_C",
      "1_5 _C:S_C_C",
      "_O:S_O _P",
      "2_6_P:C _P_N",
      "2_6_O :F_O_C",
      "1_2 _C:N_C_O",
      "2_6 _L:C_L_S",
      "2_6 _C:N_C_F",
      "1_5 _N:C_N_N",
      "1_6 _P:N_P_C",
      "2_1_O :C_O_F",
      "_L:C_L _L",
      "2_3 _L:C_L_C",
      "1_1_O :O",
      "2_4 _F:C_F_O",
      "2_6 _S:C_S_O",
      "1_1_O:O _C_C",
      "1_1 _C:P_C_N",
      "1_1_O :L_O_C",
      "2_1_ B:C_B_C",
      "1_1_F :F_F_N",
      "2_2_ L:N_L_C",
      "2_6_C:S _C_N",
      "2_1_F :F_F_N",
      "2_4 _L:C_L_C",
      "1_5 _N:N_N_C",
      "2_2 _C:N_C_O",
      "1_1_S:S _C_C",
      "1_0 _O:C_O_N",
      "2_5 _N:C_N_N",
      "1_1_L:C_L _L",
      "2_4 _C:N_C_O",
      "2_6_B:C _B_B",
      ":F_N _N",
      "_O _F",
      "1_2 _O:N_O_N",
      ":O _B_C",
      "_O:S_O _F",
      "1_1_S:N_S _S",
      "1_0 _C:C_C_F",
      "1_3 _O:C_O_B",
      "2_0 _O:C_O_O",
      "2_6 _P:N",
      "2_5 _O:N_O_P",
      "1_1_C:C _N_C",
      "L:C_L _O",
      "2_1_L :L_L_C",
      "1_5 _L:C_L_C",
      ": E_O",
      "1_6 _C:O_C_S",
      "2_2_F :C_F_N",
      "1_4 _O:O_O_S",
      "_C:N_C _B",
      "2_1_O :S_O_C",
      "1_5 _O:N_O_P",
      "1_1_L :F_L_C",
      "2_0 _P:C",
      "1_2 _O:C_O_L",
      "1_1_O :S_O_N",
      "2_1_ S:O_S_C",
      "2_6 _P:O_P_P",
      "1_4 _O:C_O_F",
      "1_5 _N:O_N_C",
      "_L:C _L_N",
      "_P:P _P",
      "2_2 _C:N_C_S",
      "1_1_F :C_F_O",
      "L:N_L _S",
      "2_3 _O:P_O_C",
      "2_6_B:C _B_C",
      "2_2 _N:N_N_N",
      "_S:O_S _N",
      "1_1_L :L_L_C",
      "2_6 _N:C_N_B",
      "1_2 _N:N_N_N",
      "2_4 _O:C_O_F",
      "1_4 _O:C_O_L",
      "1_3 _O:P_O_C",
      "_P:P_P _B",
      "1_1_O :O_O_L",
      "2_5 _N:N_N_C",
      "2_5 _O:P_O_N",
      "2_2 _O:C_O_B",
      "2_4 _O:O_O_S",
      "2_6_N :L_N_C",
      ":N_O _L",
      "2_6_O :N_O_P",
      ":F _O_S",
      "1_4 _F:C_F_N",
      "2_2 _O:N_O_N",
      "1_1_ B:C_B_C",
      ":P _S",
      "1_6 _S:O_S_O",
      "1_6 _E:C_E_C",
      "1_6_B:C _B_C",
      "_C:B _C_O",
      ":V _O_O",
      "2_5 _L:C_L_C",
      "2_1 _C:F_C_N",
      "1_6 _L:C_L_S",
      "1_5 _F:C_F_O",
      "1_6 _C:N_C_F",
      "1_6 _P:O_P_P",
      "2_6_F :N_F_N",
      ":O_N _P",
      "1_2_O :N_O_O",
      "_L:C_L _O",
      "1_0 _O:C_O_O",
      "1_2_F :F_F_C",
      "1_0 _S:O_S_O",
      "1_0 _C:F_C_C",
      "2_2_O :N_O_O",
      "1_6_P:C _P_N",
      "_F :N_F_C",
      ":S _F_C",
      "_N:P_N _O",
      "1_2_F :O_F_C",
      "1_5 _C:P_C_P",
      "2_4 _P:O_P_O",
      ":L _O_S",
      "_N :S_N_C",
      "1_0 _N:O_N_C",
      "1_6 _P:N",
      "1_0 _O:O_O_S",
      "2_1 _C:P_C_P",
      "2_2 _O:C_O_L",
      "1_6_N :L_N_C",
      "1_6_O :N_O_P",
      "1_6_O :L_O_C",
      "1_6_O :F_O_N",
      "1_2 _C:N_C_S",
      "2_6_O :L_O_C",
      "2_6 _S:C_S_N",
      "2_5 _N:O_N_C",
      ":L _F_C",
      "1_2_ L",
      ":F _O_O",
      "2_6_O :C_O_F",
      "_N :O_N_S",
      "_ H",
      "2_4 _F:C_F_N",
      "1_1_ S:O_S_N",
      "2_4 _O:C_O_L",
      ":E_O _O",
      ":L_N _N",
      ":O _F_N",
      "1_2 _O:C_O_B",
      "2_6 _U:C_U_C",
      "_N:N_N _F",
      "2_0 _P:O_P_O",
      "1_4 _O:N_O_P",
      "2_5 _F:C_F_O",
      "I :C_I_C",
      ":F _F",
      "2_1_O :B_O_O",
      "1_2_N :O_N_O",
      "1_1_O :C_O_F",
      "_C:F _C_L",
      "2_2_ S:C_S_N",
      "1_6 _N:C_N_B",
      "2_6_O :S_O_O",
      ":L _F_F",
      ":P_S _O",
      "1_2 _O:S_O_N",
      "2_2 _O:S_O_N",
      "1_6 _B:B_B_C",
      ": U",
      "1_5 _O:P_O_N",
      "2_6_C:S _C_O",
      "1_4 _L:O_L_C",
      "2_0 _N:O_N_C",
      "1_1_O :S_O_C",
      "1_1_N :F_N_O",
      "2_1_N :F_N_C",
      "2_6 _P:P_P_N",
      "1_6_O :C_O_F",
      "1_5 _F:F_F_C",
      "2_0 _O:P_O_C",
      "1_4 _O:S_O_O",
      "2_4 _O:S_O_O",
      "1_3 _C:N_C_O",
      "2_5 _C:S_C_C",
      "1_3 _F:C_F_C",
      "1_1 _C:F_C_N",
      "S:C_S _L",
      "_C:L _C_L",
      "_O _P",
      ":O _L_N",
      "2_4 _O:N_O_P",
      "2_2_ S:N_S_N",
      "_C :I",
      ":S_N _L",
      "2_1 _C:C_C_F",
      "1_6_F :N_F_N",
      "2_1_ L:N_L_S",
      "1_2_ S:C_S_N",
      ":O _L",
      "1_6_C:S _C_N",
      "1_6 _L:O_L_C",
      "2_1_N :S_N_C",
      "2_6 _B:B_B_C",
      "1_1_F :O_F_O",
      "1_6 _S:C_S_O",
      "1_6 _S:N_S",
      "1_4 _N:N_N_S",
      "1_6_O :S_O_O",
      "P :O",
      "P:O _P_O",
      "2_2_F :O_F_C",
      "2_6 _L:O_L_C",
      "1_6 _S:C_S_N",
      "1_1_N :F_N_C",
      "1_1 _C:L_C_O",
      "1_2 _C:F_C_C",
      "2_1_O :N_O_F",
      "1_1_ S:O_S_C",
      "2_0_P:C _P_O",
      "2_1 _C:L_C_O",
      "2_0 _P:P_P_C",
      "2_0 _N:C_N_S",
      "2_0 _F:C_F_F",
      "1_1 _C:E_C_C",
      "_C :U",
      "1_4 _S:O_S_O",
      ":F_F _P",
      "L _CD2",
      "_C:U _C_C",
      ":CB _CD2_CB",
      "L_CD2 :CB_CD2_CB",
      "2_4 _N:N_N_S",
      "2_6_O :S_O_N",
      "1_0 _P:C",
      "_O:S_O _S",
      "2_2_F :F_F_C",
      "1_5 _F:O_F_C",
      "_N:N_N _P",
      "2_1 _C:E_C_C",
      "1_1 _C:P_C_P",
      "1_2_ S:N_S_N",
      ":N _B_C",
      "_B :O_B_C",
      "1_2_O :O_O_O",
      "2_1_O :E_O_C",
      ":L_N _O",
      "1_2_O :F_O_C",
      "2_6_O :F_O_N",
      "1_0 _P:O_P_O",
      ":N _E_C",
      "1_6_O :S_O_N",
      "1_0 _F:F_F_F",
      "2_6_F :C_F_O",
      "2_4 _O:P_O_N",
      "2_1 _C:L_C_N",
      ":O _I_C",
      "2_4 _S:O_S_O",
      "1_6_F :C_F_O",
      ":P_O _O",
      ":O_N _F",
      "2_1_F :O_F_O",
      "2_2_ L:C_L_O",
      "1_3 _O",
      "2_3 _F:C_F_C",
      "2_6_P:N _P_O",
      "1_5 _C:O_C_O",
      "2_3 _S:N_S_N",
      "2_0 _P:P_P_B",
      ":O_O _B",
      "1_2_O :L_O_C",
      "_S :P_S_O",
      "1_4 _C:S_C_C",
      "2_0 _N:C_N_O",
      "2_0 _N:N_N_C",
      "1_6 _L",
      "2_3 _C:N_C_O",
      "_C:S _C_S",
      "2_0_O :V_O_O",
      ":O_L _O",
      "2_6_N :O_N_S",
      "2_3 _C:L_C_L",
      "2_2 _C:C_C_F",
      "1_4 _F:F_F_C",
      "2_0 _I:C_I_C",
      "1_5 _F:C_F_F",
      "1_2 _C:C_C_F",
      ":C_F _L",
      "1_5 _O:O_O_S",
      "2_0 _O:S_O_C",
      "1_2_O :N_O_S",
      "1_1 _C:C_C_F",
      "1_6_S:N_S _S",
      "1_4 _O:P_O_N",
      "2_1 _C:F_C_O",
      "1_1_N :S_N_C",
      "2_0 _S:C_S_S",
      "1_1_O :B_O_O",
      "2_3 _C:F_C_L",
      "1_4 _C:N_C_P",
      "2_2_ L",
      "1_6 _P:P_P_N",
      "1_2_ L:C_L_O",
      "2_1 _C:B_C_O",
      "2_1_L:C_L _F",
      "B :O_B_C",
      "2_1 _C:C_C_L",
      "2_0 _I",
      "1_0 _C:C_C_L",
      "_C:I _C_C",
      "S :F",
      "1_6 _C:F_C_N",
      "_H _C",
      "2_6 _S:O_S_N",
      "S:S _S_C",
      ":B _O_N",
      "2_1 _C:O_C_P",
      "2_6 _N:P_N_O",
      "1_5 _L:O_L_C",
      "2_4 _L:O_L_C",
      "_U:C_U _N",
      "_S _N",
      "2_0 _N:N_N_N",
      "1_0 _O:P_O_C",
      "_E :N_E_C",
      "1_0 _N:C_N_S",
      "2_2_O :N_O_S",
      "2_6_P:N _P_N",
      "1_0 _F:C_F_F",
      "1_6_F :C_F_S",
      "_B _S",
      "_B _N",
      ":N _CB_CA",
      "P_CB :N_CB_CA",
      "2_6 _C:F_C_N",
      "_O:S_O _L",
      "2_5 _O:O_O_S",
      "1_2_ S:O_S_O",
      "_N:N_N _B",
      "1_3 _S:N_S_N",
      "1_4 _N:O_N_N",
      "2_6_O :C_O_L",
      "1_1_O :N_O_F",
      "2_1_L :S_L_C",
      "2_6 _E:C_E_C",
      ":C _H_C",
      "1_6_F :O_F_F",
      "2_6_C:C_C _E",
      "1_0 _P:P_P_C",
      "_N _N",
      "1_6 _U:C_U_C",
      "L_CD1:CB_CD1 _CA",
      "2_6_F :C_F_S",
      "2_1_O :E_O_O",
      "2_2 _N",
      "1_3 _S:O_S_C",
      "1_0 _I:C_I_C",
      ":S_N _O",
      "1_1 _C:F_C_O",
      ":C_O _B",
      "1_5 _F:C_F_N",
      "1_5_O :L_O_C",
      "1_1 _C:L_C_N",
      "_B :N_B_C",
      "2_6 _L:C_L_N",
      "2_1_ S:S_S_C",
      "_C:P _C_S",
      "2_6 _C:U_C_C",
      "2_6_N :S_N_N",
      "2_6 _L:C_L_L",
      "1_6_O :L_O_N",
      "1_6_N :O_N_S",
      ":F _O_P",
      "2_2_ S:O_S_O",
      "2_4 _C:S_C_C",
      "2_1_O:F _O_F",
      "1_1_L :S_L_C",
      "2_0 _C:C_C_L",
      "1_6_C:S _C_O",
      "1_4 _F:O_F_C",
      "2_5 _C:O_C_O",
      ":N _F_O",
      "1_2_ B:C_B_C",
      "1_6 _L:C_L_N",
      "2_4 _C:N_C_P",
      "_L :L_L_C",
      "1_0 _S:C_S_S",
      "2_6_F :O_F_F",
      "_ V",
      "S:C_S _S",
      "1_2_L :L_L_C",
      "1_5 _C:O_C_N",
      "2_1 _C:O_C_L",
      "1_0 _N:N_N_C",
      ":N _L_N",
      "2_3 _O:S_O_C",
      "2_4_O :B_O_C",
      "1_0 _O:S_O_C",
      "2_1_O :C_O_L",
      "1_1 _C:B_C_C",
      "2_6 _N:N_N_F",
      "2_5 _F:C_F_F",
      "2_6 _L",
      "2_0 _O:C_O_S",
      "1_6_P:N _P_N",
      "2_5 _F:O_F_C",
      "_B _O",
      "1_2_F :N_F_C",
      "1_0 _P:P_P_B",
      "1_3 _O:S_O_C",
      "1_6_O :F_O_O",
      "1_5 _O:C_O_F",
      "1_2 _C:L_C_C",
      "2_1 _N:C_N_S",
      "2_5 _O:C_O_F",
      "1_6_P:N _P_O",
      "2_1 _C:B_C_C",
      "1_1 _C:O_C_L",
      "1_1 _C:C_C_L",
      "2_2 _C:F_C_C",
      "1_6_O :L_O_O",
      "1_4_O :B_O_C",
      "2_2_ P:O_P_O",
      ":C _I",
      "1_2 _N:C_N_F",
      "2_2 _N:C_N_F",
      "1_6_N :S_N_N",
      "2_6 _C:N_C_L",
      "1_6 _L:C_L_L",
      "2_3 _O",
      "_F :L_F_F",
      "1_1 _C:O_C_P",
      "1_0 _O:C_O_S",
      "1_1_O:F _O_F",
      "1_6 _S:O_S_N",
      "1_4 _N:O_N_S",
      "2_6_N :O_N_P",
      "2_6_C:S _C_S",
      "1_1_ S:C_S_L",
      "2_0_P:C _P_C",
      ":B _N_C",
      "1_2_O :F_O_S",
      ":S _O_S",
      "1_6_O :C_O_L",
      "1_0_P:C _P_O",
      "2_0_O :N_O_S",
      "2_6 _C:B_C_C",
      "1_6 _N:N_N_F",
      "2_5 _C:O_C_N",
      "2_6_O :F_O_O",
      "_C:B _C_N",
      "1_2_O :O_O_N",
      "2_6 _C:F_C_O",
      "2_6_N :S_N_L",
      "L:N_L _O",
      "1_6 _N:P_N_O",
      "2_5 _F:C_F_N",
      "2_2_O :F_O_C",
      "1_1_O :E_O_C",
      "2_0 _C:P_C_O",
      "1_4_O :N_O_S",
      "_S :S",
      "2_1_C:S _C_F",
      "1_4 _P:O_P_O",
      "1_3 _O:O_O_S",
      "2_1_N :L_N_O",
      "2_2_O :L_O_C",
      "_C:F _C_S",
      "1_1_L:C_L _F",
      "1_0_O :V_O_O",
      "1_6_F :F_F_N",
      "2_3 _O:S_O_P",
      "2_5 _F:F_F_C",
      "2_2_O :O_O_O",
      "1_5 _C:C_C_S",
      "2_1_N :F_N_N",
      "1_6_F :O_F_N",
      "1_1 _C:B_C_O",
      "2_1_ I:C_I_C",
      "2_4 _N:N_N_B",
      "2_6_O :L_O_O",
      "1_3 _C:C_C_B",
      "1_3 _C:N_C_B",
      "2_5 _O:S_O_O",
      "2_1_O :P_O_O",
      "1_6_C:C_C _E",
      "2_0 _S:P_S_O",
      "1_6_N :S_N_L",
      "2_5 _C:N_C_O",
      "2_6 _L:C_L_O",
      "2_6 _N:N_N_P",
      "1_5 _C:N_C_O",
      "2_6_B:C _B_S",
      "_N:C_N _U",
      "1_2_L :F_L_C",
      ":C_I _O",
      "_O _I",
      "1_3 _O:S_O_P",
      "2_5 _C:C_C_S",
      "2_1_F :F_F_P",
      ":I _O_I",
      "1_1_C:S _C_F",
      "2_1_ S:C_S_L",
      "1_3 _N:N_N_S",
      "1_2_N :L_N_C",
      "2_3 _O:O_O_S",
      "S:F _S_N",
      "1_6 _C:B_C_C",
      "1_6 _C:E_C_C",
      "2_4 _O:C_O_B",
      "1_3 _L:O_L_C",
      "2_6 _C:O_C_F",
      "T _CB:N_CA_C",
      "1_2 _C:C_C_L",
      "2_2_F :N_F_C",
      "2_0 _C:P_C_P",
      "1_1_O :E_O_O",
      "2_4_O :N_O_S",
      "1_1 _N:C_N_S",
      ":B _N",
      "1_6_N :O_N_P",
      "1_0 _N:S_N_C",
      "1_0 _N:C_N_O",
      "_N:P_N _N",
      "1_3 _O:N_O_N",
      "2_6_S:N_S _N",
      "1_1_ L:N_L_S",
      "_S:C_S _P",
      "2_4 _F:F_F_C",
      "1_1_O :C_O_L",
      "1_6 _C:N_C_L",
      "2_6_S:N_S _O",
      "2_3 _N:N_N_S",
      "1_5_O :F_O_C",
      "1_2 _N:C_N_L",
      "2_4 _O:S_O_N",
      "1_6 _C:F_C_O",
      "2_0 _C:O_C_P",
      "1_4 _L:N_L_C",
      "2_1_N :L_N_N",
      "1_5_O :E_O_C",
      "2_4 _N:O_N_N",
      "2_3 _O:S_O_O",
      "1_6 _E:N_E_C",
      "2_1_N :O_N_F",
      "1_1_F :F_F_P",
      "1_2_ B:O_B_C",
      "1_1_S:S _S_C",
      "2_6_O :L_O_N",
      "1_6_C:S _C_S",
      "2_2_ B:C_B_C",
      "1_5 _F:N_F_C",
      "_CD2 _CG",
      ":N_N _E",
      "1_1_ I:C_I_C",
      "L:C_L _N",
      "2_0 _S:N_S_C",
      "2_1_O :N_O_L",
      "2_3 _L:O_L_C",
      "1_1_ S",
      "1_0 _N:N_N_N",
      "2_0_O :O_O_N",
      "2_0_I :O_I_C",
      "1_0 _N:N_N_O",
      "2_2 _C:C_C_L",
      ":B _F_C",
      "2_1_N :S_N_N",
      ":I _O_O",
      "1_0_O :N_O_S",
      "2_2_L :L_L_C",
      "1_1_N :L_N_N",
      "1_0 _I",
      "1_6 _L:C_L_O",
      "2_5 _L:O_L_C",
      "1_0_O :O_O_N",
      "1_4_O :F_O_C",
      "1_6 _N:N_N_P",
      "1_4 _N",
      "1_3 _O:N_O_P",
      "1_2 _O:S_O_F",
      "1_2_ P:O_P_O",
      "1_3 _F:C_F_F",
      "2_5_O :L_O_C",
      "2_2_O :O_O_N",
      ":E_O _N",
      "2_6 _C:L_C_N",
      "2_1_O :O_O_B",
      "S:C_S _P",
      "1_6 _C:O_C_F",
      "1_5 _F",
      "2_2 _N:C_N_L",
      "1_5 _O:S_O_O",
      "1_1_N :F_N_N",
      "2_1 _C:P_C_S",
      ":I _O_C",
      "2_5_O :E_O_C",
      "1_4 _O:C_O_B",
      "1_3 _O:S_O_O",
      "_S:S _S_C",
      "1_3 _O:C_O_F",
      "1_5 _S:C_S_C",
      "2_1_F :S_F_C",
      "B:C _B_N",
      "2_6_N :F_N_N",
      ":B_N _O",
      "2_4 _L:N_L_C",
      "2_2 _O:S_O_F",
      "2_0 _O:O_O_P",
      "2_1_L :O_L_O",
      "2_4 _N:O_N_S",
      "2_3 _O:N_O_N",
      "2_0 _U:C_U_N",
      "2_2 _C:L_C_C",
      "2_1_N :L_N_C",
      "1_6 _S",
      "1_4 _C:S_C_S",
      "1_3 _C:F_C_L",
      "1_6 _B:N_B_C",
      "1_6_N :F_N_N",
      "1_5 _L:N_L_C",
      "1_6 _S:N_S_N",
      "_O:P_O _S",
      "2_6 _C:L_C_O",
      "1_6_L :N_L_N",
      ":E _N_N",
      ":S_N _P",
      "1_4 _O:S_O_N",
      "2_0 _N:S_N_C",
      "1_1_O :P_O_O",
      "2_0 _N:N_N_O",
      "H :C_H_C",
      "2_6 _S",
      "2_1_ S:C_S_S",
      "1_1_L :O_L_N",
      "1_4_O :L_O_C",
      ":P _S_C",
      "2_1_O :B_O_C",
      "1_0 _U:C_U_N",
      "2_3 _O:N_O_P",
      "1_2_O :L_O_S",
      "_H :C_H_C",
      "2_1_L :O_L_N",
      "2_6_F :O_F_N",
      "1_1_O :N_O_L",
      "1_0_P:C _P_C",
      "2_4 _N",
      "2_4 _F:O_F_C",
      "1_3 _F:C_F_O",
      "1_1_L :O_L_O",
      "2_6_C:C_C _I",
      "2_1_ S",
      "1_1_ E",
      "2_1_C:S _C_S",
      "Y _CD2",
      "2_3 _S:O_S_C",
      "1_0 _S:N_S_C",
      "2_2_O :F_O_S",
      "2_6_O :O_O_F",
      ":CG _CD2_CG",
      "2_3 _F:C_F_O",
      "2_6_F :F_F_N",
      "Y_CD2 :CG_CD2_CG",
      ":O_N _B",
      "2_0 _F:L_F_F",
      "1_6 _C:L_C_N",
      "1_4 _B:O_B_C",
      "_L :F_L_C",
      "2_4 _C:S_C_S",
      "_C:S _C_O",
      "1_0 _C:P_C_O",
      "2_6_O :S_O_S",
      ":L _S_C",
      "2_3 _C:N_C_B",
      ":F _O_F",
      "1_1_N :L_N_C",
      "2_2_L :F_L_C",
      "1_2_O :B_O_C",
      "2_1 _C:N_C_F",
      "1_6_F :N_F_F",
      "1_0 _C:P_C_P",
      "_N _P",
      "2_3 _C:C_C_B",
      "1_1_C:C _N_P",
      "1_4 _O:S_O_F",
      "2_3 _F:C_F_F",
      "1_2 _N:C_N_U",
      "2_0 _O:N_O_N",
      "M_CG:CB_CG _CG",
      "1_0_O :N_O_O",
      "1_6 _I:C_I_C",
      "2_5_O :N_O_S",
      "2_6 _B:N_B_C",
      "1_1_F :S_F_C",
      "1_6_O :O_O_F",
      "1_1_N :L_N_O",
      "K _CA:N_CA_C",
      "2_3 _O:C_O_F",
      "_C:L _C_S",
      ":F_N _F",
      "2_5 _O:S_O_N",
      "_V _O",
      "1_4_O :N_O_O",
      "_C:I _C_O",
      "B:C _B_O",
      ":V _V_O",
      "_V :V_V_O",
      "2_6 _E:N_E_C",
      "2_2 _N:S_N_C",
      "2_1_ L:N_L_O",
      "1_1_ S:C_S_S",
      "1_0 _O:O_O_P",
      "1_0 _O:N_O_N",
      "2_5_O :F_O_C",
      "2_0 _O:S_O_S",
      "1_0 _C:O_C_P",
      "1_6 _B",
      "2_4 _O:S_O_F",
      "1_1_ L:N_L_O",
      "2_2_ B:O_B_C",
      "2_2_O :B_O_C",
      "1_2_N :S_N_C",
      "2_0_I :C_I_O",
      "1_4 _F:N_F_C",
      ":F _L",
      "1_5 _N",
      "2_6_L :N_L_N",
      "2_3 _O:P_O_N",
      "1_0 _S:P_S_O",
      "1_0 _F:L_F_F",
      "2_4_O :I_O_I",
      "2_1 _C:O_C_F",
      "2_1_ S:F_S_N",
      "2_6_F :N_F_F",
      "1_2_N :F_N_C",
      "V _CG2",
      "1_4 _L:L_L_C",
      "_O:P_O _F",
      "1_4 _C:C_C_F",
      "_C:C_C _U",
      "2_5 _F:N_F_C",
      "1_1_F :L_F_F",
      ":S _F_F",
      "_CG2 _CA",
      "2_1_O :E_O_N",
      "1_1_N :O_N_F",
      "2_5 _N:P_N_P",
      "2_5 _L:N_L_C",
      "1_1_C:S _C_L",
      "1_6 _C:U_C_C",
      "1_3 _C:C_C_P",
      "2_6 _I:C_I_C",
      "2_6_N :S_N_O",
      "_C:C_C _I",
      "1_1 _C:N_C_F",
      "_C:S _C_N",
      "2_1_O :B_O_N",
      "1_0 _L:C_L_L",
      "_C:E _C_N",
      "1_2 _O:S_O_L",
      "_O:C_O _I",
      "2_1_F :L_F_C",
      "2_2_N :L_N_C",
      "1_3 _L:N_L_C",
      "1_3 _O:P_O_N",
      "1_3 _C:L_C_L",
      "2_5 _F",
      "S:O_S _P",
      "2_5 _S:C_S_C",
      "2_4_O :N_O_O",
      "1_6_L :O_L_N",
      "_O :C",
      "1_1 _C:B_C_N",
      "1_1_N :S_N_N",
      "2_6_P:C _P_P",
      "2_5_O :N_O_O",
      "2_1 _C:N_C_B",
      "1_1_O :O_O_B",
      "S:F _S_C",
      "1_2 _C:O_C_S",
      ":N_O _B",
      "1_6_C:C_C _I",
      "2_0 _L:O_L_C",
      "1_4_O :L_O_S",
      "2_6 _C:O_C_L",
      "1_6_O :S_O_S",
      "2_1_F :L_F_F",
      "2_1_C:S _C_L",
      "2_4 _N:C_N_F",
      "1_2 _O:S_O_P",
      "2_6_O :C_O_B",
      "1_5 _C:F_C_C",
      "2_4 _F:N_F_C",
      "1_3 _F:C_F_N",
      "_L :S_L_C",
      "2_5 _O:C_O_B",
      "2_2_O :L_O_S",
      "_S:O_S _S",
      "1_6_F :S_F_C",
      "B :N_B_C",
      "2_6 _N:P_N_N",
      "2_1 _C:B_C_N",
      "1_2_ L:C_L_N",
      "2_4 _B:O_B_C",
      "1_1_O :B_O_C",
      "2_2 _C:O_C_S",
      "2_4_O :F_O_C",
      "_C:O _C_B",
      "1_1 _C:P_C_S",
      "1_1_F :L_F_C",
      "1_5_O :B_O_C",
      "1_1 _C:O_C_F",
      "1_4_O :I_O_I",
      "1_5_O :N_O_O",
      "1_5_O :N_O_S",
      "1_0_I :O_I_C",
      ":F_L _F",
      ":N _I_C",
      "1_6 _N:P_N_N",
      "1_1 _C:N_C_B",
      "1_5 _C:L_C_C",
      "2_6_O :B_O_C",
      "1_4 _N:C_N_F",
      "1_5 _O:S_O_N",
      "2_0 _P:P_P_N",
      "2_2_N :F_N_C",
      "2_6 _C:F_C_S",
      "1_1_ S:F_S_N",
      "1_4 _F",
      "1_1_O :B_O_N",
      "1_1_N :N_N_E",
      "1_2_F :C_F_L",
      "_O _B",
      "2_1_N :N_N_E",
      ":F _S_C",
      "2_3 _L:N_L_C",
      "1_5 _N:P_N_P",
      "2_0 _L:C_L_C",
      "1_1_E :E_O_C",
      "1_6 _H:C_H_C",
      "2_2 _O:S_O_P",
      "2_1_O :I_O_O",
      "1_2 _C:O_C_F",
      ":O_N _L",
      ":B _O_P",
      "2_1_N :B_N_O",
      "1_1_N:N _C_N",
      "K _O:C",
      "1_4 _C:F_C_N",
      "1_6_S:N_S _O",
      "1_6 _C:L_C_O",
      "1_6_P:C _P_P",
      ": T",
      "2_6 _S:C_S_P",
      "2_1_ H:C_H_C",
      ":F _L_N",
      ":C_F _B",
      "A _O",
      "E :C_E_C",
      "1_2 _C:N_C_F",
      "1_5 _O:C_O_B",
      "1_0 _L:O_L_C",
      ":L _S_N",
      "A_O :N_CA_C",
      "2_1_F :C_F_S",
      "2_6_N :E_N_N",
      "2_2_F :C_F_L",
      ":C_F _P",
      "1_6_O :B_O_C",
      "2_2_ L:C_L_N",
      ":P_S _P",
      "2_1_F :N_F_O",
      "2_6 _B",
      ":B _O_B",
      "2_0 _C:L_C_C",
      "1_6_O :N_O_F",
      "_S:C_S _F",
      "1_2_O :F_O_P",
      "1_3 _O:C_O_L",
      "1_6_O :C_O_B",
      "2_0_O :N_O_O",
      "1_5_O :O_O_N",
      "2_0 _L:C_L_L",
      "2_2_ S:C_S_O",
      "2_4 _C:C_C_F",
      "1_5_O :L_O_S",
      "2_2 _N:C_N_U",
      "1_0 _L:C_L_C",
      "2_6_F :S_F_C",
      "1_6_B:C _B_S",
      "2_5_O :B_O_C",
      "1_6 _S:C_S_P",
      "2_1 _C:I_C_O",
      "2_2 _O:S_O_L",
      "1_3 _F:F_F_C",
      "1_2_F :L_F_C",
      "1_6 _B:O_B_C",
      "1_6 _C:F_C_S",
      "2_3 _P:O_P_C",
      "2_2 _C:O_C_F",
      "1_0 _N",
      "1_6_N :F_N_O",
      "1_6_N :L_N_N",
      "1_5_F :L_F_C",
      "2_2 _C:N_C_F",
      "2_4 _F",
      "2_5 _N",
      ":P_N _C",
      "1_2_ S:C_S_O",
      "2_6 _B:O_B_C",
      "1_4 _C:L_C_C",
      "1_1_O :I_O_O",
      "1_1_N :B_N_O",
      "2_1_F :O_F_N",
      "1_1_F :N_F_O",
      "2_6_N :L_N_N",
      "2_6_O :N_O_F",
      ":L _L_N",
      "1_4_O :F_O_S",
      "2_4_O :L_O_C",
      ":O _E_C",
      "1_4 _N:N_N_B",
      "2_6_O :O_O_L",
      "1_0 _C:L_C_C",
      "1_5 _C:C_C_F",
      ":N_O _I",
      "1_1_C:S _C_S",
      "1_6_N :S_N_O",
      "1_6_N :E_N_N",
      "I :O_I_C",
      "2_1 _N:C_N_L",
      "2_0 _V:V_V_O",
      "A _CG2_CA",
      ":C A_CG2_CA",
      "1_6 _C:O_C_L",
      "2_1 _C:N_C_L",
      "1_6_O :F_O_F",
      "V_CG2 :CA_CG2_CA",
      "2_3 _F:C_F_N",
      "2_1_N :O_N_B",
      "_S:N_S _O",
      "2_1_S :P_S_O",
      "2_6 _C:N_C_B",
      "2_1_O :C_O_P",
      "1_1 _C:I_C_C",
      "2_0 _O:P_O_N",
      "1_1_ H:C_H_C",
      "2_2_O :F_O_P",
      "E :N_E_C",
      "2_4 _L:L_L_C",
      "1_2 _C:F_C_O",
      "2_6_O :F_O_F",
      "1_4 _C:N_C_L",
      "2_1_O :C_O_B",
      "1_1_N :N_N",
      "1_1_N :O_N_B",
      "2_1_N :N_N",
      "1_2_ S:O_S_P",
      "1_6_F :N_F_O",
      ":U _N_C",
      "2_0_O :O_O_F",
      ":O_L _S",
      ":T _N_N",
      ":B _N_N",
      "_I :N_I_C",
      "1_5_O :N_O_L",
      "_S _O",
      "2_1_N :O_N_P",
      "2_5 _C:F_C_C",
      "2_1_O :N_O_P",
      "2_1 _C:N_C_P",
      "2_0 _S:S_S_C",
      "1_0 _P:P_P_N",
      "1_2_ I:C_I_C",
      "2_6_N :F_N_O",
      "_O:S_O _B",
      "1_0_O :N_O_F",
      "1_5_N :L_N_C",
      "Q _OE1:CG_OE1_OE2",
      "1_2 _C:F_C_N",
      "_L _O",
      "1_5 _S:O_S_C",
      ":O_O _I",
      "2_6 _H:C_H_C",
      "2_1_ S:C_S_P",
      "1_1_F :O_F_N",
      "2_0 _F:C_F_C",
      "2_0 _O:C_O_F",
      "2_0_O :F_O_C",
      "1_0_I :C_I_O",
      "1_3 _F:O_F_C",
      "1_2 _C:O_C_L",
      "2_5 _S:O_S_C",
      "2_5 _C:C_C_F",
      "2_0 _C:C_C_U",
      "1_0 _O:C_O_F",
      "_E :C",
      "2_6_L :O_L_N",
      "1_1_O :E_O_N",
      "1_6_N :B_N_C",
      "1_4_N :S_N_P",
      "_ E_O",
      "2_1 _N:C_N_F",
      "2_2 _C:F_C_N",
      "2_4_O :L_O_S",
      "1_4 _C:N_C_F",
      "2_1 _C:I_C_C",
      "1_1 _N:C_N_L",
      "1_1 _C:C_C_P",
      "1_1_ B:C_B_N",
      ":F _B_C",
      "1_0 _C:C_C_U",
      "Y _CA:N_CA_C",
      "_S :L_S_C",
      "2_0 _N",
      "1_0 _O:S_O_S",
      "2_1_L :F_L_N",
      "1_4_O :O_O_N",
      ":N _U",
      ":O _B_N",
      "1_1 _C:E_C_N",
      "1_5 _N:C_N_L",
      ":B _O_S",
      "1_1_S :P_S_O",
      "2_4_N :S_N_P",
      "2_1 _N:C_N_P",
      "2_1_ B:C_B_N",
      "1_2_ S",
      "2_6_N :B_N_C",
      "1_1_O :N_O_P",
      "1_1 _C:N_C_P",
      "1_0 _V:V_V_O",
      "1_2_ B:N_B_C",
      ":L_N _S",
      ":F_F _S",
      "1_1_S :S_O_C",
      "2_4 _C:N_C_L",
      "1_3 _P:O_P_C",
      "2_1 _C:E_C_N",
      "1_2 _C:B_C_C",
      "1_2 _C:N_C_L",
      "1_6_O :O_O_L",
      "1_1_N :O_N_P",
      "2_5 _C:L_C_C",
      "2_1_L :F_L_F",
      "_ W",
      "1_6 _C:N_C_B",
      "2_2 _C:F_C_O",
      "1_1_F :C_F_S",
      ":B _L_C",
      "_U :N_U",
      ":O _F",
      "2_3 _O:S_O_N",
      "2_4 _C:N_C_F",
      "1_1_O :C_O_P",
      "A_CB :C_N_CA",
      "1_6_N :F_N_F",
      ":I _N_C",
      ": W",
      "2_3 _O:C_O_L",
      "2_3 _C:C_C_P",
      ":S _O_P",
      "_E :O_E_C",
      "2_5_O :O_O_N",
      ":V _O_N",
      "1_4_N :F_N_C",
      "1_6_S :P_S_C",
      "2_3 _S:O_S_O",
      "1_1 _C:N_C_L",
      "1_5 _O:N_O_N",
      "2_5 _N:C_N_L",
      "2_6_S :P_S_C",
      "E _CD:CG_CD",
      "2_1 _C:C_C_B",
      "1_2 _C:L_C_N",
      "2_2 _C:N_C_L",
      ":F_F _L",
      "1_6_S :F_S_C",
      "2_6 _S:C_S_F",
      "2_1 _C:C_C_P",
      "_P _S",
      "2_1_ E:C_E_C",
      "1_5 _C:C_C_L",
      "1_0 _N:O_N_N",
      "2_0_O :L_O_C",
      "V_CG2 :C_N_CA",
      "1_1 _C:I_C_O",
      "1_5 _O:S_O_P",
      "2_5 _C:C_C_L",
      "2_5 _O:S_O_P",
      "2_5 _O:S_O_S",
      "1_6_F :C_F_P",
      "1_1_L :F_L_F",
      "1_4 _N:C_N_L",
      "1_4 _S:O_S_C",
      "2_4 _S:O_S_C",
      "1_1_O :C_O_B",
      "_P :S",
      "2_0 _C:I_C_C",
      "1_6_F :O_F_O",
      "2_6_B:C _B_O",
      "2_5_O :N_O_L",
      "1_3_O :F_O_C",
      "2_6_S :P_S_P",
      "K_O:C _OG1_CA",
      "D1 _CD2_CG",
      ":O _B_O",
      "2_3 _F:O_F_C",
      "1_2 _O:P_O_S",
      "H_CD2:N D1_CD2_CG",
      "2_1_F :S_F_F",
      "1_0 _C:C_C_P",
      "1_6_F :B_F_C",
      "2_6_N :F_N_F",
      ":I _O_N",
      ":V _O_C",
      ":N _",
      "1_3 _C:N_C_P",
      "1_2_ L:C_L",
      "1_0_O :F_O_C",
      "1_3_O :N_O_S",
      "2_1_S :L_S_N",
      "K_O:C _CG2_CA",
      "1_3 _N",
      "1_2 _C:L_C_O",
      "2_2 _O:P_O_S",
      "2_1_N :B_N_C",
      "2_1_N :P_N_C",
      "2_0 _E:C_E_C",
      "2_0 _L:C_L_O",
      "1_0 _F:F_F_C",
      "1_5_O :F_O_S",
      ":I _I_C",
      ":W _O_C",
      "1_4 _L:F_L_C",
      "1_3 _O:S_O_F",
      "2_3 _F:F_F_C",
      "2_3 _O:S_O_F",
      "1_1 _N:C_N_F",
      "2_2 _C:O_C_L",
      "2_2 _N:O_N_S",
      "1_1_ S:C_S_P",
      "2_5 _C:N_C_L",
      "1_1_S :L_S_N",
      "1_1_N :O_N_L",
      "1_0 _S:S_S_C",
      "1_0 _C:S_C_O",
      "1_2_ E:N_E_C",
      "2_6_F :O_F_O",
      "2_6_F :N_F_O",
      "L:N_L _F",
      ":C_I _N",
      "P :C",
      "1_3 _C:N_C_F",
      "2_3 _N:C_N_F",
      "2_1 _C:B_C_B",
      "1_6_F :L_F_C",
      "1_2_N :O_N_S",
      "P:C _P_C",
      "2_4 _C:O_C_S",
      "1_3_O :L_O_C",
      "1_3_O :B_O_C",
      "2_3_O :N_O_S",
      "E_CD:CG_CD _NE",
      "_O E2",
      "2_6 _S:S_S_C",
      ":CG _OE2",
      "1_3 _O:S_O_N",
      "E_OE2 :CG_OE2",
      "2_1_ B:C_B_O",
      "1_2_O :N_O_F",
      "1_0_O :L_O_C",
      "2_4_O :N_O_L",
      "1_6_S :P_S_P",
      "E_OE2:CG_OE2 _CG",
      "2_4 _C:F_C_N",
      "2_3 _N",
      "1_1 _N:C_N_P",
      "1_6_O :B_O_N",
      "1_5 _C:F_C_N",
      "1_0 _C:I_C_C",
      "2_2_ I:C_I_C",
      "2_1_L :L_L_N",
      "1_4_O :N_O_L",
      "1_6_L :S_L_C",
      "_F _P",
      "1_2 _O:C_O_I",
      "2_2 _N:C_N_B",
      "2_0 _S:N_S_O",
      "_B _F",
      "1_2_ S:C_S_P",
      "1_6_F :P",
      "2_6_C:S _C_P",
      "1_4 _O:S_O_L",
      "2_4 _O:S_O_L",
      "2_4 _L:S_L_C",
      "2_1_C:S _C_P",
      "2_0 _C:C_C_P",
      "1_2_ S:F_S_C",
      "2_2_ S:O_S_P",
      "1_2_F :C_F_S",
      "1_2_F :B_F_C",
      "2_6_C:S _C_F",
      "1_3_O :N_O_O",
      "1_3_O :B_O_B",
      "1_3_O :N_O_I",
      "_E:C _E_O",
      "T _N",
      "T :N_",
      "2_3 _C:C_C_F",
      ":C_O _E",
      "2_6_F :C_F_P",
      "2_2_F :C_F_S",
      "_E _N",
      "H 1_CZ",
      "1_4 _O:S_O_P",
      ":O_O _E",
      "1_1 _C:C_C_B",
      "1_2 _C:C_C_B",
      "1_2 _C:I_C_C",
      "R_NH1:NE_N H1_CZ",
      "2_2 _O:S_O_S",
      "2_1_N :O_N_L",
      "1_5 _O:S_O_S",
      "1_5 _L:L_L_C",
      "1_2_F :C_F_B",
      "2_4_O :F_O_P",
      "Y _CD1:CD1_CG1_CB",
      "1_4 _L:S_L_C",
      "1_3 _S:O_S_O",
      "1_3 _C:C_C_F",
      "2_2 _C:C_C_P",
      "1_1_ I",
      "1_0 _L:C_L_O",
      "2_2_O :B_O_O",
      "1_1_L :O_L_S",
      "1_4_O :F_O_P",
      "1_6_C:S _C_P",
      "T:N_ T_N",
      "G _CA",
      "1_4 _C:O_C_S",
      "1_1 _C:B_C_B",
      "2_2 _C:L_C_N",
      "2_0 _S:O_S_S",
      "1_0 _S:O_S_N",
      "1_2_ I:O_I_C",
      "2_2_ L:C_L",
      "_S:O_S _P",
      "2_6_F :P",
      "2_6_N :U_N_C",
      "2_4_O :O_O_N",
      "2_4_O :F_O_S",
      "2_5_F :C_F_S",
      "2_6 _I:N_I_C",
      "2_4 _N:C_N_L",
      "2_4 _O:S_O_S",
      "_P _F",
      "2_2 _C:L_C_O",
      "1_0 _F:C_F_C",
      "1_0 _O:P_O_N",
      "2_2_ S:C_S_P",
      "2_5_O :L_O_S",
      "2_6_L :S_L_C",
      "_S:S _S_O",
      "1_5_F :C_F_L",
      "2_6_S :F_S_C",
      "G_CA :C_N_CA",
      ": Y",
      "1_4 _N:C_N_B",
      "2_6_O :B_O_N",
      "2_2 _O:P_O_F",
      ":C_O _I",
      "1_1_ B",
      "1_1_F :S_F_F",
      "2_2_ S:F_S_C",
      "1_2_O :I_O_C",
      "1_2_L :S_L_C",
      "2_3_O :B_O_B",
      "2_5_N :L_N_C",
      "_U:N_U _C",
      ":Y _O_C",
      ":N _L_O",
      "_N:C_N _I",
      "1_2 _N:N_N_S",
      "1_2 _O:S_O_S",
      "1_2 _O:P_O_F",
      "1_5 _C:N_C_L",
      "1_2_O :B_O_O",
      "1_1_L :F_L_N",
      "1_6_B :O_B_N",
      "_CE1:CD1_CE1 _CE1",
      "1_2 _C:L_C_S",
      "_O:P_O _B",
      "1_2_ B:C_B_O",
      "1_1_L :L_L_N",
      "2_4_N :F_N_C",
      "1_5_N :F_N_C",
      "2_1_O :N_O_B",
      "2_4 _C:O_C_F",
      "2_1_ I",
      "1_1_ B:C_B_O",
      "2_1_N :B_N_N",
      "1_1_N :P_N_C",
      "2_0 _C:S_C_O",
      "1_0 _O:C_O_L",
      "_C:F _C_P",
      "_L:C_L _F",
      "2_3_O :B_O_C",
      "1_5_F :C_F_S",
      "1_4 _O:S_O_S",
      "2_3 _C:O_C_F",
      "1_2 _N:N_N_O",
      "1_2 _N:C_N_B",
      "1_0 _C:S_C_S",
      "1_2_ B:C_B_N",
      "2_2_ B:N_B_C",
      "2_2_F :L_F_C",
      "2_6_B:C _B_N",
      "1_4_F :C_F_L",
      "1_2_S :L_S_C",
      "2_4 _L:C_L_O",
      "1_6_O :N_O_L",
      "2_1_N :O_N_S",
      "2_1_F :B_F_C",
      "2_0 _C:N_C_N",
      "2_0 _F:C_F_O",
      "2_0 _S:O_S_N",
      "_S:O_S _F",
      "_B:C _B_C",
      "1_0_O :O_O_F",
      "1_4_O :N_O_F",
      "E _OE1:CG_OE",
      "2_6 _C:O_C_B",
      "1_4 _C:O_C_F",
      "2_4 _O:S_O_P",
      "1_1_O :I_O_C",
      "2_2 _O:C_O_I",
      ":L _O_P",
      "1_6_B:C _B_O",
      "1_6_L :O_L_O",
      ":B_N _S",
      "E_OE1:CG_OE 1_CA",
      "1_5 _C:P_C_C",
      "2_0 _F:O_F_C",
      "2_4_O :N_O_F",
      "1_4_N :L_N_C",
      "2_4_N :S_N_S",
      "1_6_B :F_B_C",
      "2_6 _C:L_C_S",
      "2_6 _P:S",
      "1_6 _I:N_I_C",
      "1_1_O :O_O_I",
      "1_3 _C:O_C_F",
      "2_6_O :N_O_L",
      "2_2 _C:O_C_P",
      "2_2 _C:C_C_B",
      "Q_OE1:CG_OE 1_CA",
      "1_5 _N:C_N_F",
      "2_0 _C:O_C_N",
      "2_0 _O:C_O_L",
      "2_6_F :L_F_C",
      "1_6_N :O_N_F",
      "1_4_F :L_F_C",
      "2_1_N:N_N _L",
      "D _CB:CA_CB_CG",
      "1_6 _S:C_S_F",
      "2_4 _C:L_C_C",
      "2_6_O :B_O_O",
      "2_2 _N:N_N_O",
      "1_5 _L:F_L_C",
      "1_1_N :B_N_C",
      "2_5 _O:S_O_F",
      "2_0 _O:C_O_P",
      "2_2_ B:C_B_N",
      "2_1_L :O_L_S",
      "2_0_O :B_O_O",
      "2_0_O :F_O_N",
      "1_2_N :L_N_S",
      "2_6_P:N _P_P",
      "2_5_F :L_F_C",
      "2_5_F :C_F_L",
      "1_4_F :C_F_S",
      "2_4_F :C_F_L",
      "2_3 _C:N_C_P",
      "2_5 _N:C_N_F",
      "2_2_ S",
      "2_6_N :O_N_F",
      "2_3_O :N_O_O",
      "1_1_E :C_E_C",
      "2_4_F :C_F_S",
      "2_6 _C:E_C_C",
      "2_1_O :V_O_N",
      "2_4 _L:F_L_C",
      "1_3 _F",
      "1_3 _F:N_F_C",
      "1_2 _C:O_C_P",
      "1_5 _C:O_C_S",
      "2_5 _O:N_O_N",
      "2_5 _L:L_L_C",
      ":S _O_F",
      "2_0 _F",
      "2_0 _C:O_C_S",
      "1_0 _F:O_F_C",
      "1_0 _S:O_S_S",
      "1_0 _S:N_S_O",
      "1_2_ I",
      "_I :O_I_C",
      "1_5_O :F_O_P",
      "2_5_O :F_O_S",
      "2_3_O :N_O_I",
      ": H",
      "I _O",
      ":N _B_N",
      "2_1_O :O_O_I",
      ":CB_CG 1_CD1",
      "1_2 _C:C_C_I",
      "2_6_O :S_O_P",
      "1_5 _C:C_C_P",
      "1_5 _C:L_C_N",
      "2_5 _C:O_C_S",
      "2_5 _C:C_C_P",
      "1_0 _F:C_F_O",
      "2_6_F :B_F_C",
      "2_2_N :T_N_N",
      "1_0_N :S_N_O",
      "1_1_N:N_N _B",
      "1_2_L:C_L _F",
      "I_O :CB_CG1_CD1",
      "1_2 _O:P_O_P",
      "1_5 _C:N_C_F",
      "1_5 _C:B_C_C",
      "2_1_F :F_F_L",
      "1_0 _C:S_C_N",
      "1_2_ B",
      "2_0_O :N_O_F",
      "1_6_B:C _B_N",
      "1_3_O :F_O_S",
      "_S:S _S",
      "1_6 _C:L_C_S",
      "1_6 _C:O_C_B",
      "1_1_O :N_O_B",
      "1_3 _C:L_C_C",
      "2_1 _C:O_C_B",
      "2_2 _N:N_N_S",
      "1_5 _O:S_O_F",
      "1_1_C:S _C_B",
      "_B _P",
      "2_2_ E:N_E_C",
      "2_2_ T:N_T_N",
      "1_6_C:S _C_F",
      "_P:P_P _S",
      "2_3_O :L_O_C",
      "T _CG2:CG1_CG2_CA",
      "2_1_O :I_O_C",
      "2_1_O :V_O_C",
      "1_1_O :V_O_N",
      "2_3 _C:N_C_F",
      "1_0 _C:N_C_N",
      "1_0 _N:O_N_S",
      ":P_N _O",
      "2_2_ E:C_E_C",
      "1_2_F :S_F_C",
      "2_1_L :B_L_C",
      "1_1_L :L",
      "1_3_O :L_O_S",
      "2_0_I :I_I_C",
      "1_5_F :S_F_C",
      "2_5_N :F_N_C",
      "1_1_N:N_N _F",
      ":O_F _S",
      ":N _H_C",
      "2_6 _S:O_S_S",
      "1_6 _C:I_C_C",
      "1_3 _N:N_N_O",
      "1_3 _L:L_L_C",
      "1_1_N :B_N_N",
      "2_5 _S:L_S_C",
      "1_1_F :F_F_L",
      "2_0 _C:S_C_N",
      "1_2_ E",
      "2_2_ I",
      "2_2_O :N_O_F",
      "1_0_O :B_O_O",
      "2_3_N :S_N_P",
      "_S:S_S _S",
      "_S _F",
      "2_1_O :O_O_E",
      "1_3 _N:C_N_F",
      "L_CD1:C D1_CG1_CB",
      "1_2 _C:S_C_N",
      "2_2 _C:I_C_C",
      "2_2 _C:L_C_S",
      "2_2 _C:C_C_I",
      "1_1_ L:N_L_F",
      "2_1_N :S_N_O",
      ":F _S_F",
      "1_1_N :S_N_O",
      "2_5 _N:S_N_C",
      "_ND1 _CA",
      "H_ND1:CG _ND1_CA",
      "1_1_C:S _C_P",
      "1_0 _C:O_C_S",
      "1_0 _E:C_E_C",
      ":B _F_O",
      "2_2_ B:C_B_O",
      "2_2_ I:O_I_C",
      "1_2_N :B_N_C",
      "1_6_P:N _P_P",
      ":T _N_C",
      "F _CD1:C",
      "2_4 _N:C_N_B",
      "B_CD1 _CD2",
      "1_2 _C:C_C_P",
      "_O:C_O _E",
      "1_5 _S:L_S_C",
      "1_1_N :O_N_S",
      "2_5 _C:L_C_N",
      "2_0 _C:O_C_O",
      "2_0 _C:S_C_S",
      "2_2_F :S_F_C",
      "2_2_O :O_O_B",
      "L:N_L _L",
      "2_2_L :S_L_C",
      "1_0_I :I_I_C",
      "1_4_N :S_N_S",
      "F_CD1:C B_CD1_CD2",
      "F _CE1:CD1_CE1_CE1",
      ":N _F",
      "1_4 _L:C_L_O",
      "1_1_O :P_O_C",
      "1_2 _N:O_N_N",
      "2_1_ L:N_L_F",
      "1_5 _L:C_L_O",
      "2_0 _N:O_N_N",
      "1_6_N :U_N_C",
      "_P:N _P_O",
      "2_1_L :O_L",
      "1_1_S :P_S_C",
      "2_6_B :O_B_O",
      "2_1_N:N_N _F",
      ":C _C_O",
      "1_4 _L:C_L_N",
      "1_1_O :V_O_C",
      "2_3 _N:N_N_O",
      "2_2 _C:B_C_C",
      "2_1_ P:C_P_C",
      "1_0 _F",
      "1_0 _C:O_C_N",
      "1_2_ S:S_S_C",
      "2_6_N :L_N_O",
      "1_2_O :F_O_N",
      "1_5_O :Y_O_C",
      "2_5_O :B_O_P",
      "2_3_O :F_O_C",
      "1_6_B :F",
      "1_6_F:P _F_C",
      "_CB :CG_CB_CA",
      "2_6 _P:O",
      "1_6 _S:O_S_S",
      "1_6 _E:O_E_C",
      "2_4 _N:S_N_C",
      "2_2 _O:P_O_P",
      "1_6_O :B_O_O",
      "1_1_ S:F_S_C",
      "2_5 _C:N_C_F",
      "_C:N_C _I",
      "1_2_ S:N_S",
      "1_2_ S:C_S_F",
      "1_6_F :S_F_F",
      "2_6_F :S_F_F",
      "2_6_P:C _P_S",
      "1_2_O :L_O_N",
      "1_2_O :O_O_B",
      ":F_N _S",
      "2_2_O :I_O_C",
      "1_1_L :B_L_C",
      "1_0_O :F_O_N",
      "2_6_L :O_L_O",
      "2_6_L :N_L_O",
      "2_6_B :F_B_C",
      "_C :H",
      ":O _W",
      "2_6 _U:N_U_C",
      "1_1_O :W_O_C",
      "1_2 _C:F_C_S",
      "2_2 _C:F_C_S",
      "1_6_O :S_O_P",
      "2_1_ S:F_S_C",
      "1_5 _C:L_C_O",
      "2_5 _C:P_C_C",
      ":P_O _N",
      "1_1_F :B_F_C",
      "2_1_C:S _C_B",
      "2_0 _N:O_N_S",
      "1_0 _C:O_C_O",
      "1_2_ E:C_E_C",
      "2_5_O :F_O_P",
      "_E:C _E_N",
      "2_6 _C:I_C_C",
      "1_4 _N:S_N_C",
      "1_4 _O:P_O_S",
      "1_3 _L:F_L_C",
      "2_2 _C:S_C_N",
      "2_1_F :F_F_S",
      "2_0 _C:C_C_I",
      "1_0 _O:C_O_P",
      "2_6_N :I_N_C",
      "2_2_F :B_F_C",
      "1_2_O :N_O_L",
      "_C:E _C_O",
      ":P_S _N",
      "_C:I _C_N",
      "2_0_N :S_N_O",
      "_U:N_U _N",
      "2_2_L:C_L _L",
      "_C:H _C_C",
      "1_6 _S:S_S_C",
      "1_4 _C:L_C_N",
      "1_1_O :C_O_E",
      "2_3 _L:C_L_N",
      "2_6_O :E_O_C",
      "2_1_N :P_N_O",
      "1_5 _S:N_S_C",
      "1_5 _N:S_N_C",
      "2_5 _C:F_C_N",
      "2_5 _O:S_O_B",
      "1_0 _C:C_C_I",
      "2_2_ S:C_S_F",
      "1_6_F :C_F_B",
      "2_4_N :L_N_C",
      "2_1_S :P_S_C",
      "2_5_F :S_F_C",
      "1_1_N:N_N _L",
      "_O _L",
      "2_6 _S:S_S_O",
      "2_6 _S:O_S_F",
      "1_6 _C:B_C_N",
      "1_6 _E:C_E_O",
      "1_6 _U:N_U_C",
      "1_4 _C:B_C_C",
      "2_4 _L:C_L_N",
      "2_4 _O:P_O_F",
      "2_3 _F:N_F_C",
      "1_1 _C:O_C_B",
      "2_1_N :F_N_F",
      "2_5 _O:S_O_L",
      "2_5 _O:P_O_S",
      "2_5 _L:F_L_C",
      ":L _F_N",
      ":B _F_F",
      "1_6_N :I_N_C",
      "2_2_O :N_O_B",
      "1_1_L :O_L",
      "2_5_O :B_O_S",
      ":U _N_N",
      "2_6_F:P _F_C",
      "2_6_F:P _F_P",
      "1_1_B :B_O_C",
      ":O _E_O",
      "1_6 _P:S",
      "1_4 _S:C_S_P",
      "2_1_O :I_O_N",
      "1_1_O :I_O_N",
      "2_1 _N:C_N_B",
      "1_2 _C:S_C_O",
      "2_1_ B:O_B_C",
      "2_1_F :C_F_L",
      "1_1_N:N _C_O",
      "2_0 _O:P_O_P",
      "2_2_ S:S_S_C",
      "2_6_F :F_F_S",
      "2_2_F :C_F_B",
      "1_6_N :L_N_O",
      "1_1_C:C _O_P",
      "1_2_O :N_O_B",
      "1_4_O :B_O_P",
      "1_5_O :B_O_P",
      "1_2_N :T_N_N",
      "2_2_N :O_N_O",
      ":F_L _O",
      "1_0_N :F_N_O",
      "2_1_N:N_N _B",
      "1_3_N :S_N_P",
      "1_6_F:P _F_P",
      "2_2_L:C_L _F",
      "1_2_I :N_I_C",
      "F _CD2:CD1_CD2_CB",
      "_CA _CA",
      "2_6 _C:B_C_N",
      "1_4 _C:F_C_O",
      "2_1_O :W_O_C",
      "2_4 _O:P_O_S",
      "1_3 _C:S_C_C",
      "1_3 _L:C_L_L",
      "2_3 _L:L_L_C",
      "_O:P_O _L",
      "2_0 _N:N_N_L",
      "2_2_ B",
      "1_6_F :L_F_F",
      "2_1_L :L",
      "2_2_O :L_O_N",
      "2_2_O :B_O_N",
      "1_5_O :I_O_C",
      "1_5_O :B_O_S",
      "2_4_O :B_O_P",
      "2_5_O :I_O_C",
      "2_5_O :Y_O_C",
      "_H :N_H_C",
      "2_2_N :S_N_O",
      "_O:C _CA_CA",
      "2_6_B :O_B_N",
      "1_0_N :O_N_O",
      "1_2_L:C_L _L",
      "2_2_S :L_S_C",
      "1_2_E :O_E_C",
      "1 _CE2_CD2",
      "W :O_W",
      ":O _I",
      "2_6 _C:B_C_O",
      "2_6 _C:F_C_P",
      "_CE2 :CE",
      "1_6 _C:F_C_P",
      "2_1_O :C_C_O",
      "2_3 _L:C_L_L",
      "1_1 _N:C_N_B",
      "1_6_O :E_O_C",
      "1_1_N :F_N_F",
      ":B _O_F",
      "2_6_N :B_N_S",
      "1_2_O :B_O_N",
      "1_2_O :B_O_P",
      "2_6_C:S _C_L",
      "1_6_L :N_L_O",
      "2_2_N :B_N_C",
      "2_6_L :F_L_C",
      "1_1_E :E_O_O",
      "2_1_I :C_I_N",
      "1_3_F :C_F_L",
      ":N_F _L",
      "_CE2:CE 1_CE2_CD2",
      "_C _I",
      "2_1_O :C_O_E",
      "2_4 _C:L_C_N",
      "1_1_O :O_O_E",
      "1_3 _C:F_C_N",
      "1_3 _O:S_O_L",
      "2_3 _F",
      "2_2 _C:S_C_O",
      "2_1_ E",
      "1_5 _L:C_L_N",
      "1_1_F :C_F_L",
      "_C:L _C_F",
      "1_6_N :B_N_S",
      "1_0_O :F_O_O",
      "2_3_O :F_O_S",
      "2_1_S :L_S_C",
      "1_6_B :O_B_O",
      "2_0_N :T_N_N",
      "2_0_F :N_F_O",
      "1_2_S:N_S _P",
      "D _CG:CB_CG_CD",
      "L _CB:N_CA_C",
      "Y _CE1:CD1_CE1_CE1",
      "2_6 _P:P_P_S",
      "1_6 _C:B_C_O",
      "1_6 _C:P_C_S",
      "1_6 _S:O_S_F",
      "1_6 _I:O_I_C",
      "_S :F_S_C",
      "2_1_O :C_O_I",
      "_P _L",
      "_P :L",
      "1_6_O :S_O_F",
      "1_5 _C:O_C_L",
      "1_5 _O:P_O_S",
      "2_5 _S:N_S_C",
      "2_5 _C:O_C_L",
      "2_5 _L:C_L_O",
      "1_1_F :F_F_S",
      "_C:F _C_B",
      "1_6_O:P_O _S",
      "2_1_S:N_S _F",
      "1_3_O :O_O_N",
      ":O_F _B",
      "2_6_P:S _P_C",
      "Y _CD2:N",
      "2_6 _I",
      "2_6 _U:N_U_N",
      "1_6 _P:O",
      "1_6 _P:P_P_S",
      "2_1_O :P_O_N",
      "2_4 _S:C_S_P",
      "2_4 _C:S_C_O",
      "1_3 _L:C_L_O",
      "1_3 _N:O_N_S",
      "2_3 _L:F_L_C",
      "N_OD1:CB_OD1 _CA",
      "2_1_ B:N_B_C",
      "2_1_N :T_N_C",
      "1_5 _L:S_L_C",
      "2_5 _L:C_L_N",
      "1_1_F :O_F_S",
      ":S _F_N",
      "2_0 _C:N_C_O",
      "2_0 _S:S_S_S",
      "2_0 _P:N_P_O",
      "1_2_ S:O_S_N",
      "1_2_ T:N_T_N",
      ":L _O_L",
      "2_2_ E",
      "2_6_F :L_F_F",
      "1_6_P:C _P_S",
      ":S_N _F",
      "_L:C_L _P",
      "2_2_O :N_O_L",
      "2_2_N :L_N_S",
      "_S:S _S_N",
      "2_6_S :F_S_F",
      "1_0_N :T_N_N",
      "2_4_F :L_F_C",
      "1_3_N :F_N_C",
      "2_1_I :C_I_O",
      "Y_CD2:N E2_CD2_CG",
      "L _CG:CD_CG_CB",
      "Y _CE2:CE1_CE2_CD2",
      ":C _E_N",
      "1_4 _S:N_S_C",
      "1_4 _O:S_O_B",
      "2_1_O :P_O_C",
      "1_3 _N:C_N_L",
      "1_3 _L:C_L_N",
      "2_3 _S:N_S_C",
      "_C:O _C_I",
      "2_1 _C:E_C_O",
      "1_6_O :I_O_O",
      "2_1_ L:N_L_L",
      "2_5 _C:B_C_C",
      "2_5 _S:O_S_P",
      ":S _F_O",
      "2_0 _C:C_C_B",
      "_C:P _C_F",
      "_C:N_C _U",
      "2_2_O :F_O_N",
      "2_0_O :F_O_O",
      "2_3_O :O_O_N",
      "1_6_B :N_B_N",
      "1_5_N :B_N_C",
      "1_1_I :I_O_C",
      "1_1_L:L _L_O",
      "2_6_P:O _P_F",
      "2_1_L:L _L_O",
      "_P:L _P_O",
      "S _O:C_CA_CA",
      ":C _W",
      "2_6 _S:P_S_O",
      "2_6 _E:O_E_C",
      "1_4 _O:P_O_F",
      "1_4 _O:C_O_I",
      "2_4 _O:S_O_B",
      "2_3 _O:S_O_L",
      "1_1 _C:F_C_S",
      "1_2 _O:C_O_E",
      "2_6_O :S_O_F",
      "2_2 _O:P_O_B",
      "1_1_ L:N_L_L",
      "1_5 _O:S_O_L",
      "1_1_N :T_N_C",
      "2_5 _N:C_N_B",
      "2_5 _O:C_O_I",
      ":L _O_F",
      "1_0_O :N_O_L",
      "1_4_O :I_O_C",
      "1_4_O :B_O_S",
      "1_5_O :N_O_F",
      "2_4_O :B_O_O",
      "1_6_C:S _C_L",
      "1_3_O :F_O_P",
      "2_3_O :F_O_P",
      "1_6_S :F_S_F",
      "2_6_S :L_S_C",
      "2_6_B :F",
      ":O_F _P",
      "2_1_L:O_L _L",
      "1_6_P:S _P_C",
      "R _CA:N_CA_C",
      ":N _B_F",
      ":O _B_P",
      "2_6 _C:P_C_S",
      "2_6 _N:C_N_I",
      "2_6 _I:O_I_C",
      "1_6 _S:P_S_O",
      "1_6 _C:H_C_C",
      "1_4 _C:L_C_O",
      "2_4 _O:C_O_I",
      "2_3 _C:S_C_C",
      "2_1 _C:C_C_I",
      "_P :F",
      "2_2 _O:C_O_E",
      "1_5 _C:C_C_B",
      "1_5 _N:C_N_B",
      "1_5 _C:O_C_F",
      "1_5 _C:S_C_N",
      "1_5 _O:C_O_I",
      "2_1_F :O_F_S",
      "2_1_F :L_F_N",
      "2_5 _S:C_S_O",
      "2_5 _C:S_C_O",
      "2_5 _O:P_O_F",
      "1_0 _S:S_S_S",
      "2_6_O:P_O _S",
      "1_6_F :F_F_S",
      "2_6_N :O_N_L",
      "1_4_O :O_O_B",
      "1_2_N :S_N_O",
      "S:F _S_O",
      "1_4_N :B_N_C",
      "2_6_B :N_B_N",
      "1_2_S :P_S_O",
      "1_3_N :L_N_C",
      "2_6_P:S _P_O",
      "2_0_F :O_F_N",
      "W:O_W _O",
      "S _CB:CG_CB_CA",
      "1_6 _I",
      "1_4 _C:O_C_L",
      "2_4 _C:B_C_C",
      "1_3 _C:O_C_S",
      "2_3 _C:L_C_C",
      "2_3 _C:F_C_N",
      "2_3 _L:S_L_C",
      ":C_O _H",
      "2_1_ B:C",
      "2_1_ I:O_I_C",
      "1_5 _S:N_S_N",
      "2_5 _C:L_C_O",
      "S:C_S _B",
      "2_0 _C:B_C_C",
      "2_0 _E:C_E_O",
      "1_0 _P:N_P_O",
      "1_2_ P:C_P_C",
      "_C:B _C_F",
      "1_6_P:C _P_F",
      "2_1_L :F_L_O",
      "1_4_O :B_O_O",
      "1_6_S :L_S_C",
      "2_0_N :O_N_O",
      "2_3_N :F_N_C",
      "2_2_I :C_I_N",
      "1_0_F :N_F_O",
      "H :N_H_C",
      "W :C_W",
      "_S :P_S_C",
      "1_4 _C:S_C_O",
      "1_1_O :C_O_I",
      "1_3 _N:C_N_B",
      "1_3 _O:S_O_S",
      "2_3 _L:C_L_O",
      "2_6_O :I_O_N",
      "1_1_ B:C",
      "1_5 _S:O_S_O",
      "1_5 _O:S_O_B",
      "1_5 _B:C_B_C",
      "2_5 _N:O_N_S",
      ":S _B_C",
      "1_0 _C:N_C_O",
      "1_0 _C:C_C_B",
      "1_0 _P:O_P_N",
      "1_0 _E:C_E_O",
      "2_2_ S:N_S",
      "2_2_ S:O_S_N",
      "1_6_F :B_F_F",
      "2_6_N :U_N_N",
      "1_6_N :U_N_N",
      "2_6_P:C _P_F",
      "1_5_O :F_O_N",
      "2_5_O :B_O_O",
      "2_5_O :O_O_B",
      "1_1_S:S _F_C",
      "2_0_P:C _P_N",
      "1_6_L :F_L_C",
      "2_5_N :B_N_C",
      "1_2_S :P_S_C",
      "1_1_I :C_I_N",
      "2_1_L:O_L _F",
      "1_6_B:F _B_O",
      "2_6_P:O _P_S",
      "1_1_L:O_L _L",
      "G _N",
      "G :N_",
      "U :C_U",
      "_ G",
      "_N _OG1",
      ":N _B_O",
      "2_6 _N:N_N_B",
[...]
