{"[UNK]": 0, "[SEP]": 1, "[PAD]": 2, "\u0007": 3, "\n": 4, " ": 5, "-": 6, "0": 7, "1": 8, "2": 9, "3": 10, "4": 11, "5": 12, "6": 13, "7": 14, "8": 15, "9": 16, ":": 17, "A": 18, "B": 19, "C": 20, "D": 21, "E": 22, "F": 23, "G": 24, "H": 25, "I": 26, "K": 27, "L": 28, "M": 29, "N": 30, "O": 31, "P": 32, "Q": 33, "R": 34, "S": 35, "T": 36, "U": 37, "V": 38, "W": 39, "Y": 40, "Z": 41, "_": 42, ":C": 43, "1_": 44, "2_": 45, ":C_": 46, "C-": 47, "_C-": 48, "_O": 49, "C_C-": 50, "CD": 51, "C:C_": 52, "C:C_C_C-": 53, "N_": 54, "_C:C_C_C-": 55, "CG": 56, "CA": 57, "_N": 58, "CE": 59, "_CD": 60, "4_C:C_C_C-": 61, "_CG": 62, "1_O": 63, "N_CA": 64, "1:C": 65, "_O:C_": 66, "_CE": 67, "CB": 68, ":O": 69, "2:C": 70, "_O:C_N_CA": 71, "2_6": 72, "_C": 73, "1_4_C:C_C_C-": 74, "D1_": 75, ":N_": 76, "N_C-": 77, "2_4_C:C_C_C-": 78, "_N:C_": 79, "1_6": 80, ":N": 81, "2_CB": 82, "_OD": 83, "CD2": 84, "_N:C_N_C-": 85, "_CB": 86, "L_CD": 87, "1_N": 88, "O_C-": 89, "1:CB": 90, "_C:N_": 91, "1_4": 92, "_S": 93, "2:O": 94, "E2_": 95, ":N_CA": 96, ":N_CA_C": 97, "_OE": 98, "_CA": 99, "CZ": 100, "_C:N_C_C-": 101, "1_CG": 102, ":O_O": 103, "_CD1_": 104, "2_6_C:C_C_C-": 105, "2_1_O": 106, "_CG2:C": 107, "2_4": 108, ":CE": 109, "D_OD": 110, "1_OD": 111, "_SD": 112, "_CZ": 113, "1:CG": 114, "1_CZ": 115, "_O:C_O_C-": 116, "_CE2": 117, ":CG": 118, "_NH": 119, "D1_CE": 120, "L_CD2:C": 121, "D1_CD": 122, "D1_CD2_CB": 123, "L_CD2:CD1_CD2_CB": 124, "_NE": 125, "1_1_O": 126, "_N-": 127, "_CG2:CG": 128, "ND": 129, "1_3": 130, "_CA:N_CA_C": 131, "G_CA:N_CA_C": 132, "A_CG": 133, "1:CA_CG": 134, "_O-": 135, "1:CB_CD1_": 136, "L_CD1:CB_CD1_": 137, "L_CD1:CB_CD1_CD2": 138, "2:CZ": 139, "1_6_C:C_C_C-": 140, "B_CG": 141, "A_CB": 142, "2_3": 143, "D1_OD": 144, "2:OD1_OD": 145, "D_OD2:OD1_OD": 146, "D_OD2:OD1_OD2_CB": 147, "2_1_": 148, "2_O": 149, ":N_O": 150, "C:C_C": 151, "_C_C-": 152, "E2": 153, "F_CE": 154, ":O_C_C-": 155, "_C:C_C": 156, "2_CA": 157, "1_CG2_CA": 158, "_CG2:CG1_CG2_CA": 159, "V_CG2:CG1_CG2_CA": 160, ":CD": 161, "E_OE": 162, "1:CD1_CE": 163, "1:CD1_CE1_CZ": 164, "R_NH": 165, "1_NH": 166, "2_1_O:O_O": 167, "2_CD2": 168, "_CE2_CD2": 169, "2:CZ_CE2_CD2": 170, "G_O:C_N_CA": 171, "_OG": 172, ":C_O_C-": 173, "_OH": 174, "Y_OH": 175, "Y_OH:CE": 176, "H_CE2": 177, "1_OH_CE2": 178, "Y_OH:CE1_OH_CE2": 179, "D1_ND": 180, "2_OG": 181, ":N_O_C-": 182, "Y_CE": 183, "1:N": 184, "2:N": 185, "_C:O_C_C-": 186, "2_CG": 187, "CD2_CG": 188, "E2_CD2_CG": 189, "2_N": 190, "1_4_N:C_N_C-": 191, "1_1_": 192, "V_CG": 193, "1:CG_OE": 194, "1_CG2": 195, "1:CA_CG1_CG2": 196, "V_CG1:CA_CG1_CG2": 197, "A_CB:N_CA_C": 198, "_CH": 199, "1_1_O:O_O": 200, "_CB_CA": 201, "F_CD": 202, "2_4_N:C_N_C-": 203, "CE1": 204, "1:CG_CD1_": 205, "1:CG_CD1_CE1": 206, ":N_N_C-": 207, ":CB_CG": 208, "_CG:CB_CG": 209, "1_NE2": 210, ":CG_CD": 211, "_CZ3": 212, "_CD:CG_CD": 213, "1_4_C:N_C_C-": 214, "1_CD": 215, "D_OD1:CB": 216, "_OD1_OD": 217, "_OD1_OD2": 218, "D_OD1:CB_OD1_OD2": 219, "2:CE2_CD2_CG": 220, "Y_CD": 221, "F_CZ": 222, "F_CZ:CE": 223, "1_CZ_CE2": 224, "F_CZ:CE1_CZ_CE2": 225, ":CG_SD": 226, "1:NE": 227, "T_OG": 228, "1:CA_CG2_OG": 229, "T_OG1:CA_CG2_OG": 230, "T_OG1:CA_CG2_OG1": 231, "E2_CG": 232, "2:OE": 233, "E_OE2:OE": 234, "1_OE2_CG": 235, "E_OE2:OE1_OE2_CG": 236, "N-": 237, "N_N-": 238, "2_6_N:C_N_C-": 239, "2_6_C:C_C": 240, "F_CE1:CD1_CE1_CZ": 241, "_F": 242, "R_NH2:N": 243, "2_NE": 244, "H1_NH": 245, "R_NH2:NH1_NH": 246, "R_NH2:NH1_NH2_NE": 247, "I_CG2:C": 248, "I_CG2:CB_CG": 249, "1_CD1": 250, "I_CG2:CB_CG1_CD1": 251, "F_CE2:CZ_CE2_CD2": 252, "2_4_C:N_C_C-": 253, "N_OD": 254, "N_OD1:CB": 255, "N_OD1:CB_O": 256, "D1_ND2": 257, "N_OD1:CB_OD1_ND2": 258, "2_6_O:C_O_C-": 259, "R_NH1:NE": 260, "R_NH1:NE_NH": 261, "1_NH2": 262, "R_NH1:NE_NH1_NH2": 263, "_NZ": 264, "2_1_O:C_O_C-": 265, "Y_CE2:CZ_CE2_CD2": 266, "2_CZ": 267, "2_1_O:O_O_O-": 268, "G_CB_CA": 269, "Y_CE1:CD1_CE1_CZ": 270, "N_ND": 271, "2:OD1_ND": 272, "N_ND2:OD1_ND": 273, "N_ND2:OD1_ND2_CB": 274, "_N:N_N_C-": 275, "1_OE2": 276, "1:CG_OE1_OE2": 277, "E_OE1:CG_OE1_OE2": 278, "2_1_C:C_C_C-": 279, "M_SD": 280, ":CG_SD_SD": 281, "M_SD:CG_SD_SD": 282, "H_NE": 283, "2:CE": 284, "1_NE2_": 285, "H_NE2:CE": 286, "1_NE2_CD2": 287, "H_NE2:CE1_NE2_CD2": 288, "3_CZ3": 289, ":CA_CB": 290, "_CB:CA_CB": 291, "_CB:CA_CB_CG": 292, "F_CD1:CG_CD1_CE1": 293, "_P": 294, "2_1_O:O_O_C-": 295, "2_CE": 296, "S_OG": 297, ":OG_CB_CA": 298, "S_OG:OG_CB_CA": 299, "1_6_N:C_N_C-": 300, "1_6_O:C_O_C-": 301, "_P-": 302, "2_1_O:N_O_C-": 303, "1_1_O:C_O_C-": 304, "K_CD:CG_CD": 305, "_CG:CB_CG_CD": 306, "K_CD:CG_CD_CE": 307, "S_O:C_N_CA": 308, "1_CA": 309, "_CG2:CG2_OG": 310, "_CG2:CG2_OG1_CA": 311, "T_CG2:CG2_OG1_CA": 312, "2_6_O": 313, ":C_N_C-": 314, "A_O:C_N_CA": 315, "_CE:CD": 316, "K_CE:CD": 317, "K_CE:CD_CE": 318, "_S-": 319, "K_CE:CD_CE_NZ": 320, "2_C:C_C_C-": 321, "2_1_N": 322, "C_N-": 323, "1_1_O:O_O_O-": 324, "1_6_C:C_C": 325, "H_CE": 326, "D1_CE1_NE2": 327, "1:ND1_CE1_NE2": 328, "H_CE1:ND1_CE1_NE2": 329, "Q_OE": 330, "_C:N_C_N-": 331, "Q_OE1:CG_OE": 332, "Q_OE1:CG_OE1_NE2": 333, "F_CD2:CE2_CD2_CG": 334, "Y_CD1:CG_CD1_CE1": 335, "L_O:C_N_CA": 336, "1_3_C:N_C_C-": 337, "1_1_C:C_C_C-": 338, "D_O:C_N_CA": 339, "Y_CD2:CE2_CD2_CG": 340, "1_3_C:C_C_C-": 341, "1_1_O:O_O_C-": 342, "1_4_C:C_C_C-L_CD1:CB_CD1_CD2": 343, "_CG_CB": 344, "_CG:CD": 345, "_CG:CD_CG_CB": 346, "P_CG:CD_CG_CB": 347, "1_6_O": 348, "M_CG:CB_CG": 349, "M_CG:CB_CG_SD": 350, "R_CD:CG_CD": 351, "R_CD:CG_CD_NE": 352, "2_N:C_N_C-": 353, "_N:C_N_N-": 354, "E_O:C_N_CA": 355, "I_O:C_N_CA": 356, "1_4_C:C_C_C-L_CD2:CD1_CD2_CB": 357, "2_6_C:C_C_N-": 358, "2_3_C:N_C_C-": 359, ":N_N_N-": 360, "1_1_O:N_O_C-": 361, ":N_C_C-": 362, "P_CB": 363, ":CG_CB_CA": 364, "P_CB:CG_CB_CA": 365, "2_1_C": 366, "1_1_N": 367, "W_CH": 368, "3_CH": 369, "2:CZ3_CH": 370, "2_CZ2": 371, "W_CH2:CZ3_CH": 372, "W_CH2:CZ3_CH2_CZ2": 373, "1_4_O:C_O_C-": 374, ":F": 375, ":C_F": 376, "1_3_C:O_C_C-": 377, "1_5": 378, "T_O:C_N_CA": 379, ":C_F_C-": 380, "L_C-": 381, "2_3_C:C_C_C-": 382, "W_CZ3": 383, ":CE3_CZ3": 384, "_CH2": 385, "W_CZ3:CE3_CZ3": 386, "W_CZ3:CE3_CZ3_CH2": 387, "H_CD": 388, "H_CD2:N": 389, "H_CD2:NE2_CD2_CG": 390, "R_NE": 391, ":CD_NE": 392, "R_NE:CD_NE": 393, "R_NE:CD_NE_CZ": 394, ":F_F": 395, "L:C_": 396, "2_1_F": 397, "2_4_O:C_O_C-": 398, "W_CZ": 399, "2_4_C:C_C_C-G_CA:N_CA_C": 400, "H2_CZ": 401, "2:CH2_CZ": 402, "2_CE2": 403, "W_CZ2:CH2_CZ": 404, "W_CZ2:CH2_CZ2_CE2": 405, "L:C_L_C-": 406, "_O:C_O": 407, "M_CB:CA_CB_CG": 408, "_F-": 409, "P_CD": 410, ":N_CD": 411, ":N_CD_CG": 412, "P_CD:N_CD_CG": 413, "V_O:C_N_CA": 414, "1_4_C:O_C_C-": 415, "2_5": 416, "R_CG:CB_CG_CD": 417, "F_O:C_N_CA": 418, ":F_F_F-": 419, "M_CE": 420, ":CG_SD_CG": 421, "M_CE:CG_SD_CG": 422, "K_CB:CA_CB_CG": 423, "1_2_C:C_C_C-": 424, "2_3_C:O_C_C-": 425, ":P": 426, "2_6_C:N_C_C-": 427, ":C_S": 428, "L-": 429, "1_1_C": 430, "W_CE": 431, "W_CE3": 432, ":CD2_CE": 433, "W_CE3:CD2_CE": 434, "W_CE3:CD2_CE3_CZ3": 435, "2_4_C:C_C_C-L_CD2:CD1_CD2_CB": 436, "_L-": 437, ":O_O_O-": 438, "1_4_C:C_C_C-V_CG1:CA_CG1_CG2": 439, "M_O:C_N_CA": 440, "_O:C_O_P-": 441, "K_O:C_N_CA": 442, "1_4_C:C_C_C-Y_OH:CE1_OH_CE2": 443, "K_CG:CB_CG_CD": 444, "1_1_F": 445, "1_4_C:C_C_C-A_CB:N_CA_C": 446, "I_CD": 447, "S:C_S": 448, "1_CB": 449, "CG1_CB": 450, "1:CD1_": 451, "1:CD1_CG1_CB": 452, "I_CD1:CD1_CG1_CB": 453, "N_O:C_N_CA": 454, ":N_O_N-": 455, "1_4_C:C_C_C-V_CG2:CG1_CG2_CA": 456, "2_2_C:C_C_C-": 457, "2_6_O:N_O_C-": 458, "Y_O:C_N_CA": 459, "1_6_C:C_C_N-": 460, "_ND": 461, "W_NE": 462, "H_ND": 463, "1_4_C:C_C_C-G_O:C_N_CA": 464, "E1_": 465, "NE1_": 466, "1:CE2_": 467, "W_NE1:CE2_": 468, "NE1_CD2": 469, "W_NE1:CE2_NE1_CD2": 470, ":P_O": 471, "1:CG_N": 472, "H_ND1:CG_N": 473, "D1_CE1": 474, "H_ND1:CG_ND1_CE1": 475, ":O_N": 476, "_N:N_N_N-": 477, "P_O:C_N_CA": 478, "S:C_S_C-": 479, "2_4_C:O_C_C-": 480, "2_1_N:N_N_C-": 481, "Q_NE": 482, "OE": 483, "E2_OE": 484, "2:NE2_OE": 485, "Q_NE2:NE2_OE": 486, "Q_NE2:NE2_OE1_CG": 487, "R_O:C_N_CA": 488, "_O:P_O": 489, "1_2_N:C_N_C-": 490, "_O:P_O_P-": 491, "1_4_C:N_C_N-": 492, "2_6_C:C_C_C-L_CD2:CD1_CD2_CB": 493, "1_4_C:C_C_C-D_OD2:OD1_OD2_CB": 494, ":S": 495, "2_1_L:C_L_C-": 496, "2_6_N:C_N_N-": 497, "2_6_N:N_N_C-": 498, "S-": 499, "N_S-": 500, ":C_O": 501, "K_NZ": 502, "Z_CE": 503, ":NZ_CE": 504, "K_NZ:NZ_CE": 505, "K_NZ:NZ_CE_CD": 506, "2_2_N:C_N_C-": 507, "1_4_C:C_C_C-I_CG2:CB_CG1_CD1": 508, "2_6_C:C_C_S-": 509, "2_S:C_S_C-": 510, "2_1_O:O_O_N-": 511, ":O_N_C-": 512, "2_4_C:N_C_N-": 513, "1_3_O:C_O_C-": 514, "2_4_C:C_C_C-V_CG2:CG1_CG2_CA": 515, "1_6_O:N_O_C-": 516, "C_O:C_N_CA": 517, "2_4_C:C_C_C-F_CZ:CE1_CZ_CE2": 518, "1_5_N:C_N_C-": 519, "2_6_C:C_C_C-G_CA:N_CA_C": 520, "2_3_O:C_O_C-": 521, "2_O:C_O_C-": 522, "Q_O:C_N_CA": 523, "2_4_C:C_C_C-L_CD1:CB_CD1_CD2": 524, "1_4_C:C_C_C-T_OG1:CA_CG2_OG1": 525, "2_1_F:C_F_C-": 526, "1_6_C:N_C_C-": 527, "2_6_C:C_C_L-": 528, ":O_O_C-": 529, "W_CD": 530, "1_CD1_CG": 531, "1:NE1_CD1_CG": 532, "W_CD1:NE1_CD1_CG": 533, "1_4_C:C_C_C-G_CA:N_CA_C": 534, "2_6_C:C_C_C-V_CG2:CG1_CG2_CA": 535, "H_O:C_N_CA": 536, "2_4_C:C_C_C-D_OD2:OD1_OD2_CB": 537, "2_4_C:C_C_C-S_OG:OG_CB_CA": 538, "2_1_C:N_C_C-": 539, "1_1_O:O_O_N-": 540, "1_3_N:C_N_C-": 541, "1_6_N:N_N_C-": 542, "2_4_C:C_C_C-F_CE1:CD1_CE1_CZ": 543, "1_4_C:C_C_C-D_OD1:CB_OD1_OD2": 544, "1_4_C:C_C_C-M_SD:CG_SD_SD": 545, "2_4_C:C_C_C-G_O:C_N_CA": 546, "2_5_N:C_N_C-": 547, "2_6_O:O_O_O-": 548, ":O_C": 549, "2_1_F:F_F_F-": 550, "2_6_C:C_C_C-L_CD1:CB_CD1_CD2": 551, "2_4_C:C_C_C-F_CE2:CZ_CE2_CD2": 552, "2_C": 553, "_N:C_N_S-": 554, "1_3_N:N_N_C-": 555, "2_4_C:C_C_C-Y_OH:CE1_OH_CE2": 556, "1_1_N:N_N_C-": 557, "1_6_N:C_N_N-": 558, "1_4_C:C_C_C-E_OE2:OE1_OE2_CG": 559, "1_6_C:C_C_C-L_CD1:CB_CD1_CD2": 560, "2_1_C:O_C_C-": 561, "W_O:C_N_CA": 562, "2_3_N:C_N_C-": 563, "2_6_N:N_N_N-": 564, "1_1_L:C_L_C-": 565, "C_S": 566, "C_SG": 567, ":SG_CB_CA": 568, "C_SG:SG_CB_CA": 569, "1_4_C:C_C_C-E_OE1:CG_OE1_OE2": 570, "1_6_O:O_O_O-": 571, "1_6_C:C_C_S-": 572, "1_4_C:C_C_C-N_OD1:CB_OD1_ND2": 573, "_C:C_C_S-": 574, "1_6_C:C_C_C-L_CD2:CD1_CD2_CB": 575, "1_1_F:F_F_F-": 576, "2_4_C:C_C_C-T_CG2:CG2_OG1_CA": 577, "1_1_F:C_F_C-": 578, "1_4_C:C_C_C-R_NH1:NE_NH1_NH2": 579, "2_6_C:O_C_C-": 580, "2_1_N:N_N_N-": 581, "2_1_O:N_O_N-": 582, "1_4_C:C_C_C-N_ND2:OD1_ND2_CB": 583, "0_C:C_C_C-": 584, "2_2_S:C_S_C-": 585, "_C:C_C_N-": 586, "1_4_C:C_C_C-Q_OE1:CG_OE1_NE2": 587, "1_4_C:C_C_C-F_CZ:CE1_CZ_CE2": 588, "2_4_C:C_C_C-H_NE2:CE1_NE2_CD2": 589, "2_3_N:N_N_C-": 590, "1_1_C:N_C_C-": 591, "1_4_C:C_C_C-F_CE1:CD1_CE1_CZ": 592, "1_4_C:C_C_C-R_NH2:NH1_NH2_NE": 593, "1_4_C:C_C_C-L_O:C_N_CA": 594, "2_4_C:C_C_C-Y_CE1:CD1_CE1_CZ": 595, "2_6_C:C_C_C-F_CZ:CE1_CZ_CE2": 596, "1_2_S:C_S_C-": 597, "1_2_O:C_O_C-": 598, "1_4_C:C_C_C-K_CE:CD_CE_NZ": 599, "2_4_C:C_C_C-Y_CE2:CZ_CE2_CD2": 600, "2_6_C:C_C_C-D_OD2:OD1_OD2_CB": 601, "2_4_C:C_C_C-A_CB:N_CA_C": 602, "1_1_C:O_C_C-": 603, "2_4_C:C_C_C-T_OG1:CA_CG2_OG1": 604, "1_3_O:C_O_P-": 605, "1_6_C:C_C_L-": 606, "1_4_C:C_C_C-Y_CE1:CD1_CE1_CZ": 607, "2_4_C:C_C_C-F_CD1:CG_CD1_CE1": 608, "2_6_C:C_C_C-F_CE2:CZ_CE2_CD2": 609, "2_6_C:C_C_O-": 610, "2_C:N_C_C-": 611, "_F:C_F_C-": 612, "1_4_C:C_C_C-Y_CE2:CZ_CE2_CD2": 613, "1_4_C:C_C_C-A_O:C_N_CA": 614, "2_6_O:O_O_C-": 615, "_N:O_N_C-": 616, "2_4_C:C_C_C-E_OE2:OE1_OE2_CG": 617, "1_4_C:C_C_C-F_CD1:CG_CD1_CE1": 618, "2_6_C:C_C_C-F_CE1:CD1_CE1_CZ": 619, "2_3_O:C_O_P-": 620, "2_3_O:P_O_P-": 621, "2_4_C:C_C_C-V_CG1:CA_CG1_CG2": 622, "1_4_C:C_C_C-F_CE2:CZ_CE2_CD2": 623, "2_4_C:C_C_C-N_OD1:CB_OD1_ND2": 624, "2_2_O:C_O_C-": 625, "2_O:C_O": 626, "2_4_N:C_N_C-G_CA:N_CA_C": 627, "1_3_O:P_O_P-": 628, "1_4_C:C_C_C-Y_CD1:CG_CD1_CE1": 629, "1_6_C:C_C_C-Y_OH:CE1_OH_CE2": 630, "2_6_C:C_C_C-Y_OH:CE1_OH_CE2": 631, "2_4_C:C_C_C-P_CG:CD_CG_CB": 632, "2_6_C:C_C_C-T_CG2:CG2_OG1_CA": 633, "1_4_C:C_C_C-E_O:C_N_CA": 634, "2_1_N:C_N_C-": 635, "1_1_O:N_O_N-": 636, ":O_C_N-": 637, "2_4_C:C_C_C-M_CE:CG_SD_CG": 638, "1A": 639, "2_1_O:C_O": 640, "1_6_C:C_C_C-G_O:C_N_CA": 641, "1_6_C:C_C_C-V_CG2:CG1_CG2_CA": 642, "2_4_C:C_C_C-K_CD:CG_CD_CE": 643, "1_6_C:O_C_C-": 644, "1_6_O:O_O_C-": 645, "1_6_N:N_N_N-": 646, "1_4_C:C_C_C-Y_CD2:CE2_CD2_CG": 647, "1_6_C:C_C_C-V_CG1:CA_CG1_CG2": 648, "2_4_C:C_C_C-H_CE1:ND1_CE1_NE2": 649, "2_4_C:C_C_C-D_O:C_N_CA": 650, "1_1_N:N_C_C-": 651, "2_4_C:C_C_C-P_CB:CG_CB_CA": 652, "2_4_C:C_C_C-I_CD1:CD1_CG1_CB": 653, "1_4_C:C_C_C-F_CD2:CE2_CD2_CG": 654, "2_O:C_O_P-": 655, "1_4_C:C_C_C-S_O:C_N_CA": 656, "2_4_C:C_C_C-M_CG:CB_CG_SD": 657, "2_6_C:C_C_C-V_CG1:CA_CG1_CG2": 658, "2_6_C:C_C_C-S_OG:OG_CB_CA": 659, "2_6_C:C_C_C-G_O:C_N_CA": 660, "1_1_N:N_N_N-": 661, "1_4_C:C_C_C-K_CD:CG_CD_CE": 662, "2_4_C:C_C_C-R_NH2:NH1_NH2_NE": 663, ":O_C_O-": 664, "1_6_C:C_C_C-I_CG2:CB_CG1_CD1": 665, "1_6_C:C_C_C-D_OD2:OD1_OD2_CB": 666, "2_4_C:C_C_C-S_O:C_N_CA": 667, "1_6_C:C_C_C-A_CB:N_CA_C": 668, "2_0_C:C_C_C-": 669, "2_4_C:C_C_C-M_SD:CG_SD_SD": 670, "1_4_C:C_C_C-F_O:C_N_CA": 671, "2_4_C:C_C_C-W_CH2:CZ3_CH2_CZ2": 672, "1_4_C:C_C_C-P_O:C_N_CA": 673, "1_5_C:C_C_C-": 674, "2_4_C:C_C_C-N_ND2:OD1_ND2_CB": 675, ":N_N_S-": 676, "2_4_C:C_C_C-F_CD2:CE2_CD2_CG": 677, "2_6_C:C_C_C-Y_CE2:CZ_CE2_CD2": 678, "1_4_N:C_N_C-L_CD1:CB_CD1_CD2": 679, "2_1_N:O_N_C-": 680, "2_1_O:O_O_O-D_OD2:OD1_OD2_CB": 681, "1_4_N:N_N_C-": 682, "1_4_C:C_C_C-M_CG:CB_CG_SD": 683, ":O_O_N-": 684, "1_4_C:C_C_C-H_NE2:CE1_NE2_CD2": 685, "N_O-": 686, "1_5_C:N_C_C-": 687, "2_6_C:C_C_C-A_CB:N_CA_C": 688, "2_4_C:C_C_C-E_OE1:CG_OE1_OE2": 689, "2_4_C:C_C_C-R_CD:CG_CD_NE": 690, "2_6_C:C_C_C-Y_CE1:CD1_CE1_CZ": 691, "2_4_C:C_C_C-Y_CD1:CG_CD1_CE1": 692, "2_4_C:C_C_C-W_CZ3:CE3_CZ3_CH2": 693, "1_4_C:C_C_C-T_O:C_N_CA": 694, "2_4_C:C_C_C-Y_CD2:CE2_CD2_CG": 695, "2_4_C:N_C_C-G_CA:N_CA_C": 696, "2_6_N:C_N_C-G_CA:N_CA_C": 697, "2_5_C:C_C_C-": 698, "2_4_C:C_C_C-I_CG2:CB_CG1_CD1": 699, "2_4_C:C_C_C-R_NH1:NE_NH1_NH2": 700, "2_4_N:C_N_C-L_CD2:CD1_CD2_CB": 701, "1_6_C:C_C_O-": 702, "1_4_C:C_C_C-P_CG:CD_CG_CB": 703, "1_4_C:C_C_C-H_CE1:ND1_CE1_NE2": 704, "1_4_N:C_N_C-L_CD2:CD1_CD2_CB": 705, "2_4_C:C_C_C-H_CD2:NE2_CD2_CG": 706, "2_4_C:C_C_C-Q_NE2:NE2_OE1_CG": 707, "2_4_C:C_C_C-K_CB:CA_CB_CG": 708, "2_4_C:C_C_C-P_CD:N_CD_CG": 709, "2_6_F:C_F_C-": 710, "2_6_C:C_C_C-F_CD1:CG_CD1_CE1": 711, "1_4_C:N_C_C-L_CD1:CB_CD1_CD2": 712, "1_1_O:C_O": 713, "2_6_C:C_C_C-M_CE:CG_SD_CG": 714, "1_4_C:C_C_C-I_O:C_N_CA": 715, "2_4_C:C_C_C-D_OD1:CB_OD1_OD2": 716, "1_6_C:C_C_C-T_OG1:CA_CG2_OG1": 717, "2_6_O:C_O_C-G_CA:N_CA_C": 718, "2_4_N:C_N_C-D_OD2:OD1_OD2_CB": 719, "_N:N_N_S-": 720, "2_4_C:C_C_C-M_CB:CA_CB_CG": 721, ":F_F_C-": 722, "1_1_N:C_N_C-": 723, "1_4_C:C_C_C-V_O:C_N_CA": 724, "2_4_N:N_N_C-": 725, "2_1_O:O_O_O-G_CA:N_CA_C": 726, ":S_C": 727, "2_6_N:C_N_C-L_CD2:CD1_CD2_CB": 728, "1_4_N:C_N_C-G_CA:N_CA_C": 729, "1_4_C:C_C_C-K_O:C_N_CA": 730, "1_6_C:C_C_C-G_CA:N_CA_C": 731, "2_4_C:C_C_C-I_O:C_N_CA": 732, "1_4_C:C_C_C-W_CZ3:CE3_CZ3_CH2": 733, "2_6_C:C_C_C-H_NE2:CE1_NE2_CD2": 734, "1_4_N:C_N_C-D_OD1:CB_OD1_OD2": 735, "1_4_C:C_C_C-N_O:C_N_CA": 736, "1_4_C:C_C_C-W_CH2:CZ3_CH2_CZ2": 737, "1_4_C:C_C_C-D_O:C_N_CA": 738, "1_6_C:C_C_C-D_OD1:CB_OD1_OD2": 739, "2_4_C:C_C_C-W_CZ2:CH2_CZ2_CE2": 740, "2_6_C:C_C_C-T_OG1:CA_CG2_OG1": 741, "1_4_N:C_N_C-D_OD2:OD1_OD2_CB": 742, "1_4_C:N_C_C-D_OD2:OD1_OD2_CB": 743, "2_6_C:C_C_C-E_OE2:OE1_OE2_CG": 744, "1_2_C:N_C_C-": 745, "1_4_C:C_C_C-W_CZ2:CH2_CZ2_CE2": 746, "1_4_C:N_C_C-L_CD2:CD1_CD2_CB": 747, "2_4_C:C_C_C-A_O:C_N_CA": 748, "2_4_C:C_C_C-R_CG:CB_CG_CD": 749, "2_5_C:N_C_C-": 750, "2_6_C:C_C_C-F_CD2:CE2_CD2_CG": 751, "2_2_C:N_C_C-": 752, "_F:F_F_F-": 753, "1_1_N:O_N_C-": 754, "1_0_C:C_C_C-": 755, "1_4_C:C_C_C-H_CD2:NE2_CD2_CG": 756, "2_1_O:O_O_O-R_NH2:NH1_NH2_NE": 757, "2_4_C:C_C_C-L_O:C_N_CA": 758, "1_4_C:N_C_C-Y_OH:CE1_OH_CE2": 759, "2_6_C:C_C_C-N_OD1:CB_OD1_ND2": 760, "2_6_C:C_C_C-M_SD:CG_SD_SD": 761, "1_4_C:C_C_C-P_CB:CG_CB_CA": 762, "_N:C_N_O-": 763, "2_1_O:C_O_C-G_CA:N_CA_C": 764, "2_4_C:C_C_C-R_NE:CD_NE_CZ": 765, "1_4_C:C_C_C-M_O:C_N_CA": 766, "2_4_C:C_C_C-K_NZ:NZ_CE_CD": 767, "C:C_C_N-": 768, "1_3_C:C_C_S-": 769, "2_6_C:C_C_C-M_CG:CB_CG_SD": 770, "1_4_N:C_N_C-V_CG1:CA_CG1_CG2": 771, "1_4_N:C_N_C-A_CB:N_CA_C": 772, "1_4_C:C_C_C-R_CD:CG_CD_NE": 773, "2_1_O:O_O_O-G_O:C_N_CA": 774, "1_4_C:C_C_C-M_CB:CA_CB_CG": 775, ":O_N_O-": 776, "2_6_C:C_C_C-P_CG:CD_CG_CB": 777, "1_4_O:C_O_P-": 778, "2_4_N:C_N_C-V_CG2:CG1_CG2_CA": 779, "1_4_N:C_N_C-G_O:C_N_CA": 780, "1_4_C:C_C_C-W_CE3:CD2_CE3_CZ3": 781, "2_1_O:C_O_O-": 782, "1_4_C:C_C_N-": 783, "1_4_N:C_N_C-Y_OH:CE1_OH_CE2": 784, "1_4_C:C_C_C-P_CD:N_CD_CG": 785, "1_4_N:C_N_C-V_CG2:CG1_CG2_CA": 786, "1_4_C:C_C_C-C_O:C_N_CA": 787, "_O:N_O_C-": 788, "1_4_C:C_C_C-R_CG:CB_CG_CD": 789, "2_4_C:N_C_C-D_OD2:OD1_OD2_CB": 790, ":C_N_N-": 791, "2_6_N:C_N_C-V_CG2:CG1_CG2_CA": 792, "2_4_C:C_C_C-Q_OE1:CG_OE1_NE2": 793, "2_6_C:C_C_C-Y_CD2:CE2_CD2_CG": 794, "2_4_O:C_O_P-": 795, "2_6_O:N_O_N-": 796, "1_1_O:O_O_O-D_OD2:OD1_OD2_CB": 797, "2_6_N:C_N_C-D_OD2:OD1_OD2_CB": 798, "2_6_C:C_C_C-K_CD:CG_CD_CE": 799, "1_4_C:C_C_C-H_O:C_N_CA": 800, "2_6_C:C_C_C-W_CH2:CZ3_CH2_CZ2": 801, "1_1_C:C_C_C-L_CD2:CD1_CD2_CB": 802, "2_6_C:C_C_C-P_CB:CG_CB_CA": 803, "2_4_C:C_C_C-K_CG:CB_CG_CD": 804, "2_4_C:C_C_N-": 805, "1_6_C:C_C_C-E_OE2:OE1_OE2_CG": 806, "2_4_N:C_N_C-G_O:C_N_CA": 807, "2_6_C:C_C_C-N_ND2:OD1_ND2_CB": 808, "1_6_C:C_C_C-N_OD1:CB_OD1_ND2": 809, "1_4_C:C_C_C-W_CD1:NE1_CD1_CG": 810, "2_0": 811, "1_6_C:C_C_C-E_OE1:CG_OE1_OE2": 812, "1_1_O:O_O_O-D_OD1:CB_OD1_OD2": 813, "2_6_N:C_N_C-L_CD1:CB_CD1_CD2": 814, "1_2_O:C_O_P-": 815, "2_6_C:C_C_C-I_CD1:CD1_CG1_CB": 816, "2_6_C:C_C_C-H_CE1:ND1_CE1_NE2": 817, "1_6_F:C_F_C-": 818, "1_6_C:C_C_C-M_SD:CG_SD_SD": 819, "2A": 820, "1_2_N": 821, "2_1_C:C_C_C-L_CD2:CD1_CD2_CB": 822, "2_4_C:C_C_C-W_CE3:CD2_CE3_CZ3": 823, "1_4_C:N_C_C-G_O:C_N_CA": 824, "2_6_C:C_C_C-Y_CD1:CG_CD1_CE1": 825, "2_3_C:C_C_S-": 826, "1_4_C:N_C_C-V_CG1:CA_CG1_CG2": 827, "1_3_C:C_C_C-L_CD1:CB_CD1_CD2": 828, "1_4_C:C_C_C-H_ND1:CG_ND1_CE1": 829, "1_4_C:N_C_C-V_CG2:CG1_CG2_CA": 830, "1_4_C:C_C_C-K_CG:CB_CG_CD": 831, "1_4_C:C_C_C-K_CB:CA_CB_CG": 832, "1_5_O:C_O_C-": 833, "2_4_C:N_C_C-L_CD2:CD1_CD2_CB": 834, "2_1_C:C_C_C-G_CA:N_CA_C": 835, "2_6_O:C_O_C-D_OD2:OD1_OD2_CB": 836, "2_6_C:C_C_C-R_NH2:NH1_NH2_NE": 837, "2_1_C:O_C_N-": 838, "1_4_C:C_C_C-Y_O:C_N_CA": 839, "1_4_C:C_C_C-R_O:C_N_CA": 840, "2_4_C:C_C_C-C_SG:SG_CB_CA": 841, "2_4_C:C_C_C-E_O:C_N_CA": 842, "1_4_C:N_C_C-A_CB:N_CA_C": 843, "2_2_O:C_O_P-": 844, "1_6_N:C_N_C-L_CD1:CB_CD1_CD2": 845, "2_6_C:C_C_C-S_O:C_N_CA": 846, "2_4_C:C_C_C-K_CE:CD_CE_NZ": 847, "2_6_C:C_C_C-W_CZ3:CE3_CZ3_CH2": 848, ":S_C_O-": 849, "2_1_O:C_O_N-": 850, "2_6_C:C_C_C-D_O:C_N_CA": 851, "2_3_C:N_C_C-G_CA:N_CA_C": 852, "1_4_C:N_C_C-G_CA:N_CA_C": 853, "2_1_O:N_O_C-G_CA:N_CA_C": 854, "1_6_C:C_C_C-N_ND2:OD1_ND2_CB": 855, "2_6_C:C_C_C-R_CD:CG_CD_NE": 856, "2_4_C:C_C_C-T_O:C_N_CA": 857, "1_4_C:N_C_C-D_OD1:CB_OD1_OD2": 858, "1_6_C:C_C_C-R_NH1:NE_NH1_NH2": 859, "2_6_O:O_O_N-": 860, "2_4_C:C_C_C-H_ND1:CG_ND1_CE1": 861, "1_3_C:C_C_C-L_CD2:CD1_CD2_CB": 862, "2_1_O:C_O_C-D_OD2:OD1_OD2_CB": 863, "2_4_C:C_C_C-W_NE1:CE2_NE1_CD2": 864, "1_4_C:C_C_C-W_NE1:CE2_NE1_CD2": 865, "2_6_C:C_C_C-E_OE1:CG_OE1_OE2": 866, "2_C:O_C_C-": 867, "1_1_C:C_C_C-L_CD1:CB_CD1_CD2": 868, "1_6_O:O_O_N-": 869, ":S_C_C-": 870, "1_4_N:C_N_C-K_CE:CD_CE_NZ": 871, "2_6_C:C_C_C-M_CB:CA_CB_CG": 872, "1_6_C:C_C_C-Q_OE1:CG_OE1_NE2": 873, "1_1_O:O_O_O-R_NH2:NH1_NH2_NE": 874, "1_6_C:C_C_C-R_NH2:NH1_NH2_NE": 875, "2_6_N:N_N_S-": 876, "1_4_N:C_N_C-T_OG1:CA_CG2_OG1": 877, "1_4_N:C_N_C-I_CG2:CB_CG1_CD1": 878, "2_6_C:C_C_C-R_NH1:NE_NH1_NH2": 879, "2_6_C:C_C_C-H_CD2:NE2_CD2_CG": 880, "1_6_C:C_C_C-L_O:C_N_CA": 881, "2_4_N:C_N_C-Y_OH:CE1_OH_CE2": 882, "2_4_N:C_N_C-L_CD1:CB_CD1_CD2": 883, "2_6_C:C_C_C-D_OD1:CB_OD1_OD2": 884, "2_6_O:C_O_C-L_CD2:CD1_CD2_CB": 885, "2_2_N": 886, "1_1_O:O_O_O-R_NH1:NE_NH1_NH2": 887, "1_6_N:C_N_C-G_O:C_N_CA": 888, "2_1_C:C_C_C-V_CG2:CG1_CG2_CA": 889, "2_6_C:C_C_N-L_CD2:CD1_CD2_CB": 890, "2_6_C:C_C_C-Q_NE2:NE2_OE1_CG": 891, "2_4_N:C_N_C-F_CZ:CE1_CZ_CE2": 892, "2_6_N:C_N_S-": 893, "1_6_C:C_C_C-F_CZ:CE1_CZ_CE2": 894, "_S:C_S": 895, "1_6_O:C_O_C-L_CD1:CB_CD1_CD2": 896, "1_1_O:C_O_O-": 897, "2_5_O:C_O_C-": 898, "1_4_N:C_N_C-R_NH1:NE_NH1_NH2": 899, "1_6_C:C_C_C-F_CE1:CD1_CE1_CZ": 900, "1_4_C:C_C_C-R_NE:CD_NE_CZ": 901, "1_4_N:C_N_C-E_OE1:CG_OE1_OE2": 902, "2_6_C:C_C_N-G_CA:N_CA_C": 903, "2_4_C:N_C_C-V_CG2:CG1_CG2_CA": 904, "2_1_O:O_O_C-G_CA:N_CA_C": 905, "C:C_C_S-": 906, "1_4_N:C_N_S-": 907, "1_6_O:N_O_N-": 908, "1_3_C:N_C_C-L_CD1:CB_CD1_CD2": 909, "_O:C_O_N-": 910, "1_1_C:C_C_C-V_CG2:CG1_CG2_CA": 911, "1_6_C:C_C_C-Y_CE2:CZ_CE2_CD2": 912, "2_4_N:C_N_C-S_OG:OG_CB_CA": 913, "2_6_C:C_C_C-I_CG2:CB_CG1_CD1": 914, "2_6_C:C_C_C-K_NZ:NZ_CE_CD": 915, "1_6_C:C_C_C-K_CE:CD_CE_NZ": 916, "1_4_N:C_N_C-E_OE2:OE1_OE2_CG": 917, "2_6_C:C_C_C-P_CD:N_CD_CG": 918, "2_1_N:O_N_O-": 919, "2_6_C:C_C_C-W_CZ2:CH2_CZ2_CE2": 920, "1_6_N:C_N_C-Y_OH:CE1_OH_CE2": 921, "1_1_O:O_O_O-G_O:C_N_CA": 922, "2_1_C:C_C_C-L_CD1:CB_CD1_CD2": 923, "1_4_C:C_C_C-Q_O:C_N_CA": 924, "1_6_N:C_N_C-L_CD2:CD1_CD2_CB": 925, "1_3_C:N_C_C-L_CD2:CD1_CD2_CB": 926, "2_6_N:C_N_C-Y_OH:CE1_OH_CE2": 927, "1_1_O:C_O_C-D_OD1:CB_OD1_OD2": 928, "2_4_N:C_N_C-T_CG2:CG2_OG1_CA": 929, "2_6_N:C_N_C-G_O:C_N_CA": 930, "2_1_C:O_C_O-": 931, "2_6_O:C_O_C-L_CD1:CB_CD1_CD2": 932, "P-": 933, "N_P-": 934, "2_4_N:C_N_C-F_CE1:CD1_CE1_CZ": 935, "2_2_N:C_N_C-G_CA:N_CA_C": 936, "1_6_C:C_C_C-F_CE2:CZ_CE2_CD2": 937, "1_4_O:C_O_C-L_CD1:CB_CD1_CD2": 938, "2_4_N:C_N_S-": 939, "1_4_N:C_N_C-R_NH2:NH1_NH2_NE": 940, "2_1_O:O_O_O-S_OG:OG_CB_CA": 941, "1_6_N:C_N_C-D_OD2:OD1_OD2_CB": 942, "1_4_C:N_C_C-E_OE2:OE1_OE2_CG": 943, "2_6_C:C_C_C-K_CB:CA_CB_CG": 944, "2_4_C:C_C_C-V_O:C_N_CA": 945, "2_6_N:C_N_C-F_CZ:CE1_CZ_CE2": 946, "1_4_C:N_C_C-T_OG1:CA_CG2_OG1": 947, "1_6_O:C_O_C-D_OD2:OD1_OD2_CB": 948, "1_6_C:C_C_C-E_O:C_N_CA": 949, "1_0": 950, "2_4_N:C_N_C-E_OE2:OE1_OE2_CG": 951, "2_4_C:C_C_C-K_O:C_N_CA": 952, ":O_": 953, "1_4_C:N_C_C-E_OE1:CG_OE1_OE2": 954, "2_6_O:C_O_C-V_CG2:CG1_CG2_CA": 955, "1_4_C:N_C_C-E_O:C_N_CA": 956, "1_3_C:N_C_N-": 957, "1_6_O:C_O_C-D_OD1:CB_OD1_OD2": 958, "1_6_C:C_C_C-F_CD1:CG_CD1_CE1": 959, "_O:C_O_O-": 960, "2_1_F:F_F_C-": 961, "2_4_C:N_C_C-Y_OH:CE1_OH_CE2": 962, ":N_C_N-": 963, ":N_S": 964, "1_6_C:C_C_C-A_O:C_N_CA": 965, "2_6_F:F_F_F-": 966, "1_6_C:C_C_C-Y_CE1:CD1_CE1_CZ": 967, "1_4_N:C_N_C-N_OD1:CB_OD1_ND2": 968, "2_4_C:C_C_C-M_O:C_N_CA": 969, "2_6_C:C_C_C-R_NE:CD_NE_CZ": 970, "2_1_O:C_O_C-L_CD2:CD1_CD2_CB": 971, "1_4_C:C_C_S-": 972, "1_1_O:C_O_N-": 973, "1_1_O:O_O_O-K_CE:CD_CE_NZ": 974, "1_6_O:C_O_C-L_CD2:CD1_CD2_CB": 975, ":N_O_O-": 976, "2_1_O:C_O_C-G_O:C_N_CA": 977, "1_6_N:C_N_C-D_OD1:CB_OD1_OD2": 978, "1_4_N:C_N_C-N_ND2:OD1_ND2_CB": 979, "1_4_N:C_N_C-M_SD:CG_SD_SD": 980, "2_6_C:C_C_C-A_O:C_N_CA": 981, "2_6_O:C_O_C-T_CG2:CG2_OG1_CA": 982, "2_4_C:C_C_C-Y_O:C_N_CA": 983, "1_3_C:N_C_C-Y_OH:CE1_OH_CE2": 984, "2_1_O:O_O_O-T_CG2:CG2_OG1_CA": 985, "1_3_C:N_C_C-D_OD2:OD1_OD2_CB": 986, "2_1_O:O_O_C-L_CD2:CD1_CD2_CB": 987, "2_1_O:N_O_C-L_CD2:CD1_CD2_CB": 988, "1_4_C:C_C_C-W_O:C_N_CA": 989, "2_1_C:C_C_C-Y_OH:CE1_OH_CE2": 990, "2_1_O:C_O_C-E_OE2:OE1_OE2_CG": 991, "2_4_N:C_N_C-N_OD1:CB_OD1_ND2": 992, "1_1_O:C_O_C-D_OD2:OD1_OD2_CB": 993, "_O:C_O_S-": 994, "2_1_O:N_O_C-G_O:C_N_CA": 995, "2_3_N:C_N_S-": 996, "2_4_C:C_C_C-F_O:C_N_CA": 997, "1_4_C:N_C_C-I_CG2:CB_CG1_CD1": 998, "1_1_O:C_O_C-L_CD2:CD1_CD2_CB": 999, "1_6_O:C_O_C-G_O:C_N_CA": 1000, "1_4_O:C_O_C-L_CD2:CD1_CD2_CB": 1001, "1_6_C:C_C_C-Y_CD1:CG_CD1_CE1": 1002, "2_4_O:C_O_C-G_CA:N_CA_C": 1003, "1_1_O:C_O_C-G_O:C_N_CA": 1004, "L:N_": 1005, "2_6_C:C_C_N-V_CG2:CG1_CG2_CA": 1006, "2_4_N:C_N_C-F_CE2:CZ_CE2_CD2": 1007, "2_3_C:N_C_N-": 1008, "1_1_C:O_C_N-": 1009, "2_4_C:C_C_C-R_O:C_N_CA": 1010, "2_6_C:C_C_C-R_CG:CB_CG_CD": 1011, "1_4_N:C_N_N-": 1012, "2_4_C:N_C_C-G_O:C_N_CA": 1013, "1_6_N:C_N_C-V_CG2:CG1_CG2_CA": 1014, "1_3_N:C_N_S-": 1015, "1_2_": 1016, "1_4_N:C_N_C-E_O:C_N_CA": 1017, "1_6_O:C_O_C-V_CG1:CA_CG1_CG2": 1018, "1AA": 1019, "1_1_O:O_O_O-A_CB:N_CA_C": 1020, "2_3_C:C_C_C-L_CD2:CD1_CD2_CB": 1021, "2_6_N:O_N_C-": 1022, "2_4_C:N_C_C-F_CZ:CE1_CZ_CE2": 1023, "1_6_N:N_N_S-": 1024, "2_1_O:C_O_C-R_NH2:NH1_NH2_NE": 1025, "2_6_N:C_N_C-F_CE2:CZ_CE2_CD2": 1026, "2_6_C:C_C_C-I_O:C_N_CA": 1027, "2_1_O:O_O_O-R_NH1:NE_NH1_NH2": 1028, "1_1_O:O_O_C-Y_OH:CE1_OH_CE2": 1029, "2_1_C:C_C_C-F_CZ:CE1_CZ_CE2": 1030, "2_6_O:C_O_C-G_O:C_N_CA": 1031, "1_1_C:C_C_C-Y_OH:CE1_OH_CE2": 1032, "2_1_O:N_O_C-D_OD2:OD1_OD2_CB": 1033, "2_1_C:C_C_C-D_OD2:OD1_OD2_CB": 1034, "2_3_C:C_C_C-G_CA:N_CA_C": 1035, "2_1_O:O_O_O-D_OD1:CB_OD1_OD2": 1036, "1_1_C:C_C_C-V_CG1:CA_CG1_CG2": 1037, "1_6_O:C_O_C-Y_OH:CE1_OH_CE2": 1038, "1_1_O:C_O_C-Y_OH:CE1_OH_CE2": 1039, "1_3_C:C_C_C-V_CG2:CG1_CG2_CA": 1040, "2_1_N:N_N_C-G_CA:N_CA_C": 1041, "1_3_C:C_C_C-Y_OH:CE1_OH_CE2": 1042, "2_4_C:C_C_C-Q_O:C_N_CA": 1043, "2_1_O:C_O_C-T_CG2:CG2_OG1_CA": 1044, "_C:O_C_N-": 1045, "1_3_N:C_N_N-": 1046, "2_4_C:N_C_C-L_CD1:CB_CD1_CD2": 1047, "1_1_O:O_O_O-G_CA:N_CA_C": 1048, "1_6_N:C_N_C-V_CG1:CA_CG1_CG2": 1049, "1_6_C:C_C_C-P_O:C_N_CA": 1050, "2_6_C:N_C_C-G_CA:N_CA_C": 1051, "2_6_N:C_N_C-E_OE2:OE1_OE2_CG": 1052, "2_6_C:C_C_N-L_CD1:CB_CD1_CD2": 1053, "2_6_N:C_N_C-T_CG2:CG2_OG1_CA": 1054, "1_3_C:C_C_C-V_CG1:CA_CG1_CG2": 1055, "1_6_F:F_F_F-": 1056, "_C:N_C": 1057, "2_4_C:N_C_C-S_OG:OG_CB_CA": 1058, "1_1_O:C_O_C-A_CB:N_CA_C": 1059, "2_6_N:C_N_C-F_CE1:CD1_CE1_CZ": 1060, "2_1_C:C_C_C-F_CE1:CD1_CE1_CZ": 1061, "2_1_S:C_S_C-": 1062, "1_3_C:O_C_C-D_OD2:OD1_OD2_CB": 1063, "1_4_C:N_C_C-N_OD1:CB_OD1_ND2": 1064, "2_6_C:C_C_C-K_CG:CB_CG_CD": 1065, "1_4_N:C_N_C-Q_OE1:CG_OE1_NE2": 1066, "2_1_O:C_O_C-Y_OH:CE1_OH_CE2": 1067, "2_4_C:N_C_C-F_CE1:CD1_CE1_CZ": 1068, "1_1_O:O_O_C-R_NH2:NH1_NH2_NE": 1069, "1_1_O:O_O_C-L_CD2:CD1_CD2_CB": 1070, "1_1_O:C_O_C-L_CD1:CB_CD1_CD2": 1071, "2_1_O:O_O_O-S_O:C_N_CA": 1072, "2_4_C:C_C_S-": 1073, "2_1_O:C_O_C-H_NE2:CE1_NE2_CD2": 1074, "2_3_C:N_C_C-L_CD2:CD1_CD2_CB": 1075, "1_3_C:N_C_C-V_CG1:CA_CG1_CG2": 1076, "2_6_N:C_N_C-S_OG:OG_CB_CA": 1077, "1_6_C:C_C_C-Y_CD2:CE2_CD2_CG": 1078, "1_1_C:C_C_C-I_CG2:CB_CG1_CD1": 1079, "1_1_F:F_F_C-": 1080, "1_6_O:C_O_C-A_CB:N_CA_C": 1081, "2_3_C:O_C_C-G_CA:N_CA_C": 1082, "2_6_N:C_N_C-Y_CE2:CZ_CE2_CD2": 1083, "2_1_O:C_O_C-V_CG2:CG1_CG2_CA": 1084, "1_6_N:C_N_C-A_CB:N_CA_C": 1085, "1_1_O:N_O_C-G_O:C_N_CA": 1086, "S:N_S": 1087, "1_6_C:C_C_C-F_CD2:CE2_CD2_CG": 1088, "2_1_O:O_O_C-R_NH2:NH1_NH2_NE": 1089, "2_4_C:N_C_C-T_CG2:CG2_OG1_CA": 1090, "2_4_C:C_C_C-N_O:C_N_CA": 1091, "2_1_O:O_O_C-H_NE2:CE1_NE2_CD2": 1092, "1_3_C:N_C_C-G_O:C_N_CA": 1093, "2_1_O:O_O_C-Y_OH:CE1_OH_CE2": 1094, "1_4_N:C_N_C-Y_CE1:CD1_CE1_CZ": 1095, "1_1_C:C_C_C-A_CB:N_CA_C": 1096, "2_4_N:C_N_N-": 1097, "L:N_L_C-": 1098, "1_3_C:O_C_C-L_CD1:CB_CD1_CD2": 1099, "2_1_C:C_C_N-": 1100, "2_2_": 1101, "2_4_N:C_N_C-Y_CE2:CZ_CE2_CD2": 1102, "2_1_O:O_O_O-Y_OH:CE1_OH_CE2": 1103, "1_4_C:N_C_C-M_SD:CG_SD_SD": 1104, "1_6_O:C_O_C-I_CG2:CB_CG1_CD1": 1105, "2_6_C:C_C_C-K_CE:CD_CE_NZ": 1106, "2_4_C:N_C_N-G_CA:N_CA_C": 1107, "1_6_N:C_N_C-G_CA:N_CA_C": 1108, "2_4_N:C_N_C-H_NE2:CE1_NE2_CD2": 1109, "1_1_O:O_O_C-R_NH1:NE_NH1_NH2": 1110, "2_1_O:N_O_C-V_CG2:CG1_CG2_CA": 1111, "2_3_C:N_C_C-D_OD2:OD1_OD2_CB": 1112, "2_4_C:N_C_C-F_CE2:CZ_CE2_CD2": 1113, "2_1_O:C_O_C-S_OG:OG_CB_CA": 1114, "1_2_C:C_C_C-L_CD1:CB_CD1_CD2": 1115, "LE": 1116, "1_6_O:C_O_C-G_CA:N_CA_C": 1117, "_C:C_C_O-": 1118, "_N:P": 1119, "1_1_O:C_O_C-R_NH1:NE_NH1_NH2": 1120, "2_6_O:C_O_C-F_CZ:CE1_CZ_CE2": 1121, "2_3_N:C_N_N-": 1122, "2_1_O:C_O_C-L_CD1:CB_CD1_CD2": 1123, "1_4_C:O_C_C-D_OD2:OD1_OD2_CB": 1124, "2_1_C:C_C_C-S_OG:OG_CB_CA": 1125, "2_1_O:O_O_O-E_OE2:OE1_OE2_CG": 1126, "1_4_N:C_N_C-L_O:C_N_CA": 1127, "2_4_N:C_N_C-R_NH2:NH1_NH2_NE": 1128, "1_3_C:N_C_C-V_CG2:CG1_CG2_CA": 1129, "2_6_C:C_C_C-W_CE3:CD2_CE3_CZ3": 1130, "1_4_O:N_O_C-": 1131, "2_1_O:O_O_C-D_OD2:OD1_OD2_CB": 1132, "1_4_N:C_N_C-K_CD:CG_CD_CE": 1133, "2_6_N:C_N_C-A_CB:N_CA_C": 1134, "2_C:O_C_O-": 1135, "1_1_O:O_O_O-T_OG1:CA_CG2_OG1": 1136, "1_1_O:C_O_C-E_OE2:OE1_OE2_CG": 1137, "1_5_N:C_N_C-L_CD1:CB_CD1_CD2": 1138, "2_6_O:C_O_C-Y_OH:CE1_OH_CE2": 1139, "1_3_C:O_C_C-L_CD2:CD1_CD2_CB": 1140, "2_1_O:O_O_C-G_O:C_N_CA": 1141, "2_4_N:C_N_C-D_OD1:CB_OD1_OD2": 1142, "1_6_C:C_C_C-S_O:C_N_CA": 1143, "1_6_O:C_O_C-T_OG1:CA_CG2_OG1": 1144, ":S_C_N-": 1145, "2_4_N:C_N_C-F_CD1:CG_CD1_CE1": 1146, "2_6_C:C_C_C-C_SG:SG_CB_CA": 1147, "2_1_O:C_O_C-Y_CE2:CZ_CE2_CD2": 1148, "1_6_C:C_C_C-T_O:C_N_CA": 1149, "_N_P-": 1150, "1_6_C:C_C_C-K_CD:CG_CD_CE": 1151, "2_4_N:C_N_C-V_CG1:CA_CG1_CG2": 1152, "1_4_N:C_N_C-F_CZ:CE1_CZ_CE2": 1153, "_N:P_N_P-": 1154, "1_6_N:C_N_S-": 1155, "2_6_C:C_C_C-Q_OE1:CG_OE1_NE2": 1156, "2_1_C:S_C_O-": 1157, "2_6_O:N_O_C-G_CA:N_CA_C": 1158, "1_1_O:O_O_C-L_CD1:CB_CD1_CD2": 1159, "1_2_C:O_C_C-": 1160, "1_1_O:N_O_C-L_CD2:CD1_CD2_CB": 1161, "1_4_C:N_C_C-R_NH1:NE_NH1_NH2": 1162, "2_1_O:N_O_C-Y_OH:CE1_OH_CE2": 1163, "1_2_C:C_C_C-L_CD2:CD1_CD2_CB": 1164, "1_6_C:C_C_C-H_NE2:CE1_NE2_CD2": 1165, "2_1_O:O_O_C-S_OG:OG_CB_CA": 1166, "2_6_C:C_C_C-E_O:C_N_CA": 1167, "L:C_L": 1168, "1_4_N:C_N_C-A_O:C_N_CA": 1169, "2_1_O:N_O_C-F_CZ:CE1_CZ_CE2": 1170, "2_6_C:C_C_C-L_O:C_N_CA": 1171, "2_2_C:C_C_C-G_CA:N_CA_C": 1172, "1_3_C:C_C_C-A_CB:N_CA_C": 1173, "1_4_O:P_O_P-": 1174, "1_1_O:O_O_C-A_CB:N_CA_C": 1175, "2_6_O:C_O_C-V_CG1:CA_CG1_CG2": 1176, "1_4_N:C_N_C-F_CE1:CD1_CE1_CZ": 1177, "1_1_O:C_O_C-K_CE:CD_CE_NZ": 1178, "2_1_O:O_O_C-Y_CE2:CZ_CE2_CD2": 1179, "2_3_C:C_C_C-V_CG2:CG1_CG2_CA": 1180, "2_1_O:O_O_O-A_O:C_N_CA": 1181, "1_3_C:N_C_C-D_OD1:CB_OD1_OD2": 1182, "1_3_C:N_C_C-G_CA:N_CA_C": 1183, "1_4_C:N_C_C-Q_OE1:CG_OE1_NE2": 1184, "2_4_C:N_C_C-E_OE2:OE1_OE2_CG": 1185, "2_3_C:N_C_C-V_CG2:CG1_CG2_CA": 1186, "2_6_O:C_O_C-S_OG:OG_CB_CA": 1187, "2_4_N:C_N_C-N_ND2:OD1_ND2_CB": 1188, "C:C_C_O-": 1189, "1_6_C:C_C_C-F_O:C_N_CA": 1190, "1_6_C:C_C_N-L_CD1:CB_CD1_CD2": 1191, "1_1_O:C_O_C-G_CA:N_CA_C": 1192, "1_2_O": 1193, "2_6_C:C_C_C-T_O:C_N_CA": 1194, "1_1_O:O_O_C-G_O:C_N_CA": 1195, "2_6_N:C_N_C-N_OD1:CB_OD1_ND2": 1196, "2_4_O:P_O_P-": 1197, "2_5_N:C_N_C-G_CA:N_CA_C": 1198, "2_1_C:C_C_C-F_CE2:CZ_CE2_CD2": 1199, "2_6_O:C_O_C-H_NE2:CE1_NE2_CD2": 1200, "1_1_O:N_O_C-L_CD1:CB_CD1_CD2": 1201, "2_6_N:C_N_C-V_CG1:CA_CG1_CG2": 1202, "1_1_O:C_O_C-E_OE1:CG_OE1_OE2": 1203, "1_4_C:N_C_C-K_CE:CD_CE_NZ": 1204, "2_6_N:C_N_C-H_NE2:CE1_NE2_CD2": 1205, "1_4_C:N_C_C-F_CZ:CE1_CZ_CE2": 1206, "1_1_O:N_O_C-D_OD2:OD1_OD2_CB": 1207, "2_4_C:N_C_C-N_OD1:CB_OD1_ND2": 1208, "2_1_O:C_O_C-N_ND2:OD1_ND2_CB": 1209, "2_6_O:C_O_C-F_CE1:CD1_CE1_CZ": 1210, "2_1_O:O_O_C-L_CD1:CB_CD1_CD2": 1211, "2_1_O:O_O_C-Y_CE1:CD1_CE1_CZ": 1212, "1_3_N:O_N_C-": 1213, "1_1_C:O_C_O-": 1214, "2_6_N:C_N_C-Y_CE1:CD1_CE1_CZ": 1215, "1_1_C:C_C_C-G_O:C_N_CA": 1216, "2_4_C:O_C_C-D_OD2:OD1_OD2_CB": 1217, "2_4_C:O_C_C-G_CA:N_CA_C": 1218, "2_6_N:C_N_N-G_CA:N_CA_C": 1219, "1_6_C:C_C_C-K_O:C_N_CA": 1220, "1_1_O:C_O_C-S_O:C_N_CA": 1221, "2_4_N:C_N_C-R_NH1:NE_NH1_NH2": 1222, "2_6_O:C_O_C-E_OE2:OE1_OE2_CG": 1223, "1_6_O:C_O_C-V_CG2:CG1_CG2_CA": 1224, "2_6_C:C_C_C-W_NE1:CE2_NE1_CD2": 1225, "1_4_C:N_C_C-R_NH2:NH1_NH2_NE": 1226, "2_4_N:C_N_C-S_O:C_N_CA": 1227, "1_2_N:N_N_C-": 1228, "2_6_C:N_C_C-L_CD2:CD1_CD2_CB": 1229, "1_4_C:N_C_C-F_CE1:CD1_CE1_CZ": 1230, "2_3_O:C_O_C-G_CA:N_CA_C": 1231, "2_4_N:C_N_C-Y_CE1:CD1_CE1_CZ": 1232, "1_6_N:C_N_C-I_CG2:CB_CG1_CD1": 1233, "2_6_O:C_O_C-F_CE2:CZ_CE2_CD2": 1234, "2_4_C:N_C_C-Y_CE2:CZ_CE2_CD2": 1235, "1_4_N:C_N_C-Y_CE2:CZ_CE2_CD2": 1236, "2_1_C:C_C_C-Y_CE2:CZ_CE2_CD2": 1237, "2_3_C:N_C_C-G_O:C_N_CA": 1238, "2_6_O:C_O_C-A_CB:N_CA_C": 1239, "2_1_O:C_O_C-F_CZ:CE1_CZ_CE2": 1240, "2_1_O:O_O_C-T_CG2:CG2_OG1_CA": 1241, "2_6_N:N_N_C-G_CA:N_CA_C": 1242, "_C:F": 1243, "_P_O-": 1244, "AL": 1245, "VAL": 1246, "2_1_O:O_O_C-V_CG2:CG1_CG2_CA": 1247, "1_4_C:N_C_C-N_ND2:OD1_ND2_CB": 1248, "1_3_C:O_C_C-Y_OH:CE1_OH_CE2": 1249, "1_1_O:C_O_C-R_NH2:NH1_NH2_NE": 1250, "2_1_O:N_O_C-L_CD1:CB_CD1_CD2": 1251, "2_4_C:N_C_C-Y_CE1:CD1_CE1_CZ": 1252, "1_6_C:C_C_N-L_CD2:CD1_CD2_CB": 1253, "2_6_O:C_O_C-Y_CE2:CZ_CE2_CD2": 1254, "1_3_C:O_C_C-G_O:C_N_CA": 1255, "2_1_O:O_O_O-H_NE2:CE1_NE2_CD2": 1256, "1_1_S:C_S_C-": 1257, "2_4_N:C_N_C-P_CG:CD_CG_CB": 1258, "1_3_C:C_C_C-I_CG2:CB_CG1_CD1": 1259, "1_4_C:N_C_C-Y_CE1:CD1_CE1_CZ": 1260, "2_3_C:N_C_C-Y_OH:CE1_OH_CE2": 1261, "1_3_C:O_C_C-V_CG2:CG1_CG2_CA": 1262, "1_3_C:N_C_C-A_CB:N_CA_C": 1263, "S:C_S_N-": 1264, "2_1_O:O_O_C-F_CZ:CE1_CZ_CE2": 1265, "2_1_C:C_C_C-Y_CE1:CD1_CE1_CZ": 1266, "2_4_N:C_N_C-A_CB:N_CA_C": 1267, "2_4_O:C_O_C-L_CD2:CD1_CD2_CB": 1268, "2_6_O:C_O_C-R_NH2:NH1_NH2_NE": 1269, ":O_N_N-": 1270, "2_4_N:C_N_C-D_O:C_N_CA": 1271, "2_6_N:C_N_C-M_CE:CG_SD_CG": 1272, "1_3_C:O_C_C-A_CB:N_CA_C": 1273, "1_1_O:N_O_C-A_CB:N_CA_C": 1274, "1_1_O:C_O_C-N_ND2:OD1_ND2_CB": 1275, "2_4_N:C_N_C-E_OE1:CG_OE1_OE2": 1276, "1_3_C:O_C_C-V_CG1:CA_CG1_CG2": 1277, "1_1_C:S_C_O-": 1278, "1_3_C:C_C_C-D_OD2:OD1_OD2_CB": 1279, "2_1_O:O_O_O-K_CD:CG_CD_CE": 1280, "1_4_O:C_O_C-Y_OH:CE1_OH_CE2": 1281, "1_1_O:C_O_C-T_OG1:CA_CG2_OG1": 1282, "2_4_N:C_N_C-T_OG1:CA_CG2_OG1": 1283, "1_1_O:N_O_C-Y_OH:CE1_OH_CE2": 1284, "1_1_C:C_C_N-": 1285, "1_6_N:C_N_C-T_OG1:CA_CG2_OG1": 1286, "2_4_N:C_N_C-I_O:C_N_CA": 1287, "2_6_C:C_C_C-H_ND1:CG_ND1_CE1": 1288, "1_2_C:C_C_C-I_CG2:CB_CG1_CD1": 1289, "1_6_C:C_C_C-V_O:C_N_CA": 1290, "2_1_O:O_O_C-N_ND2:OD1_ND2_CB": 1291, "1_6_C:C_C_C-C_O:C_N_CA": 1292, "1_4_C:N_C_C-L_O:C_N_CA": 1293, "2_1_O:O_O_C-E_OE2:OE1_OE2_CG": 1294, "2_1_O:O_O_C-H_CE1:ND1_CE1_NE2": 1295, "1_1_O:N_O_C-V_CG2:CG1_CG2_CA": 1296, "1_3_C:C_C_C-G_O:C_N_CA": 1297, "2_1_C:C_C_C-T_CG2:CG2_OG1_CA": 1298, "1_4_C:N_C_C-Y_CE2:CZ_CE2_CD2": 1299, "1_1_O:C_O_C-V_CG2:CG1_CG2_CA": 1300, "1_1_N:O_N_O-": 1301, "1_1_O:C_O_C-I_CG2:CB_CG1_CD1": 1302, "RG": 1303, "1_6_C:C_C_C-M_CG:CB_CG_SD": 1304, "1_6_N:C_N_C-E_OE2:OE1_OE2_CG": 1305, "1_6_C:C_C_C-I_O:C_N_CA": 1306, "1_1_C:C_C_C-D_OD2:OD1_OD2_CB": 1307, "2_4_C:C_C_C-W_CD1:NE1_CD1_CG": 1308, "2_1_O:N_O_C-Y_CE2:CZ_CE2_CD2": 1309, "2_1_O:O_O_O-R_NE:CD_NE_CZ": 1310, "1_4_N:C_N_C-H_CE1:ND1_CE1_NE2": 1311, "1_1_O:O_O_C-K_CE:CD_CE_NZ": 1312, "1_4_O:C_O_C-V_CG2:CG1_CG2_CA": 1313, "_C:S_C_C-": 1314, "1_4_N:O_N_C-": 1315, "1_1_O:O_O_C-N_ND2:OD1_ND2_CB": 1316, "1_4_O:C_O_C-V_CG1:CA_CG1_CG2": 1317, "1_6_C:C_C_C-N_O:C_N_CA": 1318, "2_1_O:O_O_N-G_CA:N_CA_C": 1319, "1_1_O:O_O_O-Y_OH:CE1_OH_CE2": 1320, "1_6_N:O_N_C-": 1321, "1_6_O:C_O_C-E_OE1:CG_OE1_OE2": 1322, "1_4_C:N_C_C-F_CE2:CZ_CE2_CD2": 1323, "1_3_C:O_C_C-D_OD1:CB_OD1_OD2": 1324, "1_4_O:C_O_C-A_CB:N_CA_C": 1325, "1_4_C:O_C_C-Y_OH:CE1_OH_CE2": 1326, "1_4_N:C_N_C-F_CE2:CZ_CE2_CD2": 1327, "1_6_N:C_N_C-E_OE1:CG_OE1_OE2": 1328, "1_4_N:C_N_C-Y_CD1:CG_CD1_CE1": 1329, "2_2_C:O_C_C-": 1330, "2_1_C:N_C_N-": 1331, "1_4_C:O_C_C-L_CD1:CB_CD1_CD2": 1332, "2_4_N:C_N_C-A_O:C_N_CA": 1333, "2_4_C:N_C_C-H_NE2:CE1_NE2_CD2": 1334, "2_6_O:C_O_C-Y_CE1:CD1_CE1_CZ": 1335, "1_6_O:C_O_C-K_CE:CD_CE_NZ": 1336, "1_4_N:C_N_C-F_CD1:CG_CD1_CE1": 1337, "1_6_O:C_O_C-R_NH1:NE_NH1_NH2": 1338, "2_2_C:C_C_C-L_CD2:CD1_CD2_CB": 1339, "1_6_C:C_C_C-H_CE1:ND1_CE1_NE2": 1340, "2_4_N:C_N_C-R_CD:CG_CD_NE": 1341, "1_6_N:C_N_C-A_O:C_N_CA": 1342, "2_1_C:C_C_C-F_CD1:CG_CD1_CE1": 1343, "2_6_O:C_O_C-N_ND2:OD1_ND2_CB": 1344, "2_6_C:C_C_C-M_O:C_N_CA": 1345, "2_1_O:O_O_O-N_ND2:OD1_ND2_CB": 1346, "1_4_C:N_C_C-F_CD1:CG_CD1_CE1": 1347, "2_6_C:C_C_N-F_CZ:CE1_CZ_CE2": 1348, "_S:C_S_C-": 1349, "2_6_N:C_N_C-N_ND2:OD1_ND2_CB": 1350, "2_6_C:C_C_S-G_CA:N_CA_C": 1351, "2_6_N:C_N_C-D_O:C_N_CA": 1352, "2_1_O:N_O_C-H_NE2:CE1_NE2_CD2": 1353, "1_4_C:O_C_C-L_CD2:CD1_CD2_CB": 1354, "1_6_C:C_C_C-D_O:C_N_CA": 1355, "2_4_N:C_N_C-K_CD:CG_CD_CE": 1356, "2_1_O:C_O_C-R_NH1:NE_NH1_NH2": 1357, "2_1_O:N_O_C-S_OG:OG_CB_CA": 1358, "GL": 1359, "2_4_C:C_C_C-C_O:C_N_CA": 1360, "2_1_C:C_C_C-W_CH2:CZ3_CH2_CZ2": 1361, "1_4_C:O_C_C-D_OD1:CB_OD1_OD2": 1362, "1_3_C:O_C_C-G_CA:N_CA_C": 1363, "2_2_N:N_N_C-": 1364, "2_3_C:N_C_C-F_CZ:CE1_CZ_CE2": 1365, "1_2_C:C_C_C-D_OD2:OD1_OD2_CB": 1366, "2_1_O:C_O_C-F_CE2:CZ_CE2_CD2": 1367, "1_4_O:C_O_C-G_O:C_N_CA": 1368, "2_6_N:C_N_N-L_CD2:CD1_CD2_CB": 1369, "1_5_C:N_C_N-": 1370, "2_3_C:C_C_C-Y_OH:CE1_OH_CE2": 1371, "1_6_O:C_O_C-E_OE2:OE1_OE2_CG": 1372, "1_6_N:C_N_C-R_NH1:NE_NH1_NH2": 1373, "1_3_N:N_N_N-": 1374, "2_1_C:C_C_C-V_CG1:CA_CG1_CG2": 1375, "2_1_O:C_O_C-Y_CE1:CD1_CE1_CZ": 1376, "2_2_O": 1377, "1_1_O:C_O_C-V_CG1:CA_CG1_CG2": 1378, "1_4_O:C_O_C-D_OD2:OD1_OD2_CB": 1379, "2_6_C:N_C_N-": 1380, "1_4_O:C_O_C-I_CG2:CB_CG1_CD1": 1381, "2_6_C:N_C_C-V_CG2:CG1_CG2_CA": 1382, "2_6_C:C_C_C-V_O:C_N_CA": 1383, "1_1_O:N_O_C-Q_OE1:CG_OE1_NE2": 1384, "LEU": 1385, "2_1_O:O_O_O-T_O:C_N_CA": 1386, "2_3_C:O_C_C-D_OD2:OD1_OD2_CB": 1387, "1_1_O:O_O_C-D_OD2:OD1_OD2_CB": 1388, "2_1_O:O_O_O-H_CE1:ND1_CE1_NE2": 1389, "2_6_N:C_N_C-F_CD1:CG_CD1_CE1": 1390, "1_2_C:C_C_C-V_CG1:CA_CG1_CG2": 1391, "2_4_N:C_N_C-M_CE:CG_SD_CG": 1392, "2_4_N:C_N_C-W_CZ3:CE3_CZ3_CH2": 1393, "2_1_O:C_O_C-H_CE1:ND1_CE1_NE2": 1394, "2_1_O:N_O_C-Y_CE1:CD1_CE1_CZ": 1395, "2_6_C:N_C_C-D_OD2:OD1_OD2_CB": 1396, "2_3_C:C_C_C-L_CD1:CB_CD1_CD2": 1397, "1_4_C:N_C_C-Y_CD1:CG_CD1_CE1": 1398, "2_1_O:C_O_C-D_OD1:CB_OD1_OD2": 1399, "1_2_C:C_C_C-Y_OH:CE1_OH_CE2": 1400, "1_6_C:N_C_C-Y_OH:CE1_OH_CE2": 1401, "2_1_C:C_C_C-G_O:C_N_CA": 1402, "2_1_C:C_C_C-A_CB:N_CA_C": 1403, "_C:N_C_S-": 1404, "2_4_N:O_N_C-": 1405, "1_5_O:P_O_P-": 1406, "2_1_C:C_C_C-T_OG1:CA_CG2_OG1": 1407, "2_4_N:C_N_C-P_CD:N_CD_CG": 1408, "2_4_C:N_C_C-T_OG1:CA_CG2_OG1": 1409, "1_6_N:C_N_C-K_CE:CD_CE_NZ": 1410, "1_4_N:C_N_C-Y_CD2:CE2_CD2_CG": 1411, "1_4_O:C_O_C-G_CA:N_CA_C": 1412, "1_3_C:C_C_N-": 1413, "1_6_C:C_C_C-H_CD2:NE2_CD2_CG": 1414, "2_1_O:N_O_C-T_CG2:CG2_OG1_CA": 1415, "2_1_O:N_O_C-F_CE1:CD1_CE1_CZ": 1416, "2_3_C:O_C_C-G_O:C_N_CA": 1417, "1_4_C:O_C_C-A_CB:N_CA_C": 1418, "2_6_C:C_C_S-L_CD2:CD1_CD2_CB": 1419, "2_4_N:C_N_C-R_NE:CD_NE_CZ": 1420, "2_1_O:C_O_C-F_CE1:CD1_CE1_CZ": 1421, "2_6_N:C_N_C-D_OD1:CB_OD1_OD2": 1422, "_C:F_C_C-": 1423, "2_4_O:N_O_C-": 1424, "1_5_N:C_N_C-L_CD2:CD1_CD2_CB": 1425, "2_1_O:C_O_C-F_CD2:CE2_CD2_CG": 1426, "2_4_C:N_C_C-S_O:C_N_CA": 1427, "2_6_N:C_N_C-R_NH2:NH1_NH2_NE": 1428, "1_4_N:C_N_C-S_O:C_N_CA": 1429, "2_3_C:C_C_C-F_CZ:CE1_CZ_CE2": 1430, "1_4_C:N_C_N-G_O:C_N_CA": 1431, "2_4_C:N_C_C-A_CB:N_CA_C": 1432, "1_1_O:O_O_O-K_CD:CG_CD_CE": 1433, "1_4_C:O_C_C-V_CG1:CA_CG1_CG2": 1434, "2_4_C:N_C_C-F_CD1:CG_CD1_CE1": 1435, "2_1_N:C_N_N-": 1436, "1_4_N:C_N_C-F_CD2:CE2_CD2_CG": 1437, "2_6_O:C_O_C-F_CD1:CG_CD1_CE1": 1438, "1_4_N:C_N_C-K_O:C_N_CA": 1439, "2_1_O:C_O_C-A_CB:N_CA_C": 1440, "2_4_O:C_O_C-D_OD2:OD1_OD2_CB": 1441, "1_6_C:C_C_C-W_CH2:CZ3_CH2_CZ2": 1442, "2_1_O:O_O_C-F_CE1:CD1_CE1_CZ": 1443, "2_3_C:C_C_C-D_OD2:OD1_OD2_CB": 1444, "2_5_O:P_O_P-": 1445, "2_4_O:C_O_C-V_CG2:CG1_CG2_CA": 1446, "2_1_O:O_O_O-K_NZ:NZ_CE_CD": 1447, ":O_O_P-": 1448, "1_6_O:C_O_C-N_OD1:CB_OD1_ND2": 1449, ":N_N_O-": 1450, "2_1_O:C_O_C-N_OD1:CB_OD1_ND2": 1451, "2_6_O:C_O_C-D_OD1:CB_OD1_OD2": 1452, "1_1_O:N_O_C-D_OD1:CB_OD1_OD2": 1453, "2_6_N:C_N_C-M_SD:CG_SD_SD": 1454, "2_4_N:C_N_C-H_CE1:ND1_CE1_NE2": 1455, "2_6_N": 1456, "1_4_C:N_C_C-Y_CD2:CE2_CD2_CG": 1457, "2_1_O:O_O_C-F_CE2:CZ_CE2_CD2": 1458, "1_1_O:O_O_O-E_OE1:CG_OE1_OE2": 1459, "2_1_C:C_C_C-H_NE2:CE1_NE2_CD2": 1460, "1_1_O:N_O_C-K_CE:CD_CE_NZ": 1461, "1_1_O:N_O_C-G_CA:N_CA_C": 1462, "2_6_C:C_C_N-D_OD2:OD1_OD2_CB": 1463, "1_6_N:C_N_C-N_OD1:CB_OD1_ND2": 1464, "2_4_N:C_N_C-V_O:C_N_CA": 1465, "2_1_O:N_O_O-": 1466, "1_1_O:O_O_O-E_OE2:OE1_OE2_CG": 1467, "2_1_O:N_O_C-E_OE2:OE1_OE2_CG": 1468, "1_6_N:C_N_C-R_NH2:NH1_NH2_NE": 1469, "1_6_C:C_C_C-P_CG:CD_CG_CB": 1470, ":P_C": 1471, "1_6_N:C_N_C-N_ND2:OD1_ND2_CB": 1472, "2_4_C:N_C_C-V_CG1:CA_CG1_CG2": 1473, "2_4_N:C_N_C-P_CB:CG_CB_CA": 1474, "2_4_N:C_N_C-Q_NE2:NE2_OE1_CG": 1475, "1_6_O:C_O_C-N_ND2:OD1_ND2_CB": 1476, "2_4_O:C_O_C-L_CD1:CB_CD1_CD2": 1477, "1_3_C:O_C_C-I_CG2:CB_CG1_CD1": 1478, "1_3_C:N_C_C-E_OE2:OE1_OE2_CG": 1479, "2AT": 1480, "1_4_C:N_C_C-A_O:C_N_CA": 1481, "2_6_C:C_C_N-F_CE1:CD1_CE1_CZ": 1482, "2_4_C:N_C_C-D_O:C_N_CA": 1483, "2_3_N:O_N_C-": 1484, "2_4_O:C_O_C-Y_OH:CE1_OH_CE2": 1485, "2_4_C:C_C_C-W_O:C_N_CA": 1486, "2_4_N:C_N_C-I_CD1:CD1_CG1_CB": 1487, "2_1_O:N_O_C-R_NH2:NH1_NH2_NE": 1488, "1_2_N:C_N_N-": 1489, ":N_C": 1490, "1_6_O:C_O_C-R_NH2:NH1_NH2_NE": 1491, "1_6_C:C_C_C-W_CZ3:CE3_CZ3_CH2": 1492, "1_4_N:C_N_C-P_CG:CD_CG_CB": 1493, "1_1_O:N_O_C-V_CG1:CA_CG1_CG2": 1494, "2_6_O:C_O_C-N_OD1:CB_OD1_ND2": 1495, "1_6_C:C_C_C-P_CB:CG_CB_CA": 1496, "2_6_O:O_O_O-D_OD2:OD1_OD2_CB": 1497, "1AAS": 1498, ":N_F": 1499, "2_1_O:O_O_C-A_CB:N_CA_C": 1500, "2_1_O:O_O_O-D_O:C_N_CA": 1501, "1_1_O:C_O_C-N_OD1:CB_OD1_ND2": 1502, "2_4_N:C_N_C-Y_CD1:CG_CD1_CE1": 1503, "1AVAL": 1504, "1_3_C:N_C_C-N_OD1:CB_OD1_ND2": 1505, "2_4_N:C_N_C-M_CB:CA_CB_CG": 1506, "1_6_C:C_C_C-M_O:C_N_CA": 1507, "1_1_O:C_O_C-I_O:C_N_CA": 1508, "1_6_C:N_C_C-L_CD1:CB_CD1_CD2": 1509, "2_4_N:C_N_C-F_CD2:CE2_CD2_CG": 1510, "2_6_C:N_C_C-L_CD1:CB_CD1_CD2": 1511, "2_3_C:N_C_C-S_OG:OG_CB_CA": 1512, "1_2_N:C_N_C-L_CD1:CB_CD1_CD2": 1513, "2_4_N:C_N_C-M_CG:CB_CG_SD": 1514, "2_6_O:C_O_C-R_NH1:NE_NH1_NH2": 1515, "1_6_C:C_C_C-W_CE3:CD2_CE3_CZ3": 1516, "1_6_C:C_C_C-R_CD:CG_CD_NE": 1517, "1_4_C:O_C_C-V_CG2:CG1_CG2_CA": 1518, "2_6_O:C_O_C-H_CE1:ND1_CE1_NE2": 1519, "1_1_O:O_O_C-D_OD1:CB_OD1_OD2": 1520, "2_6_O:O_O_O-G_CA:N_CA_C": 1521, "1_4_N:C_N_C-Y_O:C_N_CA": 1522, "2_6_O:N_O_C-D_OD2:OD1_OD2_CB": 1523, "2_1_O:N_O_C-F_CE2:CZ_CE2_CD2": 1524, "1_4_N:C_N_C-V_O:C_N_CA": 1525, "2_6_N:N_N_C-L_CD2:CD1_CD2_CB": 1526, "2_4_C:N_C_C-R_NH2:NH1_NH2_NE": 1527, "2_3_C:N_C_C-F_CE1:CD1_CE1_CZ": 1528, "1_1_O:O_O_C-A_O:C_N_CA": 1529, "1_3_C:N_C_C-E_OE1:CG_OE1_OE2": 1530, "_B": 1531, "2_1_O:C_O_C-S_O:C_N_CA": 1532, "2_3_C:C_C_C-F_CE2:CZ_CE2_CD2": 1533, "2_4_O:C_O_C-S_OG:OG_CB_CA": 1534, "1_4_C:N_C_N-D_OD2:OD1_OD2_CB": 1535, "2_6_N:C_N_O-": 1536, "2_3_C:N_C_C-L_CD1:CB_CD1_CD2": 1537, "1_3_C:C_C_C-G_CA:N_CA_C": 1538, "2_6_O:C_O_C-F_CD2:CE2_CD2_CG": 1539, "1_4_C:N_C_C-K_CD:CG_CD_CE": 1540, "1_1_O:O_O_C-T_OG1:CA_CG2_OG1": 1541, "2_4_C:N_C_C-E_OE1:CG_OE1_OE2": 1542, "2_3_C:C_C_C-F_CE1:CD1_CE1_CZ": 1543, "2_1_L:N_L_C-": 1544, "1_3_C:C_C_C-M_SD:CG_SD_SD": 1545, "1_1_O:O_O_C-V_CG2:CG1_CG2_CA": 1546, "2_6_C:N_C_C-F_CZ:CE1_CZ_CE2": 1547, "2_4_O:C_O_C-F_CZ:CE1_CZ_CE2": 1548, "1_3_O:C_O_C-D_OD2:OD1_OD2_CB": 1549, "2_3_C:C_C_C-S_OG:OG_CB_CA": 1550, "1_4_C:O_C_C-G_O:C_N_CA": 1551, "1_1_O:N_O_C-R_NH1:NE_NH1_NH2": 1552, "2_3_C:C_C_N-": 1553, "2_6_N:C_N_C-Y_CD1:CG_CD1_CE1": 1554, "2_3_O:C_O_C-D_OD2:OD1_OD2_CB": 1555, "2_6_N:C_N_C-E_OE1:CG_OE1_OE2": 1556, "2_3_O:P_O_P-G_CA:N_CA_C": 1557, "2_6_N:C_N_C-R_NH1:NE_NH1_NH2": 1558, "1_4_C:N_C_N-V_CG1:CA_CG1_CG2": 1559, "1_4_C:O_C_C-G_CA:N_CA_C": 1560, "_P:P": 1561, "2_3_C:O_C_C-S_OG:OG_CB_CA": 1562, "1_4_C:N_C_C-F_CD2:CE2_CD2_CG": 1563, "1_2_C:C_C_C-V_CG2:CG1_CG2_CA": 1564, "1_6_C:C_C_C-W_CZ2:CH2_CZ2_CE2": 1565, "1_3_C:N_C_C-T_OG1:CA_CG2_OG1": 1566, "2_6_C:C_C_C-Y_O:C_N_CA": 1567, "1_1_C:C_C_C-T_OG1:CA_CG2_OG1": 1568, "2_1_O:C_O_C-F_CD1:CG_CD1_CE1": 1569, "2_1_C:C_C_C-E_OE2:OE1_OE2_CG": 1570, "1_1_O:N_O_C-R_NH2:NH1_NH2_NE": 1571, "2_4_C:N_C_C-D_OD1:CB_OD1_OD2": 1572, "2_1_L:C_L_C-G_CA:N_CA_C": 1573, "2_1_O:O_O_O-L_CD2:CD1_CD2_CB": 1574, "2_1_O:N_O_C-N_ND2:OD1_ND2_CB": 1575, "2_3_C:N_C_C-N_OD1:CB_OD1_ND2": 1576, "1_4_C:N_C_C-S_O:C_N_CA": 1577, "1_4_N:C_N_C-R_CD:CG_CD_NE": 1578, "2_6_O:C_O_C-T_OG1:CA_CG2_OG1": 1579, "2_1_F:C_F_C-L_CD2:CD1_CD2_CB": 1580, "1_1_O:O_O_C-E_OE1:CG_OE1_OE2": 1581, "HI": 1582, "HIS": 1583, "2_2_C:C_C_C-D_OD2:OD1_OD2_CB": 1584, "2_4_C:N_C_C-K_CD:CG_CD_CE": 1585, "2_4_C:N_C_C-P_CG:CD_CG_CB": 1586, "1_2_C:C_C_C-A_CB:N_CA_C": 1587, "1_3_C:N_C_C-I_CG2:CB_CG1_CD1": 1588, "2_6_C:C_C_N-F_CE2:CZ_CE2_CD2": 1589, "1_1_O:O_O_C-E_OE2:OE1_OE2_CG": 1590, "1_4_N:C_N_C-P_O:C_N_CA": 1591, "S:N_S_N-": 1592, "1_6_N:C_N_C-E_O:C_N_CA": 1593, "1AARG": 1594, "2_4_N:C_N_C-W_CH2:CZ3_CH2_CZ2": 1595, "2_4_N:C_N_C-M_O:C_N_CA": 1596, "2_1_O:O_O_O-Y_CE1:CD1_CE1_CZ": 1597, "1_1_O:N_O_C-N_ND2:OD1_ND2_CB": 1598, "2_6_O:C_O_N-": 1599, "1_4_N:N_N_N-": 1600, "2_3_N:N_N_N-": 1601, "2_6_O:C_O_C-S_O:C_N_CA": 1602, "2_1_N:N_N_C-D_OD2:OD1_OD2_CB": 1603, "1_4_N:C_N_C-F_O:C_N_CA": 1604, "1_4_N:C_N_C-I_O:C_N_CA": 1605, "1_6_N:C_N_C-M_SD:CG_SD_SD": 1606, "2_1_C:C_C_C-N_OD1:CB_OD1_ND2": 1607, "1_6_N:C_N_C-Q_OE1:CG_OE1_NE2": 1608, "2_1_C:C_C_C-R_NH1:NE_NH1_NH2": 1609, "1_5_N:C_N_C-V_CG1:CA_CG1_CG2": 1610, "2_1_O:O_O_C-R_NH1:NE_NH1_NH2": 1611, "1_4_N:C_N_C-D_O:C_N_CA": 1612, "2_6_C:C_C_C-K_O:C_N_CA": 1613, "2_1_O:C_O_C-K_CD:CG_CD_CE": 1614, "2_6_O:N_O_C-G_O:C_N_CA": 1615, "2_6_N:C_N_C-Y_CD2:CE2_CD2_CG": 1616, "2_6_C:C_C_N-G_O:C_N_CA": 1617, "2_6_C:C_C_C-Q_O:C_N_CA": 1618, "2_1_O:O_O_C-K_CD:CG_CD_CE": 1619, "1_1_O:O_O_C-N_OD1:CB_OD1_ND2": 1620, "2_4_N:C_N_C-W_CE3:CD2_CE3_CZ3": 1621, "1_3_C:O_C_C-T_OG1:CA_CG2_OG1": 1622, "2_6_O:C_O_C-M_CE:CG_SD_CG": 1623, "2_1_O:O_O_O-V_CG2:CG1_CG2_CA": 1624, "2_1_O:O_O_O-Y_CE2:CZ_CE2_CD2": 1625, "2_4_N:C_N_C-M_SD:CG_SD_SD": 1626, "2_1_O:C_O_C-V_CG1:CA_CG1_CG2": 1627, "2_6_N:C_N_C-H_CE1:ND1_CE1_NE2": 1628, "2_1_O:O_O_O-R_CD:CG_CD_NE": 1629, "1_3_C:C_C_C-T_OG1:CA_CG2_OG1": 1630, "1_4_N:C_N_C-T_O:C_N_CA": 1631, "2_4_N:C_N_C-L_O:C_N_CA": 1632, "1_1_O:O_O_O-N_ND2:OD1_ND2_CB": 1633, "1_6_N:C_N_C-L_O:C_N_CA": 1634, "2_3_C:O_C_C-L_CD2:CD1_CD2_CB": 1635, "2_3_C:C_C_C-G_O:C_N_CA": 1636, ":O_S": 1637, "1_1_C:C_C_C-D_OD1:CB_OD1_OD2": 1638, "2_5_N:C_N_C-L_CD2:CD1_CD2_CB": 1639, "2_3_C:O_C_C-Y_OH:CE1_OH_CE2": 1640, "1_3_C:N_C_C-M_SD:CG_SD_SD": 1641, "N_L-": 1642, "2_6_C:C_C_N-T_CG2:CG2_OG1_CA": 1643, "2_1_O:O_O_C-S_O:C_N_CA": 1644, "2_6_N:C_N_C-S_O:C_N_CA": 1645, "1_6_C:C_C_C-H_O:C_N_CA": 1646, "2_1_O:N_O_C-A_CB:N_CA_C": 1647, "2_1_C:C_C_C-H_CE1:ND1_CE1_NE2": 1648, "1_4_N:C_N_C-H_NE2:CE1_NE2_CD2": 1649, "1_6_C:C_C_N-V_CG2:CG1_CG2_CA": 1650, "2_6_C:C_C_C-F_O:C_N_CA": 1651, "1_4_C:O_C_C-T_OG1:CA_CG2_OG1": 1652, "2_4_O:C_O_C-F_CE1:CD1_CE1_CZ": 1653, "1_1_O:O_O_C-V_CG1:CA_CG1_CG2": 1654, "1_6_C:C_C_N-Y_OH:CE1_OH_CE2": 1655, "1_3_C:C_C_C-D_OD1:CB_OD1_OD2": 1656, "2_6_N:C_N_N-V_CG2:CG1_CG2_CA": 1657, "1_1_O:O_O_O-S_O:C_N_CA": 1658, "2_6_N:C_N_C-M_CG:CB_CG_SD": 1659, "1_1_O:C_O_C-L_O:C_N_CA": 1660, "1_6_O:C_O_C-R_CD:CG_CD_NE": 1661, "1_1_O:N_O_C-I_CG2:CB_CG1_CD1": 1662, "_P:P_P_O-": 1663, "2_6_O:C_O_C-D_O:C_N_CA": 1664, "2_3_C:N_C_C-F_CE2:CZ_CE2_CD2": 1665, "2_1_O:N_O_C-S_O:C_N_CA": 1666, "1_1_O:O_O_O-R_NE:CD_NE_CZ": 1667, "2_O:C_O_O-": 1668, "2_6_N:C_N_C-K_CD:CG_CD_CE": 1669, "2_1_O:C_O_C-W_CZ3:CE3_CZ3_CH2": 1670, "2_3_C:O_C_C-V_CG2:CG1_CG2_CA": 1671, "2_1_L:C_L": 1672, "2_1_O:O_O_O-I_O:C_N_CA": 1673, "1_2_C:C_C_C-D_OD1:CB_OD1_OD2": 1674, "1_1_O:N_O_C-T_OG1:CA_CG2_OG1": 1675, "2_1_C:C_C_C-R_NH2:NH1_NH2_NE": 1676, "1AGL": 1677, "2_1_C:C_C_C-Y_CD2:CE2_CD2_CG": 1678, "2_4_C:N_C_C-R_CD:CG_CD_NE": 1679, "2_1_L:C_L_C-L_CD2:CD1_CD2_CB": 1680, "2_1_O:O_O_C-W_CH2:CZ3_CH2_CZ2": 1681, "1_4_C:N_C_C-T_O:C_N_CA": 1682, "1_6_C:C_C_C-P_CD:N_CD_CG": 1683, "1_2_C:C_C_C-G_O:C_N_CA": 1684, "2_2_N:C_N_C-D_OD2:OD1_OD2_CB": 1685, ":S_O": 1686, "1_3_C:C_C_C-M_CG:CB_CG_SD": 1687, "2_6_N:C_N_C-P_CG:CD_CG_CB": 1688, "1_1_O:O_O_C-S_O:C_N_CA": 1689, "2_6_O:C_O_C-K_CD:CG_CD_CE": 1690, "1_1_O:O_O_O-L_CD2:CD1_CD2_CB": 1691, "2_6_N:C_N_C-P_CB:CG_CB_CA": 1692, "1_6_C:C_C_C-H_ND1:CG_ND1_CE1": 1693, "1_4_N:C_N_C-M_O:C_N_CA": 1694, "1_1_O:O_O_C-G_CA:N_CA_C": 1695, "1_6_O:C_O_C-M_SD:CG_SD_SD": 1696, "2_1_O:C_O_C-W_CH2:CZ3_CH2_CZ2": 1697, "1_1_O:C_O_C-T_O:C_N_CA": 1698, "2_1_C:N_C_C-G_CA:N_CA_C": 1699, "2_6_C:C_C_L-L_CD2:CD1_CD2_CB": 1700, "2_1_O:C_O_C-K_NZ:NZ_CE_CD": 1701, "1_2_N:C_N_C-V_CG1:CA_CG1_CG2": 1702, "HR": 1703, "2_4_C:N_C_C-I_O:C_N_CA": 1704, "1_6_C:C_C_N-G_O:C_N_CA": 1705, "2_5_C:N_C_N-": 1706, "1_6_C:C_C_N-V_CG1:CA_CG1_CG2": 1707, "1_6_C:C_C_C-R_CG:CB_CG_CD": 1708, "1_1_O:O_O_O-L_CD1:CB_CD1_CD2": 1709, "1_1_C:C_C_C-L_O:C_N_CA": 1710, "1_6_C:C_C_C-Y_O:C_N_CA": 1711, "1_1_F:F_F_F-L_CD2:CD1_CD2_CB": 1712, "2_3_N:C_N_C-G_CA:N_CA_C": 1713, "1_6_O:C_O_C-S_O:C_N_CA": 1714, "2_4_N:C_N_C-Y_CD2:CE2_CD2_CG": 1715, "1_5_N:C_N_C-V_CG2:CG1_CG2_CA": 1716, "1_6_C:N_C_C-L_CD2:CD1_CD2_CB": 1717, "2_6_C:C_C_L-G_CA:N_CA_C": 1718, "1_1_F:F_F_F-L_CD1:CB_CD1_CD2": 1719, "1AT": 1720, "1_2_N:C_N_C-D_OD2:OD1_OD2_CB": 1721, "2_1_C:C_C_C-P_CG:CD_CG_CB": 1722, "2_1_O:C_O_C-E_OE1:CG_OE1_OE2": 1723, "2_2_N:C_N_N-": 1724, "2_1_C:S_C_N-": 1725, "2_1_O:C_O_C-T_OG1:CA_CG2_OG1": 1726, "2_3_C:C_C_C-H_NE2:CE1_NE2_CD2": 1727, "2_3_C:N_C_C-E_OE2:OE1_OE2_CG": 1728, "2_4_N:C_N_O-": 1729, "2_6_N:C_N_C-T_OG1:CA_CG2_OG1": 1730, "2_4_C:N_C_C-R_NH1:NE_NH1_NH2": 1731, "1_1_O:O_O_O-I_CG2:CB_CG1_CD1": 1732, "2_2_C:C_C_C-V_CG2:CG1_CG2_CA": 1733, "2_1_O:O_O_O-A_CB:N_CA_C": 1734, "1_4_C:N_C_C-P_O:C_N_CA": 1735, "2_4_O:C_O_C-G_O:C_N_CA": 1736, "2_2_C:O_C_O-": 1737, "1_4_O:C_O_C-T_OG1:CA_CG2_OG1": 1738, "2_6_O:C_O_C-E_OE1:CG_OE1_OE2": 1739, "1_1_O:C_O_C-A_O:C_N_CA": 1740, "1_6_O:C_O_C-L_O:C_N_CA": 1741, "2_6_C:C_C_N-Y_OH:CE1_OH_CE2": 1742, "1_1_N:N_N_C-D_OD1:CB_OD1_OD2": 1743, "2_1_C:C_C_C-M_CG:CB_CG_SD": 1744, "1_4_N:C_N_C-R_O:C_N_CA": 1745, "2_1_C:C_C_C-R_CD:CG_CD_NE": 1746, "2_6_O:C_O_C-K_NZ:NZ_CE_CD": 1747, "1_4_O:C_O_C-M_SD:CG_SD_SD": 1748, "2_1_C:C_C_C-Y_CD1:CG_CD1_CE1": 1749, "2_1_O:O_O_C-R_NE:CD_NE_CZ": 1750, "1ALEU": 1751, "2_6_N:N_N_C-V_CG2:CG1_CG2_CA": 1752, "2_1_O:O_O_C-T_OG1:CA_CG2_OG1": 1753, "2_6_C:C_C_N-V_CG1:CA_CG1_CG2": 1754, "2_1_O:C_O_C-M_CG:CB_CG_SD": 1755, "2_6_N:N_N_N-G_CA:N_CA_C": 1756, "2_1_O:N_O_C-H_CE1:ND1_CE1_NE2": 1757, "_C:O_C_O-": 1758, "1_6_C:C_C_C-R_O:C_N_CA": 1759, "2_6_C:C_C_C-R_O:C_N_CA": 1760, "1_6_C:C_C_C-K_CG:CB_CG_CD": 1761, "2_6_N:C_N_C-Q_NE2:NE2_OE1_CG": 1762, "1_3_C:C_C_C-F_CZ:CE1_CZ_CE2": 1763, "2_6_C:C_C_L-L_CD1:CB_CD1_CD2": 1764, "2_6_C:C_C_C-C_O:C_N_CA": 1765, "1_2_N:C_N_C-L_CD2:CD1_CD2_CB": 1766, "1_6_C:C_C_C-R_NE:CD_NE_CZ": 1767, "2_3_C:N_C_C-Y_CE2:CZ_CE2_CD2": 1768, "2_6_O:C_O_C-P_CB:CG_CB_CA": 1769, "2_6_O:C_O_C-I_CD1:CD1_CG1_CB": 1770, "2_4_C:N_C_C-N_ND2:OD1_ND2_CB": 1771, "1_6_C:C_C_C-M_CB:CA_CB_CG": 1772, "2_6_C:N_C_C-Y_OH:CE1_OH_CE2": 1773, "1_1_O:O_O_O-N_OD1:CB_OD1_ND2": 1774, "2_4_O:C_O_C-F_CE2:CZ_CE2_CD2": 1775, "_B-": 1776, "2_1_C:C_C_C-H_CD2:NE2_CD2_CG": 1777, "1_4_N:C_N_C-H_O:C_N_CA": 1778, "1_6_C:C_C_C-W_NE1:CE2_NE1_CD2": 1779, "1_4_O:C_O_C-K_CE:CD_CE_NZ": 1780, "2_1_C:C_C_S-": 1781, "2_1_O:N_O_C-Y_CD1:CG_CD1_CE1": 1782, "2_6_O:C_O_C-Y_CD2:CE2_CD2_CG": 1783, "1_4_O:C_O_C-D_OD1:CB_OD1_OD2": 1784, "2_6_C:C_C_S-L_CD1:CB_CD1_CD2": 1785, "1_6_O:C_O_C-Q_OE1:CG_OE1_NE2": 1786, "2_4_C:N_C_C-H_CE1:ND1_CE1_NE2": 1787, "2_1_C:C_C_C-F_CD2:CE2_CD2_CG": 1788, "1_2_C:O_C_O-": 1789, "1_1_C:C_C_C-G_CA:N_CA_C": 1790, "1_4_N:C_N_C-P_CD:N_CD_CG": 1791, ":N_F_C-": 1792, "2_3_C:O_C_C-F_CZ:CE1_CZ_CE2": 1793, "2_1_O:O_O_O-E_OE1:CG_OE1_OE2": 1794, "1_1_C:C_C_C-N_OD1:CB_OD1_ND2": 1795, "1_4_C:N_C_C-M_O:C_N_CA": 1796, "1_1_O:O_O_O-V_CG2:CG1_CG2_CA": 1797, "2_6_N:C_N_C-R_NE:CD_NE_CZ": 1798, "2_1_O:C_O_C-P_CG:CD_CG_CB": 1799, "1_4_N:C_N_O-": 1800, "2_6_O:C_O_C-R_NE:CD_NE_CZ": 1801, "2_6_O:C_O_C-Y_CD1:CG_CD1_CE1": 1802, "2_6_O:C_O_C-M_CG:CB_CG_SD": 1803, "RP": 1804, "2_4_C:N_C_N-D_OD2:OD1_OD2_CB": 1805, "1_6_O:C_O_C-A_O:C_N_CA": 1806, "1_6_C:C_C_N-D_OD2:OD1_OD2_CB": 1807, "1_3_O:C_O_C-G_CA:N_CA_C": 1808, "2_3_N:N_N_C-G_CA:N_CA_C": 1809, "1_6_O:C_O_C-I_O:C_N_CA": 1810, "2_2_N:C_N_C-L_CD2:CD1_CD2_CB": 1811, "2_1_F:F_F_F-L_CD2:CD1_CD2_CB": 1812, "2_6_N:C_N_C-W_CH2:CZ3_CH2_CZ2": 1813, "2_1_O:C_O_C-Y_CD1:CG_CD1_CE1": 1814, "2_1_C:C_C_C-W_CZ2:CH2_CZ2_CE2": 1815, "1_4_N:C_N_C-R_NE:CD_NE_CZ": 1816, "2_4_C:O_C_C-G_O:C_N_CA": 1817, "2_1_O:C_O_C-M_CE:CG_SD_CG": 1818, "2_4_O:C_O_C-T_CG2:CG2_OG1_CA": 1819, "1_1_O:O_O_C-Q_OE1:CG_OE1_NE2": 1820, "2_6_O:C_O_C-R_CD:CG_CD_NE": 1821, "1_3_O:C_O_P-D_OD2:OD1_OD2_CB": 1822, "_S:C_S_S-": 1823, "2_4_C:N_C_C-I_CD1:CD1_CG1_CB": 1824, "2_6_C:C_C_S-V_CG2:CG1_CG2_CA": 1825, "2_1_O:C_O_C-M_SD:CG_SD_SD": 1826, "2_1_O:O_O_C-A_O:C_N_CA": 1827, "2_4_N:C_N_C-I_CG2:CB_CG1_CD1": 1828, "2_2_C:C_C_C-M_CG:CB_CG_SD": 1829, "1_1_C:C_C_C-A_O:C_N_CA": 1830, ":P_C_C-": 1831, "2AA": 1832, "2_1_O:O_O_C-R_CD:CG_CD_NE": 1833, "2_4_N:C_N_C-T_O:C_N_CA": 1834, "2_6_N:C_N_C-R_CD:CG_CD_NE": 1835, "2_4_N:N_N_N-": 1836, "1_1_O:C_O_C-R_CD:CG_CD_NE": 1837, "1_6_O:O_O_O-D_OD2:OD1_OD2_CB": 1838, "1_3_O:C_O_C-V_CG1:CA_CG1_CG2": 1839, "1_4_N:C_N_C-W_CZ3:CE3_CZ3_CH2": 1840, "1_3_C:N_C_C-Q_OE1:CG_OE1_NE2": 1841, "2_1_O:O_O_C-W_CZ2:CH2_CZ2_CE2": 1842, "2_6_C:C_C_C-W_CD1:NE1_CD1_CG": 1843, "1_3_N:N_N_C-L_CD1:CB_CD1_CD2": 1844, "1_6_O:O_O_O-D_OD1:CB_OD1_OD2": 1845, "2_1_O:C_O_C-R_NE:CD_NE_CZ": 1846, "1_1_O:C_O_C-H_CE1:ND1_CE1_NE2": 1847, "2_6_O:C_O_C-P_CG:CD_CG_CB": 1848, "1_2_N:C_N_C-A_CB:N_CA_C": 1849, "1_1_O:O_O_C-L_O:C_N_CA": 1850, "2_6_N:C_N_N-L_CD1:CB_CD1_CD2": 1851, "2_6_N:C_N_N-D_OD2:OD1_OD2_CB": 1852, "2_6_N:C_N_C-F_CD2:CE2_CD2_CG": 1853, "2_6_O:C_O_C-M_SD:CG_SD_SD": 1854, "2_1_O:N_O_C-P_CG:CD_CG_CB": 1855, "2_6_C:C_C_C-N_O:C_N_CA": 1856, "2_6_C:C_C_L-V_CG2:CG1_CG2_CA": 1857, "1_1_O:O_O_N-G_O:C_N_CA": 1858, "1_6_O:N_O_C-G_O:C_N_CA": 1859, "2_1_O:C_O_C-I_O:C_N_CA": 1860, "1_6_O:N_O_C-D_OD1:CB_OD1_OD2": 1861, "2_1_O:N_O_C-Y_CD2:CE2_CD2_CG": 1862, "2_1_O:C_O_C-R_CD:CG_CD_NE": 1863, "2_3_C:C_C_C-T_CG2:CG2_OG1_CA": 1864, "2_4_C:C_C_C-H_O:C_N_CA": 1865, "2_4_C:N_C_C-M_CE:CG_SD_CG": 1866, "1_3_C:C_C_C-E_OE2:OE1_OE2_CG": 1867, "2_4_C:N_C_C-P_CB:CG_CB_CA": 1868, "2_6_N:C_N_C-W_CZ3:CE3_CZ3_CH2": 1869, "1_3_C:C_C_C-F_CE2:CZ_CE2_CD2": 1870, "2_3_O:P_O_P-D_OD2:OD1_OD2_CB": 1871, "2_1_N:N_N_C-G_O:C_N_CA": 1872, "2_3_O:C_O_P-D_OD2:OD1_OD2_CB": 1873, "2_3_C:N_C_C-T_CG2:CG2_OG1_CA": 1874, "2_1_C:N_C_C-L_CD2:CD1_CD2_CB": 1875, "1_1_O:N_O_C-E_OE2:OE1_OE2_CG": 1876, "2_1_C:C_C_C-K_CD:CG_CD_CE": 1877, "1_4_C:N_C_N-D_OD1:CB_OD1_OD2": 1878, "_O:O_O_C-": 1879, "1_4_C:N_C_C-D_O:C_N_CA": 1880, "1_1_O:O_O_O-A_O:C_N_CA": 1881, "L:O_": 1882, "1_6_N:C_N_N-L_CD1:CB_CD1_CD2": 1883, "1_1_O:O_O_O-T_O:C_N_CA": 1884, "2_6_N:N_N_C-L_CD1:CB_CD1_CD2": 1885, "1_3_C:C_C_C-F_CE1:CD1_CE1_CZ": 1886, "1_4_C:N_C_C-V_O:C_N_CA": 1887, "1_6_O:C_O_N-": 1888, "1_1_C:S_C_N-": 1889, "2_1_O:O_O_C-H_CD2:NE2_CD2_CG": 1890, "2_1_O:N_O_C-D_O:C_N_CA": 1891, "2_6_O:C_O_C-A_O:C_N_CA": 1892, "1_1_C:N_C_N-": 1893, "2_4_C:N_C_C-Q_NE2:NE2_OE1_CG": 1894, "2_2_N:C_N_C-V_CG2:CG1_CG2_CA": 1895, "2_6_O:N_O_C-L_CD1:CB_CD1_CD2": 1896, "2_4_C:N_C_C-W_CZ3:CE3_CZ3_CH2": 1897, "2_3_C:O_C_C-T_CG2:CG2_OG1_CA": 1898, "1_1_O:O_O_C-K_CD:CG_CD_CE": 1899, "2_6_O:O_O_O-R_NH2:NH1_NH2_NE": 1900, "2_3_C:C_C_C-Y_CE2:CZ_CE2_CD2": 1901, "1_4_C:O_C_C-R_NH2:NH1_NH2_NE": 1902, "1_1_O:N_O_O-": 1903, "1_4_C:N_C_N-L_CD1:CB_CD1_CD2": 1904, "2_4_N:C_N_C-K_CB:CA_CB_CG": 1905, "1_6_N:N_N_C-L_CD1:CB_CD1_CD2": 1906, "2_1_C:C_C_C-I_CD1:CD1_CG1_CB": 1907, "1_3_C:N_C_C-F_CZ:CE1_CZ_CE2": 1908, "2_4_C:N_C_C-M_CG:CB_CG_SD": 1909, "1_1_O:O_O_N-L_CD2:CD1_CD2_CB": 1910, "2_6_N:C_N_C-A_O:C_N_CA": 1911, "1_6_C:C_C_C-W_CD1:NE1_CD1_CG": 1912, "1_6_O:N_O_C-L_CD1:CB_CD1_CD2": 1913, "1_6_C:C_C_N-I_CG2:CB_CG1_CD1": 1914, "2_1_C:C_C_C-P_CB:CG_CB_CA": 1915, "1_6_O:N_O_C-D_OD2:OD1_OD2_CB": 1916, "1_1_O:O_O_C-I_CG2:CB_CG1_CD1": 1917, "1_4_N:C_N_C-N_O:C_N_CA": 1918, "1_3_C:C_C_C-E_OE1:CG_OE1_OE2": 1919, "2_4_C:O_C_C-S_OG:OG_CB_CA": 1920, "2_4_C:N_C_C-W_CH2:CZ3_CH2_CZ2": 1921, "1_6_C:C_C_C-W_O:C_N_CA": 1922, "1_6_C:C_C_C-K_CB:CA_CB_CG": 1923, "1_3_C:N_C_C-F_CE1:CD1_CE1_CZ": 1924, "1_6_C:C_C_S-L_CD1:CB_CD1_CD2": 1925, "1_1_C:S_C_C-": 1926, "1_3_C:N_C_C-N_ND2:OD1_ND2_CB": 1927, "_N:C_N_L-": 1928, "2_6_N:N_N_N-D_OD2:OD1_OD2_CB": 1929, ":C_F_F-": 1930, "1_4_C:N_C_N-Y_OH:CE1_OH_CE2": 1931, "2_1_O:C_O_C-I_CD1:CD1_CG1_CB": 1932, "2_4_N:C_N_C-R_CG:CB_CG_CD": 1933, "2_3_C:N_C_C-H_NE2:CE1_NE2_CD2": 1934, "2_1_O:O_O_C-E_OE1:CG_OE1_OE2": 1935, "1_1_C:C_C_C-R_NH1:NE_NH1_NH2": 1936, "1_4_N:C_N_C-P_CB:CG_CB_CA": 1937, "2_6_C:N_C_C-G_O:C_N_CA": 1938, "1_6_N": 1939, "2_6_N:C_N_C-K_NZ:NZ_CE_CD": 1940, "2_1_L:C_L_C-V_CG2:CG1_CG2_CA": 1941, "L:O_L_C-": 1942, "1_6_O:N_O_C-V_CG1:CA_CG1_CG2": 1943, "2_1_O:O_O_N-D_OD2:OD1_OD2_CB": 1944, "1_4_N:C_N_C-W_CZ2:CH2_CZ2_CE2": 1945, "1_4_C:O_C_C-I_CG2:CB_CG1_CD1": 1946, "2_4_C:N_C_C-Y_CD2:CE2_CD2_CG": 1947, "1_4_C:O_C_C-R_NH1:NE_NH1_NH2": 1948, "2_1_C:O_C_C-L_CD1:CB_CD1_CD2": 1949, "_P:O": 1950, "2_1_L:C_L_C-L_CD1:CB_CD1_CD2": 1951, "2_1_O:N_O_C-W_CZ3:CE3_CZ3_CH2": 1952, "1_3_C:O_C_C-E_OE2:OE1_OE2_CG": 1953, "2_4_N:C_N_C-K_NZ:NZ_CE_CD": 1954, "2_1_O:O_O_N-G_O:C_N_CA": 1955, "1_1_C:C_C_C-E_OE2:OE1_OE2_CG": 1956, "1_6_O:C_O_C-Y_CE1:CD1_CE1_CZ": 1957, "2_1_N:N_N_S-": 1958, "2_1_O:O_O_O-R_O:C_N_CA": 1959, "1_6_N:C_N_C-Y_CE2:CZ_CE2_CD2": 1960, "2_1_O:C_O_C-D_O:C_N_CA": 1961, "2_6_O:C_O_O-": 1962, "2_2_C:C_C_C-L_CD1:CB_CD1_CD2": 1963, "2_1_O:O_O_C-F_CD1:CG_CD1_CE1": 1964, "2_1_C:C_C_C-M_CE:CG_SD_CG": 1965, "2_4_C:N_C_C-F_CD2:CE2_CD2_CG": 1966, "1_2_N:C_N_C-D_OD1:CB_OD1_OD2": 1967, "1_3_C:N_C_C-E_O:C_N_CA": 1968, "_F:F_F_C-": 1969, "2_3_O:C_O_C-G_O:C_N_CA": 1970, "1_6_N:C_N_C-F_CZ:CE1_CZ_CE2": 1971, "1_3_N:C_N_C-D_OD1:CB_OD1_OD2": 1972, "2_1_O:N_O_C-F_CD1:CG_CD1_CE1": 1973, "2_1_O:C_O_C-P_CB:CG_CB_CA": 1974, "2_3_N:P_N_P-": 1975, "1_6_O:C_O_C-K_CD:CG_CD_CE": 1976, "2_1_O:O_O_N-L_CD2:CD1_CD2_CB": 1977, "2_1_O:C_O_C-Y_CD2:CE2_CD2_CG": 1978, "2_6_O:C_O_C-H_CD2:NE2_CD2_CG": 1979, "1_4_C:N_C_C-H_NE2:CE1_NE2_CD2": 1980, "2_4_C:O_C_C-Y_OH:CE1_OH_CE2": 1981, "2_1_O:C_O_C-A_O:C_N_CA": 1982, "1_1_C:C_C_C-E_OE1:CG_OE1_OE2": 1983, "2_6_C:N_C_C-F_CE2:CZ_CE2_CD2": 1984, "2_1_O:O_O_O-N_OD1:CB_OD1_ND2": 1985, "2_1_O:N_O_C-W_CH2:CZ3_CH2_CZ2": 1986, "1_4_C:N_C_C-I_O:C_N_CA": 1987, "1_1_O:O_O_O-R_CD:CG_CD_NE": 1988, "1_6_N:C_N_O-": 1989, "2_3_C:N_C_C-Y_CE1:CD1_CE1_CZ": 1990, "2_1_C:C_C_C-E_OE1:CG_OE1_OE2": 1991, "1_3_N:N_N_C-A_CB:N_CA_C": 1992, "2_1_C:S_C_C-": 1993, "2_3_C:O_C_C-L_CD1:CB_CD1_CD2": 1994, "2_6_N:N_N_C-D_OD2:OD1_OD2_CB": 1995, "1_6_C:N_C_C-D_OD2:OD1_OD2_CB": 1996, "1_6_N:C_N_C-Y_CE1:CD1_CE1_CZ": 1997, "2_6_N:C_N_C-I_CD1:CD1_CG1_CB": 1998, "1_4_N:C_N_C-M_CG:CB_CG_SD": 1999, "2_1_O:N_O_C-K_CD:CG_CD_CE": 2000, "2_1_O:N_O_C-N_OD1:CB_OD1_ND2": 2001, "1_4_C:N_C_C-K_O:C_N_CA": 2002, "2_1_C:C_C_C-N_ND2:OD1_ND2_CB": 2003, "2_5_N:C_N_C-V_CG2:CG1_CG2_CA": 2004, "2_6_O:O_O_O-G_O:C_N_CA": 2005, ":O_F": 2006, "1_3_O:C_O_C-D_OD1:CB_OD1_OD2": 2007, "2_6_C:C_C_N-Y_CE2:CZ_CE2_CD2": 2008, "1_6_O:C_O_C-F_CD1:CG_CD1_CE1": 2009, "1_6_C:N_C_N-": 2010, "1_2_N:C_N_C-Y_OH:CE1_OH_CE2": 2011, ":N_C_S-": 2012, "2_6_N:C_N_C-M_CB:CA_CB_CG": 2013, "1_6_C:C_C_N-D_OD1:CB_OD1_OD2": 2014, "1_1_C:C_C_C-M_SD:CG_SD_SD": 2015, "1_5_N:C_N_C-G_CA:N_CA_C": 2016, "1_5_N:C_N_C-A_CB:N_CA_C": 2017, "1_6_N:C_N_C-K_CD:CG_CD_CE": 2018, "2_3_O:P_O_P-R_NH2:NH1_NH2_NE": 2019, "2_2_C:C_C_C-S_OG:OG_CB_CA": 2020, "1_3_C:C_C_C-Y_CE2:CZ_CE2_CD2": 2021, "2_4_C:N_C_C-Y_CD1:CG_CD1_CE1": 2022, "1_1_O:N_O_C-E_OE1:CG_OE1_OE2": 2023, "1_6_C:N_C_C-G_O:C_N_CA": 2024, "2_4_N:C_N_C-W_CZ2:CH2_CZ2_CE2": 2025, "2_1_O:O_O_C-P_CG:CD_CG_CB": 2026, "2_1_O:O_O_C-V_CG1:CA_CG1_CG2": 2027, "S:N_S_C-": 2028, "1_6_O:N_O_C-G_CA:N_CA_C": 2029, "1_3_C:N_C_C-Y_CE1:CD1_CE1_CZ": 2030, "1_3_C:O_C_C-N_OD1:CB_OD1_ND2": 2031, "1_3_C:C_C_C-N_OD1:CB_OD1_ND2": 2032, "2_3_C:O_C_C-F_CE1:CD1_CE1_CZ": 2033, "1_3_C:C_C_C-Q_OE1:CG_OE1_NE2": 2034, "1_1_O:C_O_C-Q_OE1:CG_OE1_NE2": 2035, "1_1_O:C_O_C-M_SD:CG_SD_SD": 2036, "1_4_C:N_C_N-A_CB:N_CA_C": 2037, "1_1_O:O_O_C-H_NE2:CE1_NE2_CD2": 2038, "2_1_O:N_O_C-V_CG1:CA_CG1_CG2": 2039, "2_4_C:N_C_C-M_SD:CG_SD_SD": 2040, "1_1_O:O_O_C-R_NE:CD_NE_CZ": 2041, "1_3_C:N_C_C-R_NH1:NE_NH1_NH2": 2042, "HE": 2043, "PHE": 2044, "2_6_C:C_C_N-F_CD1:CG_CD1_CE1": 2045, "1_4_O:C_O_C-F_CZ:CE1_CZ_CE2": 2046, "1_1_N:N_N_C-D_OD2:OD1_OD2_CB": 2047, "1_2_N:C_N_C-G_O:C_N_CA": 2048, "1_3_N:C_N_C-D_OD2:OD1_OD2_CB": 2049, "2_1_F:F_F_F-G_CA:N_CA_C": 2050, "2_1_O:O_O_O-F_CZ:CE1_CZ_CE2": 2051, "1_4_O:C_O_C-Y_CE1:CD1_CE1_CZ": 2052, "2_1_O:O_O_C-Y_CD1:CG_CD1_CE1": 2053, "1_6_C:C_C_C-Q_O:C_N_CA": 2054, "2_1_O:C_O_C-W_CE3:CD2_CE3_CZ3": 2055, "2_1_O:N_O_C-R_NH1:NE_NH1_NH2": 2056, "1_4_C:O_C_C-E_OE2:OE1_OE2_CG": 2057, "2_4_C:N_C_C-A_O:C_N_CA": 2058, "2_1_F:C_F_C-G_CA:N_CA_C": 2059, "1_3_N:C_N_C-L_CD1:CB_CD1_CD2": 2060, "2_1_L:C_L_C-F_CZ:CE1_CZ_CE2": 2061, "1_3_C:O_C_C-R_NH2:NH1_NH2_NE": 2062, "2_2_C:C_C_C-Y_OH:CE1_OH_CE2": 2063, "2_1_O:C_O_C-P_CD:N_CD_CG": 2064, "1_1_O:N_O_C-N_OD1:CB_OD1_ND2": 2065, "2_3_O:C_O_P-G_CA:N_CA_C": 2066, "1_4_N:C_N_C-R_CG:CB_CG_CD": 2067, "2_1_S:C_S_N-": 2068, "2_4_O:C_O_C-H_NE2:CE1_NE2_CD2": 2069, "1_3_O:P_O_P-D_OD2:OD1_OD2_CB": 2070, "2_1_N:N_N_N-D_OD2:OD1_OD2_CB": 2071, "1_1_F:C_F_C-L_CD1:CB_CD1_CD2": 2072, "2_6_C:C_C_N-Y_CE1:CD1_CE1_CZ": 2073, "1_3_O:C_O_C-G_O:C_N_CA": 2074, "1_6_C:C_C_N-A_CB:N_CA_C": 2075, "1_1_F:C_F_C-L_CD2:CD1_CD2_CB": 2076, "1_3_C:N_C_C-K_CE:CD_CE_NZ": 2077, "1_6_O:C_O_C-H_CE1:ND1_CE1_NE2": 2078, "2_4_N:C_N_C-K_CG:CB_CG_CD": 2079, "_N:C_N_P-": 2080, "1_2_C:C_C_C-G_CA:N_CA_C": 2081, "2_6_O:C_O_C-W_CH2:CZ3_CH2_CZ2": 2082, "1_2_N:C_N_C-G_CA:N_CA_C": 2083, "1_4_N:C_N_C-W_O:C_N_CA": 2084, "1_3_C:O_C_C-M_SD:CG_SD_SD": 2085, "2_6_C:C_C_N-M_CE:CG_SD_CG": 2086, "2_6_N:C_N_C-M_O:C_N_CA": 2087, "1_6_C:C_C_N-G_CA:N_CA_C": 2088, "2_1_O:C_O_C-R_CG:CB_CG_CD": 2089, "2_6_O:C_O_C-I_O:C_N_CA": 2090, "2_1_O:O_O_C-F_CD2:CE2_CD2_CG": 2091, "1_4_C:N_C_C-C_O:C_N_CA": 2092, "1_1_O:N_O_C-A_O:C_N_CA": 2093, "2_4_C:N_C_C-H_CD2:NE2_CD2_CG": 2094, "2_1_O:O_O_C-W_CZ3:CE3_CZ3_CH2": 2095, "1_4_C:O_C_C-N_OD1:CB_OD1_ND2": 2096, "2_6_O:N_O_C-L_CD2:CD1_CD2_CB": 2097, "2_1_O:N_O_C-M_CE:CG_SD_CG": 2098, "1_4_C:N_C_C-W_CZ2:CH2_CZ2_CE2": 2099, "2_4_C:O_C_C-L_CD2:CD1_CD2_CB": 2100, "2_6_C:C_C_N-A_CB:N_CA_C": 2101, "2_3_N:C_N_C-D_OD2:OD1_OD2_CB": 2102, "2_1_C:C_C_C-W_CZ3:CE3_CZ3_CH2": 2103, "2_6_N:N_N_C-G_O:C_N_CA": 2104, "1_4_N:C_N_C-W_CH2:CZ3_CH2_CZ2": 2105, "1_1_N:C_N_N-": 2106, "2_1_F:F_F_F-L_CD1:CB_CD1_CD2": 2107, "1_6_O:C_O_C-F_CE1:CD1_CE1_CZ": 2108, "1_4_C:N_C_C-N_O:C_N_CA": 2109, "1_4_C:N_C_C-W_CH2:CZ3_CH2_CZ2": 2110, "1_1_S:C_S_N-": 2111, "2_6_C:C_C_N-S_OG:OG_CB_CA": 2112, "2_1_O:N_O_C-D_OD1:CB_OD1_OD2": 2113, "2_6_C:N_C_C-Y_CE2:CZ_CE2_CD2": 2114, "2_6_O:C_O_C-I_CG2:CB_CG1_CD1": 2115, "2_1_O:O_O_O-L_CD1:CB_CD1_CD2": 2116, "1_4_C:N_C_C-P_CG:CD_CG_CB": 2117, "2_1_O:N_O_C-P_CB:CG_CB_CA": 2118, "1_1_L:C_L_C-L_CD1:CB_CD1_CD2": 2119, "2_1_O:N_O_C-T_OG1:CA_CG2_OG1": 2120, "2_4_C:N_C_C-P_CD:N_CD_CG": 2121, "2_1_O:N_O_C-H_CD2:NE2_CD2_CG": 2122, "1_3_O:C_O_C-A_CB:N_CA_C": 2123, "2_1_N:N_N_C-L_CD2:CD1_CD2_CB": 2124, "2_6_C:N_C_C-F_CE1:CD1_CE1_CZ": 2125, "1_6_N:C_N_C-F_CE1:CD1_CE1_CZ": 2126, "1_4_C:N_C_C-W_CE3:CD2_CE3_CZ3": 2127, "2_4_N:C_N_C-H_CD2:NE2_CD2_CG": 2128, "1_4_C:N_C_C-H_CE1:ND1_CE1_NE2": 2129, "1_4_C:N_C_N-V_CG2:CG1_CG2_CA": 2130, "1_4_O:C_O_C-F_CE1:CD1_CE1_CZ": 2131, "2_1_N:N_N_N-G_CA:N_CA_C": 2132, "1_3_C:C_C_C-N_ND2:OD1_ND2_CB": 2133, "1_1_C:C_C_C-N_ND2:OD1_ND2_CB": 2134, "2_1_C:C_C_C-M_CB:CA_CB_CG": 2135, "1_3_C:O_C_C-R_NH1:NE_NH1_NH2": 2136, "2_1_N:N_N_C-S_OG:OG_CB_CA": 2137, "1_6_O:C_O_O-": 2138, "1_1_O:O_O_O-V_CG1:CA_CG1_CG2": 2139, "1_3_C:O_C_C-E_OE1:CG_OE1_OE2": 2140, "1_3_C:N_C_C-Y_CE2:CZ_CE2_CD2": 2141, "2_1_C:C_C_C-I_CG2:CB_CG1_CD1": 2142, "2_4_O:C_O_C-Y_CE2:CZ_CE2_CD2": 2143, "1_1_C:C_C_C-R_NH2:NH1_NH2_NE": 2144, "1_4_O:C_O_C-Q_OE1:CG_OE1_NE2": 2145, "1_4_C:N_C_C-M_CG:CB_CG_SD": 2146, "2_6_N:C_N_C-I_O:C_N_CA": 2147, "1_4_O:C_O_C-N_OD1:CB_OD1_ND2": 2148, "1_4_N:C_N_C-W_NE1:CE2_NE1_CD2": 2149, "2_4_C:O_C_C-T_CG2:CG2_OG1_CA": 2150, "1_1_O:C_O_C-K_CD:CG_CD_CE": 2151, "2_3_O:C_O_P-G_O:C_N_CA": 2152, "1_1_O:C_O_C-E_O:C_N_CA": 2153, "2_6_N:C_N_C-L_O:C_N_CA": 2154, "1_3_O:C_O_C-V_CG2:CG1_CG2_CA": 2155, "2_3_C:O_C_C-F_CE2:CZ_CE2_CD2": 2156, ":N_O_S-": 2157, "1_6_O:C_O_C-V_O:C_N_CA": 2158, "1_5_N:C_N_C-D_OD2:OD1_OD2_CB": 2159, "2_6_C:C_C_S-F_CZ:CE1_CZ_CE2": 2160, "1_4_O:C_O_C-N_ND2:OD1_ND2_CB": 2161, "2_1_O:O_O_O-H_CD2:NE2_CD2_CG": 2162, "1_3_C:N_C_C-R_NH2:NH1_NH2_NE": 2163, "1_4_C:O_C_C-E_OE1:CG_OE1_OE2": 2164, "1_4_O:C_O_C-E_OE2:OE1_OE2_CG": 2165, "1_4_C:N_C_C-F_O:C_N_CA": 2166, "2_6_N:N_N_N-L_CD2:CD1_CD2_CB": 2167, "1_3_C:C_C_C-H_NE2:CE1_NE2_CD2": 2168, "1_3_C:N_C_C-L_O:C_N_CA": 2169, "2_4_N:C_N_C-W_NE1:CE2_NE1_CD2": 2170, "2_6_C:C_C_N-E_OE2:OE1_OE2_CG": 2171, "1_6_O:C_O_C-Y_CE2:CZ_CE2_CD2": 2172, "1_1_O:C_O_C-H_NE2:CE1_NE2_CD2": 2173, "2_1_C:C_C_C-D_O:C_N_CA": 2174, "1_1_O:O_O_N-L_CD1:CB_CD1_CD2": 2175, "1_1_O:O_O_O-Q_OE1:CG_OE1_NE2": 2176, "2_1_C:C_C_O-": 2177, "1_3_C:C_C_C-F_CD1:CG_CD1_CE1": 2178, "2_4_C:N_C_C-I_CG2:CB_CG1_CD1": 2179, "2_2_C:C_C_C-G_O:C_N_CA": 2180, "2_6_C:C_C_S-D_OD2:OD1_OD2_CB": 2181, "1_6_O:O_O_O-R_NH1:NE_NH1_NH2": 2182, "1_1_O:O_O_C-T_O:C_N_CA": 2183, "1_6_O:C_O_C-F_CZ:CE1_CZ_CE2": 2184, "1_4_N:C_N_C-M_CB:CA_CB_CG": 2185, "2_4_C:C_C_C-P_O:C_N_CA": 2186, "1_6_N:C_N_C-P_O:C_N_CA": 2187, "2_1_C:C_C_C-D_OD1:CB_OD1_OD2": 2188, "2_3_C:N_C_C-S_O:C_N_CA": 2189, "1_1_O:C_O_C-F_O:C_N_CA": 2190, "1_4_N:C_N_C-C_O:C_N_CA": 2191, ":P_C_O-": 2192, "2_6_N:C_N_C-H_CD2:NE2_CD2_CG": 2193, "1_3_C:C_C_C-F_CD2:CE2_CD2_CG": 2194, "2_3_C:C_C_C-Y_CE1:CD1_CE1_CZ": 2195, ":CA_CG": 2196, "2_3_C:N_C_C-F_CD1:CG_CD1_CE1": 2197, "2_4_O:C_O_C-E_OE2:OE1_OE2_CG": 2198, "2_1_O:O_O_O-V_O:C_N_CA": 2199, "2_6_O:C_O_C-R_CG:CB_CG_CD": 2200, "1_6_O:C_O_C-T_O:C_N_CA": 2201, "2_1_O:N_O_C-A_O:C_N_CA": 2202, "2_1_O:O_O_C-D_OD1:CB_OD1_OD2": 2203, "2_4_N:C_N_C-E_O:C_N_CA": 2204, "2_4_O:C_O_C-F_CD1:CG_CD1_CE1": 2205, "2_1_N:N_N_C-L_CD1:CB_CD1_CD2": 2206, "2_1_N:N_N_C-Y_OH:CE1_OH_CE2": 2207, "1_2_C:C_C_C-M_SD:CG_SD_SD": 2208, "2_4_C:N_C_N-V_CG2:CG1_CG2_CA": 2209, "1_5_N:C_N_C-G_O:C_N_CA": 2210, "1_1_O:O_O_C-H_CE1:ND1_CE1_NE2": 2211, "2_1_O:O_O_C-R_CG:CB_CG_CD": 2212, "2_1_O:O_O_O-F_CE1:CD1_CE1_CZ": 2213, "2_6_O:C_O_C-W_CZ3:CE3_CZ3_CH2": 2214, "2_1_O:O_O_C-P_CB:CG_CB_CA": 2215, "2_6_C:N_C_C-H_NE2:CE1_NE2_CD2": 2216, "2_4_C:N_C_C-W_CZ2:CH2_CZ2_CE2": 2217, "2_3_O:C_O_C-T_CG2:CG2_OG1_CA": 2218, "YR": 2219, "2_3_C:O_C_C-Y_CE2:CZ_CE2_CD2": 2220, "2_1_O:O_O_O-T_OG1:CA_CG2_OG1": 2221, "1_1_L:C_L_C-L_CD2:CD1_CD2_CB": 2222, "1_4_C:N_C_C-W_CZ3:CE3_CZ3_CH2": 2223, "1_3_C:O_C_C-F_CZ:CE1_CZ_CE2": 2224, "1_3_N:N_N_C-L_CD2:CD1_CD2_CB": 2225, "1_4_N:C_N_C-K_CG:CB_CG_CD": 2226, "1_6_C:N_C_C-V_CG1:CA_CG1_CG2": 2227, "1_4_C:O_C_C-N_ND2:OD1_ND2_CB": 2228, "2_4_C:O_C_C-V_CG2:CG1_CG2_CA": 2229, "2_6_N:C_N_C-P_CD:N_CD_CG": 2230, "2_6_C:C_C_N-T_OG1:CA_CG2_OG1": 2231, "2_1_C:N_C_C-V_CG2:CG1_CG2_CA": 2232, "1_3_C:C_C_C-Y_CE1:CD1_CE1_CZ": 2233, "1_1_L:N_L_C-": 2234, "1_2_C:C_C_C-T_OG1:CA_CG2_OG1": 2235, "1_3_N:P_N_P-": 2236, "2_6_O:C_O_C-M_CB:CA_CB_CG": 2237, "2_1_O:O_O_O-Q_NE2:NE2_OE1_CG": 2238, ":L": 2239, "1_4_C:N_C_N-T_OG1:CA_CG2_OG1": 2240, "1AASP": 2241, "2_1_S:N_S_N-": 2242, "1_3_O:C_O_C-L_CD1:CB_CD1_CD2": 2243, "1_6_O:C_O_C-Y_CD2:CE2_CD2_CG": 2244, "2_3_C:N_C_C-D_OD1:CB_OD1_OD2": 2245, "1_3_C:O_C_C-Y_CE2:CZ_CE2_CD2": 2246, "2_5_N:C_N_C-G_O:C_N_CA": 2247, "1_6_C:C_C_S-L_CD2:CD1_CD2_CB": 2248, "2_1_O:O_O_O-F_CE2:CZ_CE2_CD2": 2249, "2_2_O:C_O_C-G_CA:N_CA_C": 2250, "1_1_O:N_O_C-K_CD:CG_CD_CE": 2251, "1_1_C:C_C_C-Q_OE1:CG_OE1_NE2": 2252, "1_6_O:N_O_C-V_CG2:CG1_CG2_CA": 2253, "2_4_N:C_N_C-K_O:C_N_CA": 2254, "2_2_C:C_C_C-F_CZ:CE1_CZ_CE2": 2255, "1_4_O:C_O_C-F_CE2:CZ_CE2_CD2": 2256, "2_4_N:C_N_C-Y_O:C_N_CA": 2257, "1_3_C:O_C_C-F_CE1:CD1_CE1_CZ": 2258, "2_2_N:C_N_C-G_O:C_N_CA": 2259, "1_4_C:N_C_C-R_CD:CG_CD_NE": 2260, "S:C_S_O-": 2261, "1_1_O:N_O_C-L_O:C_N_CA": 2262, "1_2_C:C_C_S-": 2263, "2_4_N:C_N_C-Q_OE1:CG_OE1_NE2": 2264, "1AHIS": 2265, "2_1_O:C_O_C-M_CB:CA_CB_CG": 2266, "2_6_C:C_C_N-D_OD1:CB_OD1_OD2": 2267, "1_3_C:N_C_C-F_CE2:CZ_CE2_CD2": 2268, "1_4_N:C_N_C-W_CE3:CD2_CE3_CZ3": 2269, "1_4_C:N_C_N-L_CD2:CD1_CD2_CB": 2270, "2_4_C:N_C_N-L_CD2:CD1_CD2_CB": 2271, "2_6_C:C_C_N-N_OD1:CB_OD1_ND2": 2272, "2_1_O:O_O_C-Q_NE2:NE2_OE1_CG": 2273, "1_4_C:N_C_C-P_CB:CG_CB_CA": 2274, "2_1_O:O_O_C-L_O:C_N_CA": 2275, "1_6_N:N_N_C-L_CD2:CD1_CD2_CB": 2276, "1_1_C:N_C_C-L_CD2:CD1_CD2_CB": 2277, "1_1_L:C_L": 2278, "2_0_P:P_P_O-": 2279, "2_1_C:O_C_C-L_CD2:CD1_CD2_CB": 2280, "2_4_C:N_C_C-E_O:C_N_CA": 2281, "2_1_C:C_C_C-K_CB:CA_CB_CG": 2282, "2ATHR": 2283, "1_3_C:N_C_C-F_CD1:CG_CD1_CE1": 2284, "2_1_O:C_O_C-H_CD2:NE2_CD2_CG": 2285, "1_2_N:C_N_C-V_CG2:CG1_CG2_CA": 2286, "1_6_C:N_C_C-V_CG2:CG1_CG2_CA": 2287, "2_6_C:N_C_C-Y_CE1:CD1_CE1_CZ": 2288, "2_1_C:C_C_C-M_SD:CG_SD_SD": 2289, "1_3_O:C_O_C-Y_OH:CE1_OH_CE2": 2290, "2_1_O:C_O_C-W_CZ2:CH2_CZ2_CE2": 2291, "1_6_N:C_N_C-F_CE2:CZ_CE2_CD2": 2292, "2_1_O:O_O_C-N_OD1:CB_OD1_ND2": 2293, "1_6_O:C_O_C-F_CE2:CZ_CE2_CD2": 2294, ":C_N_O-": 2295, "2_1_O:C_O_C-Q_NE2:NE2_OE1_CG": 2296, "2_4_O:C_O_C-D_O:C_N_CA": 2297, "1_4_O:C_O_S-": 2298, "2_6_C:C_C_N-D_O:C_N_CA": 2299, "2_1_O:O_O_C-Y_CD2:CE2_CD2_CG": 2300, "2_4_C:N_C_C-W_CE3:CD2_CE3_CZ3": 2301, ":F_O": 2302, "2_1_O:O_O_O-K_CB:CA_CB_CG": 2303, "2_1_O:N_O_C-Q_NE2:NE2_OE1_CG": 2304, "1_6_N:C_N_C-Y_CD1:CG_CD1_CE1": 2305, "2_2_S:C_S_C-L_CD2:CD1_CD2_CB": 2306, "1_4_C:N_C_N-G_CA:N_CA_C": 2307, "2_3_O:P_O_P-G_O:C_N_CA": 2308, "2_4_O:C_O_C-Y_CE1:CD1_CE1_CZ": 2309, "2_1_O:O_O_O-R_CG:CB_CG_CD": 2310, "2_3_C:C_C_C-N_OD1:CB_OD1_ND2": 2311, "2_6_O:N_O_C-V_CG2:CG1_CG2_CA": 2312, "2_6_C:O_C_C-G_CA:N_CA_C": 2313, "1_3_O:P_O_P-R_NH2:NH1_NH2_NE": 2314, "1_1_O:N_O_C-S_O:C_N_CA": 2315, "1_1_C:C_C_S-": 2316, "2_4_C:N_C_C-R_NE:CD_NE_CZ": 2317, "1_1_C:C_C_C-Y_CE1:CD1_CE1_CZ": 2318, "2_6_O:C_O_C-W_CZ2:CH2_CZ2_CE2": 2319, "2_6_N:C_N_C-W_CZ2:CH2_CZ2_CE2": 2320, "1_2_N:C_N_C-K_CE:CD_CE_NZ": 2321, "2_1_O:N_O_N-G_CA:N_CA_C": 2322, "1_6_N:C_N_C-F_CD1:CG_CD1_CE1": 2323, "1_3_C:O_C_C-N_ND2:OD1_ND2_CB": 2324, "1_1_O:C_O_C-V_O:C_N_CA": 2325, "2_1_O:N_O_C-K_NZ:NZ_CE_CD": 2326, "2_6_C:N_C_C-T_CG2:CG2_OG1_CA": 2327, "2_6_N:C_N_C-Q_OE1:CG_OE1_NE2": 2328, "2_1_O:O_O_C-K_NZ:NZ_CE_CD": 2329, "1_1_O:O_O_O-R_CG:CB_CG_CD": 2330, "1_1_O:N_O_C-M_SD:CG_SD_SD": 2331, "1_4_O:C_O_C-E_OE1:CG_OE1_OE2": 2332, "2_3_C:O_C_C-H_NE2:CE1_NE2_CD2": 2333, "1_3_C:C_C_C-R_NH1:NE_NH1_NH2": 2334, "2_6_O:N_O_C-Y_CE2:CZ_CE2_CD2": 2335, "1_1_O:N_O_C-I_O:C_N_CA": 2336, "2_5_N:C_N_C-D_OD2:OD1_OD2_CB": 2337, ":CB": 2338, "2_2_S:C_S_C-G_CA:N_CA_C": 2339, "2_6_N:C_N_N-F_CE1:CD1_CE1_CZ": 2340, "1_1_O:N_O_C-E_O:C_N_CA": 2341, "2_1_L:C_L_C-Y_OH:CE1_OH_CE2": 2342, "2_6_N:C_N_C-W_CE3:CD2_CE3_CZ3": 2343, "2_6_O:C_O_C-Q_NE2:NE2_OE1_CG": 2344, "2_1_C:O_C_C-V_CG2:CG1_CG2_CA": 2345, "2_6_C:O_C_C-L_CD2:CD1_CD2_CB": 2346, "1_6_N:N_N_C-V_CG1:CA_CG1_CG2": 2347, "1_3_C:O_C_C-F_CD2:CE2_CD2_CG": 2348, "2_1_O:O_O_N-H_CE1:ND1_CE1_NE2": 2349, "2_4_C:N_C_C-K_CB:CA_CB_CG": 2350, "2_1_O:N_O_C-E_OE1:CG_OE1_OE2": 2351, "2_2_N:C_N_C-S_OG:OG_CB_CA": 2352, "1_3_O:C_O_C-K_CE:CD_CE_NZ": 2353, "1_2_O:C_O_C-L_CD1:CB_CD1_CD2": 2354, "1_3_N:C_N_C-G_CA:N_CA_C": 2355, "2_4_O:C_O_C-N_OD1:CB_OD1_ND2": 2356, "2_0_C:S_C_C-": 2357, "1_4_C:N_C_N-R_NH1:NE_NH1_NH2": 2358, "2_3_C:C_C_C-F_CD1:CG_CD1_CE1": 2359, "1_4_C:O_C_C-K_CE:CD_CE_NZ": 2360, "2_1_O:N_O_C-I_CD1:CD1_CG1_CB": 2361, "2_1_C:C_C_C-S_O:C_N_CA": 2362, "1_4_C:N_C_C-M_CB:CA_CB_CG": 2363, "1_6_N:N_N_C-Y_OH:CE1_OH_CE2": 2364, "2_6_C:C_C_N-W_CZ3:CE3_CZ3_CH2": 2365, "1_2_N:C_N_C-M_SD:CG_SD_SD": 2366, "2_6_N:C_N_C-K_CG:CB_CG_CD": 2367, "2_6_N:C_N_N-G_O:C_N_CA": 2368, "1_1_C:C_C_C-S_O:C_N_CA": 2369, "2_1_O:N_O_N-D_OD2:OD1_OD2_CB": 2370, "2_1_C:C_C_C-R_CG:CB_CG_CD": 2371, "2_2_C:C_C_S-": 2372, "ILE": 2373, "2_6_C:C_C_S-F_CE2:CZ_CE2_CD2": 2374, "1_1_O:O_O_O-H_CE1:ND1_CE1_NE2": 2375, "2_6_C:N_C_C-S_OG:OG_CB_CA": 2376, "2_1_O:O_O_N-V_CG2:CG1_CG2_CA": 2377, "1_1_O:O_O_O-D_O:C_N_CA": 2378, "1_3_N:C_N_C-L_CD2:CD1_CD2_CB": 2379, "2_4_O:C_O_C-A_CB:N_CA_C": 2380, "1_1_O:O_O_O-I_O:C_N_CA": 2381, "1_6_O:C_O_C-F_CD2:CE2_CD2_CG": 2382, "1_3_O:C_O_C-L_CD2:CD1_CD2_CB": 2383, "2_4_C:N_C_C-M_CB:CA_CB_CG": 2384, "1_5_N:C_N_C-D_OD1:CB_OD1_OD2": 2385, "1_6_O:O_O_O-G_O:C_N_CA": 2386, "2_1_O:N_O_C-R_CD:CG_CD_NE": 2387, "2_2_C:C_C_C-F_CE1:CD1_CE1_CZ": 2388, "1_1_C:O_C_C-L_CD1:CB_CD1_CD2": 2389, "2_1_C:C_C_C-Q_NE2:NE2_OE1_CG": 2390, "1_1_C:C_C_C-V_O:C_N_CA": 2391, "1_6_N:C_N_C-S_O:C_N_CA": 2392, "1_6_O:N_O_C-K_CE:CD_CE_NZ": 2393, "1_3_C:O_C_C-K_CE:CD_CE_NZ": 2394, "2_6_C:C_C_C-W_O:C_N_CA": 2395, "2_2_N:C_N_C-L_CD1:CB_CD1_CD2": 2396, "1_6_O:N_O_C-A_CB:N_CA_C": 2397, "1_6_N:C_N_N-V_CG1:CA_CG1_CG2": 2398, ":P_O_C-": 2399, "1_6_O:C_O_C-H_NE2:CE1_NE2_CD2": 2400, "1_1_C:C_C_C-K_CE:CD_CE_NZ": 2401, "1_6_O:C_O_C-E_O:C_N_CA": 2402, "2_6_C:C_C_N-K_CD:CG_CD_CE": 2403, "1_6_O:C_O_C-F_O:C_N_CA": 2404, "2_3_C:C_C_C-T_OG1:CA_CG2_OG1": 2405, "2_4_C:N_C_C-L_O:C_N_CA": 2406, "1_1_C:O_C_C-L_CD2:CD1_CD2_CB": 2407, "1_6_C:C_C_L-L_CD1:CB_CD1_CD2": 2408, "2_4_O:C_O_C-T_OG1:CA_CG2_OG1": 2409, "2_6_C:C_C_N-K_CB:CA_CB_CG": 2410, "1_1_C:C_C_C-F_CE1:CD1_CE1_CZ": 2411, "_O:O_O_P-": 2412, "1_1_O:O_O_C-R_CD:CG_CD_NE": 2413, "1_3_C:N_C_C-Y_CD1:CG_CD1_CE1": 2414, "2_6_O:N_O_C-Y_CE1:CD1_CE1_CZ": 2415, "1_4_C:N_C_C-H_O:C_N_CA": 2416, "2_6_C:C_C_N-M_SD:CG_SD_SD": 2417, "1_1_C:C_C_C-F_CZ:CE1_CZ_CE2": 2418, "1_6_N:C_N_C-Y_CD2:CE2_CD2_CG": 2419, "2_1_O:O_O_O-F_O:C_N_CA": 2420, "2_4_C:N_C_C-Q_OE1:CG_OE1_NE2": 2421, "1_2_C:C_C_C-E_OE2:OE1_OE2_CG": 2422, "1_6_O:O_O_O-R_NH2:NH1_NH2_NE": 2423, "1_6_N:N_N_C-D_OD2:OD1_OD2_CB": 2424, "1_1_O:C_O_C-Y_CE1:CD1_CE1_CZ": 2425, "1_3_C:O_C_C-F_CE2:CZ_CE2_CD2": 2426, "1_4_C:N_C_N-M_O:C_N_CA": 2427, "1_1_N:N_N_C-G_O:C_N_CA": 2428, "2_1_O:N_O_C-F_CD2:CE2_CD2_CG": 2429, "2_1_O:O_O_N-F_CZ:CE1_CZ_CE2": 2430, "2_3_C:N_C_C-E_OE1:CG_OE1_OE2": 2431, "1_6_O:C_O_C-Y_CD1:CG_CD1_CE1": 2432, "1_3_C:C_C_C-Y_CD2:CE2_CD2_CG": 2433, "2_6_O:C_O_C-V_O:C_N_CA": 2434, "2_3_C:C_C_C-E_OE2:OE1_OE2_CG": 2435, "1_1_O:O_O_N-G_CA:N_CA_C": 2436, "1_1_C:C_C_C-E_O:C_N_CA": 2437, "1_1_O:O_O_O-V_O:C_N_CA": 2438, "1_4_O:C_O_C-F_CD1:CG_CD1_CE1": 2439, "2_3_C:N_C_C-V_CG1:CA_CG1_CG2": 2440, "1_1_C:C_C_C-Y_CE2:CZ_CE2_CD2": 2441, "1_4_C:N_C_C-P_CD:N_CD_CG": 2442, "2_2_N:C_N_C-F_CZ:CE1_CZ_CE2": 2443, "_CE2A": 2444, "1_4_C:O_C_N-": 2445, "1_1_N:N_N_C-Y_OH:CE1_OH_CE2": 2446, "2_6_N:C_N_C-I_CG2:CB_CG1_CD1": 2447, "2_4_C:N_C_C-K_NZ:NZ_CE_CD": 2448, "2_1_O:C_O_C-V_O:C_N_CA": 2449, "1_3_C:C_C_C-L_O:C_N_CA": 2450, "1_4_O:C_O_C-A_O:C_N_CA": 2451, "2_6_C:O_C_C-L_CD1:CB_CD1_CD2": 2452, "1_1_O:O_O_N-I_CG2:CB_CG1_CD1": 2453, "1_1_C:C_C_C-F_CD1:CG_CD1_CE1": 2454, "1_1_C:C_C_C-T_O:C_N_CA": 2455, "2_3_C:N_C_C-K_CD:CG_CD_CE": 2456, "2_1_L:C_L_C-S_OG:OG_CB_CA": 2457, "2_6_C:N_C_C-V_CG1:CA_CG1_CG2": 2458, "2_1_F:C_F_C-L_CD1:CB_CD1_CD2": 2459, "1_4_O:C_O_C-Y_CE2:CZ_CE2_CD2": 2460, "1_3_C:C_C_C-R_NH2:NH1_NH2_NE": 2461, "2_1_N:O_N_N-": 2462, "2_1_O:O_O_O-H_ND1:CG_ND1_CE1": 2463, "1_1_O:O_O_N-D_OD2:OD1_OD2_CB": 2464, "2_1_O:C_O_C-I_CG2:CB_CG1_CD1": 2465, "2_1_O:O_O_C-P_CD:N_CD_CG": 2466, "2_6_C:C_C_O-L_CD2:CD1_CD2_CB": 2467, "1_4_O:C_O_C-K_CD:CG_CD_CE": 2468, "2_6_O:N_O_C-F_CE1:CD1_CE1_CZ": 2469, "2_3_C:N_C_C-D_O:C_N_CA": 2470, "2_4_N:C_N_C-R_O:C_N_CA": 2471, "2_1_C:O_C_C-G_CA:N_CA_C": 2472, "_C:N_C_O-": 2473, "1_6_C:N_C_C-I_CG2:CB_CG1_CD1": 2474, "2_1_O:O_O_C-T_O:C_N_CA": 2475, "2_1_O:O_O_O-V_CG1:CA_CG1_CG2": 2476, "2_5_N:C_N_C-L_CD1:CB_CD1_CD2": 2477, "2_6_O:C_O_C-T_O:C_N_CA": 2478, "2_3_C:C_C_C-A_CB:N_CA_C": 2479, "1_2_C:C_C_C-E_OE1:CG_OE1_OE2": 2480, "1_4_C:N_C_C-H_CD2:NE2_CD2_CG": 2481, "1_3_O:C_O_C-I_CG2:CB_CG1_CD1": 2482, "2_6_N:N_N_C-Y_CE2:CZ_CE2_CD2": 2483, "2_6_N:C_N_N-E_OE2:OE1_OE2_CG": 2484, "2_1_C:C_C_C-T_O:C_N_CA": 2485, "1_1_O:N_O_C-P_O:C_N_CA": 2486, "1_4_N:C_N_C-K_CB:CA_CB_CG": 2487, "2_4_C:N_C_C-T_O:C_N_CA": 2488, "2_1_O:O_O_N-H_NE2:CE1_NE2_CD2": 2489, "2_1_C:N_C_C-D_OD2:OD1_OD2_CB": 2490, "1_6_C:C_C_S-G_O:C_N_CA": 2491, "2_1_C:C_C_C-R_NE:CD_NE_CZ": 2492, "1_6_N:C_N_C-H_NE2:CE1_NE2_CD2": 2493, "2_1_O:N_O_C-P_CD:N_CD_CG": 2494, "2_1_C:C_C_C-L_O:C_N_CA": 2495, "2_1_O:O_O_C-M_CG:CB_CG_SD": 2496, "1_6_N:C_N_C-K_O:C_N_CA": 2497, "2_1_N:N_N_C-E_OE2:OE1_OE2_CG": 2498, "1_3_O:C_O_P-D_OD1:CB_OD1_OD2": 2499, "2_6_O:N_O_C-Y_OH:CE1_OH_CE2": 2500, "2_6_C:C_C_S-F_CE1:CD1_CE1_CZ": 2501, "1_1_O:O_O_C-Y_CE1:CD1_CE1_CZ": 2502, "1_1_C:O_C_C-V_CG1:CA_CG1_CG2": 2503, "2_1_C:C_C_C-C_SG:SG_CB_CA": 2504, "1_1_C:N_C_C-L_CD1:CB_CD1_CD2": 2505, "2_3_C:C_C_C-H_CE1:ND1_CE1_NE2": 2506, "2_6_C:C_C_O-G_CA:N_CA_C": 2507, "1_4_O:C_O_C-R_NH1:NE_NH1_NH2": 2508, "1_6_O:C_O_C-D_O:C_N_CA": 2509, "1_4_C:N_C_N-E_O:C_N_CA": 2510, "1_3_C:N_C_C-F_CD2:CE2_CD2_CG": 2511, "1_2_S:C_S_C-L_CD1:CB_CD1_CD2": 2512, "1_1_C:C_C_C-I_O:C_N_CA": 2513, "2_3_C:C_C_C-V_CG1:CA_CG1_CG2": 2514, "2_3_N:N_N_C-L_CD2:CD1_CD2_CB": 2515, "1_6_O:N_O_C-T_OG1:CA_CG2_OG1": 2516, "2_1_C:N_C_C-L_CD1:CB_CD1_CD2": 2517, "1AGLU": 2518, "1_6_O:O_O_O-G_CA:N_CA_C": 2519, "1_6_O:N_O_C-I_CG2:CB_CG1_CD1": 2520, "1_3_C:N_C_C-A_O:C_N_CA": 2521, "2_3_C:N_C_C-H_CE1:ND1_CE1_NE2": 2522, "2_3_C:N_C_C-T_OG1:CA_CG2_OG1": 2523, "2_4_N:C_N_C-C_SG:SG_CB_CA": 2524, "2_1_O:O_O_N-S_OG:OG_CB_CA": 2525, "1_3_O:C_O_P-G_CA:N_CA_C": 2526, "2_4_N:C_N_C-F_O:C_N_CA": 2527, "2_4_C:O_C_C-F_CZ:CE1_CZ_CE2": 2528, "2_1_F:C_F_C-V_CG2:CG1_CG2_CA": 2529, "2_6_N:C_N_C-R_CG:CB_CG_CD": 2530, "2_1_O:O_O_N-I_O:C_N_CA": 2531, "1_6_C:N_C_C-G_CA:N_CA_C": 2532, "2_6_O:C_O_C-W_NE1:CE2_NE1_CD2": 2533, "2_2_C:C_C_C-F_CE2:CZ_CE2_CD2": 2534, "1_3_C:C_C_C-Y_CD1:CG_CD1_CE1": 2535, "_P:O_P_O-": 2536, "1_6_N:C_N_N-D_OD2:OD1_OD2_CB": 2537, "2_1_F:C_F_C-F_CZ:CE1_CZ_CE2": 2538, "2_1_O:O_O_O-Y_O:C_N_CA": 2539, "1_3_C:N_C_C-Y_CD2:CE2_CD2_CG": 2540, "1_1_O:C_O_C-F_CZ:CE1_CZ_CE2": 2541, "2_1_C:C_C_C-A_O:C_N_CA": 2542, "1_3_N:N_N_C-D_OD1:CB_OD1_OD2": 2543, "1_6_C:C_C_S-D_OD2:OD1_OD2_CB": 2544, "2_6_N:N_N_N-V_CG2:CG1_CG2_CA": 2545, "1_4_O:C_O_C-R_NH2:NH1_NH2_NE": 2546, "2_3_N:C_N_C-L_CD2:CD1_CD2_CB": 2547, "2_1_O:O_O_C-M_CE:CG_SD_CG": 2548, ":O_S_O-": 2549, "2_3_C:C_C_C-M_CG:CB_CG_SD": 2550, "2_6_C:C_C_N-R_NH1:NE_NH1_NH2": 2551, "2_1_O:O_O_O-F_CD1:CG_CD1_CE1": 2552, "2_4_O:C_O_C-N_ND2:OD1_ND2_CB": 2553, "2_1_N:N_N_C-V_CG1:CA_CG1_CG2": 2554, "1_1_N:N_N_N-D_OD1:CB_OD1_OD2": 2555, "2_3_C:N_C_C-Q_NE2:NE2_OE1_CG": 2556, "1_3_N:C_N_C-V_CG2:CG1_CG2_CA": 2557, "1_1_O:N_O_C-H_NE2:CE1_NE2_CD2": 2558, "1_6_N:C_N_N-D_OD1:CB_OD1_OD2": 2559, "1_3_O:P_O_P-G_CA:N_CA_C": 2560, "2_1_O:N_O_C-I_O:C_N_CA": 2561, "2_4_C:O_C_C-R_NH2:NH1_NH2_NE": 2562, "2_1_F:F_F_F-V_CG2:CG1_CG2_CA": 2563, "1_4_C:N_C_C-R_CG:CB_CG_CD": 2564, "1_3_O:C_O_C-T_OG1:CA_CG2_OG1": 2565, "1_6_N:C_N_N-L_CD2:CD1_CD2_CB": 2566, "1_1_N:N_C_C-L_CD1:CB_CD1_CD2": 2567, "1_1_O:C_O_C-R_NE:CD_NE_CZ": 2568, "2_1_O:O_O_C-W_NE1:CE2_NE1_CD2": 2569, "2_6_N:N_N_N-L_CD1:CB_CD1_CD2": 2570, "2_6_C": 2571, "2_4_C:N_C_N-G_O:C_N_CA": 2572, "1_3_O:N_O_C-": 2573, "1_4_C:N_C_N-E_OE2:OE1_OE2_CG": 2574, "1_1_C:C_C_C-F_CE2:CZ_CE2_CD2": 2575, "1_6_O:C_O_C-R_CG:CB_CG_CD": 2576, "2_1_O:O_O_C-D_O:C_N_CA": 2577, "2_1_O:O_O_O-K_O:C_N_CA": 2578, "1_1_F:F_F_F-V_CG1:CA_CG1_CG2": 2579, "2_6_N:N_N_O-": 2580, "2_3_C:N_C_C-M_CE:CG_SD_CG": 2581, "2_3_O:C_O_C-L_CD2:CD1_CD2_CB": 2582, "2_6_C:C_C_N-H_NE2:CE1_NE2_CD2": 2583, "2_6_N:C_N_C-K_CB:CA_CB_CG": 2584, "2_6_O:C_O_C-W_CE3:CD2_CE3_CZ3": 2585, "2_6_O:C_O_C-K_CE:CD_CE_NZ": 2586, "1_6_O:N_O_C-L_CD2:CD1_CD2_CB": 2587, "2_1_L:C_L_C-F_CE1:CD1_CE1_CZ": 2588, "1_2_C:C_C_C-R_NH1:NE_NH1_NH2": 2589, "2_4_C:O_C_C-H_NE2:CE1_NE2_CD2": 2590, "2_6_O:N_O_C-T_CG2:CG2_OG1_CA": 2591, "2_1_F:C_F_C-Y_OH:CE1_OH_CE2": 2592, "1_2_N:C_N_C-T_OG1:CA_CG2_OG1": 2593, "2_6_S:C_S_S-": 2594, "1_1_C:C_C_C-Y_CD2:CE2_CD2_CG": 2595, "1_6_O:O_O_O-A_CB:N_CA_C": 2596, "2_6_C:C_C_N-P_CB:CG_CB_CA": 2597, "1_1_C:C_C_C-F_CD2:CE2_CD2_CG": 2598, "1_4_C:N_C_N-R_NH2:NH1_NH2_NE": 2599, "1_2_S:C_S_C-L_CD2:CD1_CD2_CB": 2600, "1_6_O:O_O_O-K_CE:CD_CE_NZ": 2601, "2_2_N:C_N_C-Y_OH:CE1_OH_CE2": 2602, "1_2_N:C_N_C-I_CG2:CB_CG1_CD1": 2603, "2_6_C:C_C_N-W_CH2:CZ3_CH2_CZ2": 2604, "1_4_C:N_C_C-Q_O:C_N_CA": 2605, "1_3_C:N_C_C-K_CD:CG_CD_CE": 2606, "2_1_O:C_O_C-F_O:C_N_CA": 2607, "2_1_C:C_C_C-P_CD:N_CD_CG": 2608, "1_6_N:N_N_C-D_OD1:CB_OD1_OD2": 2609, "1_4_N:C_N_C-H_CD2:NE2_CD2_CG": 2610, "1_6_C:C_C_N-N_OD1:CB_OD1_ND2": 2611, "1_3_C:O_C_C-Q_OE1:CG_OE1_NE2": 2612, "2_1_N:N_N_C-D_OD1:CB_OD1_OD2": 2613, "1_4_N:C_N_C-W_CD1:NE1_CD1_CG": 2614, "2_1_O:N_O_C-I_CG2:CB_CG1_CD1": 2615, "2_6_N:N_N_C-F_CZ:CE1_CZ_CE2": 2616, "1_1_O:O_O_O-H_NE2:CE1_NE2_CD2": 2617, "2_1_L:C_L_C-F_CE2:CZ_CE2_CD2": 2618, "2_4_O:C_O_C-V_CG1:CA_CG1_CG2": 2619, "2_1_O:O_O_O-K_CE:CD_CE_NZ": 2620, "1_6_C:C_C_L-L_CD2:CD1_CD2_CB": 2621, "1_3_O:P_O_P-D_OD1:CB_OD1_OD2": 2622, "1_3_N:C_N_C-Y_OH:CE1_OH_CE2": 2623, "1_2_S:C_S_C-G_O:C_N_CA": 2624, "2_1_O:C_O_C-W_NE1:CE2_NE1_CD2": 2625, "2_1_O:N_O_C-M_CB:CA_CB_CG": 2626, "1_3_C:O_C_C-F_CD1:CG_CD1_CE1": 2627, "1_4_C:N_C_C-W_NE1:CE2_NE1_CD2": 2628, "1_4_O:C_O_C-Y_CD2:CE2_CD2_CG": 2629, ":F_F_O-": 2630, "1_6_C:N_C_C-A_CB:N_CA_C": 2631, "2_1_C:C_C_C-K_NZ:NZ_CE_CD": 2632, "2_1_N:N_N_C-T_CG2:CG2_OG1_CA": 2633, "2_3_C:N_C_C-R_NH2:NH1_NH2_NE": 2634, "1_6_N:C_N_N-V_CG2:CG1_CG2_CA": 2635, "2_6_O:C_O_C-H_ND1:CG_ND1_CE1": 2636, "1_6_C:C_C_N-E_OE2:OE1_OE2_CG": 2637, "2_1_N:N_N_C-V_CG2:CG1_CG2_CA": 2638, "2_6_O:C_O_C-P_CD:N_CD_CG": 2639, "1_6_N:N_N_N-L_CD1:CB_CD1_CD2": 2640, "1_3_N:N_N_C-K_CE:CD_CE_NZ": 2641, "2_6_N:C_N_C-Y_O:C_N_CA": 2642, "2_1_O:N_O_C-M_SD:CG_SD_SD": 2643, "2_6_O:N_O_C-Y_CD1:CG_CD1_CE1": 2644, "2_4_N:C_N_C-K_CE:CD_CE_NZ": 2645, "2_6_N:C_N_L-": 2646, "2_6_C:C_C_N-P_CG:CD_CG_CB": 2647, "2_1_N:C_N_C-G_CA:N_CA_C": 2648, "1_6_O:N_O_C-Y_OH:CE1_OH_CE2": 2649, "2_4_O:C_O_C-P_CG:CD_CG_CB": 2650, "2_1_O:N_O_C-W_CE3:CD2_CE3_CZ3": 2651, "2_1_O:C_O_C-L_O:C_N_CA": 2652, "2_2_C:C_C_C-D_O:C_N_CA": 2653, "2_6_C:C_C_N-R_NH2:NH1_NH2_NE": 2654, "2_6_C:C_C_L-V_CG1:CA_CG1_CG2": 2655, "2_6_N:C_N_C-T_O:C_N_CA": 2656, "2_6_N:C_N_N-V_CG1:CA_CG1_CG2": 2657, "1_6_N:N_N_C-A_CB:N_CA_C": 2658, "1_2_O:C_O_O-": 2659, "1_6_N:C_N_C-F_CD2:CE2_CD2_CG": 2660, "2_6_C:C_C_S-T_CG2:CG2_OG1_CA": 2661, "1_4_C:N_C_S-": 2662, "1_3_C:O_C_C-Y_CE1:CD1_CE1_CZ": 2663, "1_3_C:C_C_C-A_O:C_N_CA": 2664, "2_1_O:N_O_C-M_CG:CB_CG_SD": 2665, "1_1_O:C_O_C-Y_CE2:CZ_CE2_CD2": 2666, "1_4_C:N_C_C-W_CD1:NE1_CD1_CG": 2667, "1_4_C:O_C_C-Y_CE2:CZ_CE2_CD2": 2668, "2_3_O:C_O_C-V_CG2:CG1_CG2_CA": 2669, "2_1_O:O_O_N-Y_OH:CE1_OH_CE2": 2670, "1_1_C:C_C_C-Y_CD1:CG_CD1_CE1": 2671, "1_4_N:C_N_C-Q_O:C_N_CA": 2672, "1_2_C:C_C_C-R_NH2:NH1_NH2_NE": 2673, "1_3_N:C_N_C-A_CB:N_CA_C": 2674, "2_2_C:C_C_C-T_CG2:CG2_OG1_CA": 2675, "2_4_C:N_C_C-W_NE1:CE2_NE1_CD2": 2676, "1_4_O:C_O_C-F_CD2:CE2_CD2_CG": 2677, "2_4_N:C_N_C-C_O:C_N_CA": 2678, "1_3_N:C_N_C-G_O:C_N_CA": 2679, "2_3_N:N_N_C-V_CG2:CG1_CG2_CA": 2680, "2_3_C:N_C_C-N_ND2:OD1_ND2_CB": 2681, "2_3_C:O_C_C-E_OE2:OE1_OE2_CG": 2682, "1_1_O:O_O_C-V_O:C_N_CA": 2683, "1_4_C:N_C_C-R_O:C_N_CA": 2684, "2_1_N:N_N_C-R_NH2:NH1_NH2_NE": 2685, "2_6_C:O_C_C-V_CG2:CG1_CG2_CA": 2686, "1_3_C:C_C_C-H_CD2:NE2_CD2_CG": 2687, "1_6_N:N_N_C-G_O:C_N_CA": 2688, "2_4_C:N_C_C-R_CG:CB_CG_CD": 2689, "1_6_O:O_O_O-T_OG1:CA_CG2_OG1": 2690, "1_6_N:C_N_C-V_O:C_N_CA": 2691, "2_6_C:C_C_N-Y_CD2:CE2_CD2_CG": 2692, "2_3_C:N_C_C-A_CB:N_CA_C": 2693, "2_1_O:C_O_C-H_ND1:CG_ND1_CE1": 2694, "2_4_O:C_O_C-I_CD1:CD1_CG1_CB": 2695, "1_1_O:O_O_C-M_SD:CG_SD_SD": 2696, "1_1_O:O_O_C-I_O:C_N_CA": 2697, "2_1_F:F_F_F-F_CE2:CZ_CE2_CD2": 2698, "2_3_C:N_C_C-R_CD:CG_CD_NE": 2699, "2_1_O:N_O_C-R_NE:CD_NE_CZ": 2700, "2_6_C:C_C_N-W_CE3:CD2_CE3_CZ3": 2701, "2_4_C:N_C_N-T_CG2:CG2_OG1_CA": 2702, "2_1_O:C_O_C-T_O:C_N_CA": 2703, "2_1_O:C_O_C-K_CE:CD_CE_NZ": 2704, "2_4_O:C_O_C-K_CD:CG_CD_CE": 2705, "1_3_N:N_N_C-D_OD2:OD1_OD2_CB": 2706, "1_6_C:O_C_C-L_CD1:CB_CD1_CD2": 2707, "1_3_C:C_C_C-W_CH2:CZ3_CH2_CZ2": 2708, "1_6_N:N_N_C-G_CA:N_CA_C": 2709, "1_5_N:C_N_C-Y_OH:CE1_OH_CE2": 2710, "1_1_L:C_L_C-V_CG1:CA_CG1_CG2": 2711, "2_1_O:N_O_C-W_CZ2:CH2_CZ2_CE2": 2712, ":S_O_C-": 2713, "2_3_C:C_C_C-F_CD2:CE2_CD2_CG": 2714, "2_6_C:C_C_N-F_CD2:CE2_CD2_CG": 2715, "1_6_N:N_N_C-V_CG2:CG1_CG2_CA": 2716, "2_3_C:O_C_C-Y_CE1:CD1_CE1_CZ": 2717, "2_1_L:C_L_C-D_OD2:OD1_OD2_CB": 2718, "1_6_C:C_C_N-T_OG1:CA_CG2_OG1": 2719, "2_3_C:O_C_C-N_OD1:CB_OD1_ND2": 2720, "2_2_N:C_N_C-F_CE2:CZ_CE2_CD2": 2721, "2_6_O:C_O_C-K_CB:CA_CB_CG": 2722, "1_5_C:C_C_C-L_CD2:CD1_CD2_CB": 2723, "2_2_C:C_C_C-Y_CE2:CZ_CE2_CD2": 2724, "1_3_C:N_C_C-S_O:C_N_CA": 2725, "2_6_C:C_C_S-G_O:C_N_CA": 2726, "2_6_C:C_C_N-I_CD1:CD1_CG1_CB": 2727, "2_3_C:O_C_C-S_O:C_N_CA": 2728, "2_6_N:C_N_C-E_O:C_N_CA": 2729, "1_3_N:N_N_C-Y_OH:CE1_OH_CE2": 2730, "1_4_C:N_C_C-Y_O:C_N_CA": 2731, "1_1_O:O_O_N-V_CG2:CG1_CG2_CA": 2732, "1_1_O:O_O_C-Y_CE2:CZ_CE2_CD2": 2733, "1_3_C:C_C_C-K_CE:CD_CE_NZ": 2734, "1_2_C:C_C_C-F_CZ:CE1_CZ_CE2": 2735, "1_6_N:C_N_N-M_O:C_N_CA": 2736, "1_1_F:F_F_F-V_CG2:CG1_CG2_CA": 2737, "1_4_C:N_C_N-E_OE1:CG_OE1_OE2": 2738, "1_3_C:C_C_C-E_O:C_N_CA": 2739, "2_6_O:O_O_O-T_CG2:CG2_OG1_CA": 2740, "1_1_O:C_O_C-D_O:C_N_CA": 2741, "2_4_C:N_C_C-M_O:C_N_CA": 2742, "2_6_C:C_C_N-E_OE1:CG_OE1_OE2": 2743, "2_1_L:C_L_S-": 2744, "1_5_C:C_C_C-L_CD1:CB_CD1_CD2": 2745, "1_4_O:C_O_C-H_CE1:ND1_CE1_NE2": 2746, "1_1_O:O_O_O-Y_CE1:CD1_CE1_CZ": 2747, "1_6_N:C_N_C-M_O:C_N_CA": 2748, "1_1_O:C_O_C-R_O:C_N_CA": 2749, "1_1_F:F_F_F-A_CB:N_CA_C": 2750, "2_3_C:N_C_C-P_CG:CD_CG_CB": 2751, "1_4_N:C_N_C-H_ND1:CG_ND1_CE1": 2752, "1_1_O:N_O_C-H_CE1:ND1_CE1_NE2": 2753, "1_6_C:C_C_S-A_CB:N_CA_C": 2754, "2_6_C:C_C_N-N_ND2:OD1_ND2_CB": 2755, "2_6_C:N_C_C-A_CB:N_CA_C": 2756, "1_1_O:C_O_C-N_O:C_N_CA": 2757, "2_1_O:O_O_C-H_ND1:CG_ND1_CE1": 2758, "1_4_C:N_C_C-K_CB:CA_CB_CG": 2759, "2_4_C:N_C_N-V_O:C_N_CA": 2760, "2_6_N:N_N_C-Y_OH:CE1_OH_CE2": 2761, "2_4_C:O_C_C-L_CD1:CB_CD1_CD2": 2762, "1_6_C:N_C_C-D_OD1:CB_OD1_OD2": 2763, "2_3_C:C_C_C-W_CH2:CZ3_CH2_CZ2": 2764, "1_6_N:C_N_C-T_O:C_N_CA": 2765, "2_1_C:C_C_C-I_O:C_N_CA": 2766, "2_6_O:O_O_O-R_NH1:NE_NH1_NH2": 2767, "1_1_O:O_O_C-R_O:C_N_CA": 2768, "1_1_O:N_O_C-Y_O:C_N_CA": 2769, "2_4_C:N_C_N-S_OG:OG_CB_CA": 2770, "2_6_O:C_O_C-L_O:C_N_CA": 2771, "2_1_L:C_L_C-F_CD1:CG_CD1_CE1": 2772, "1_3_O:P_O_P-R_NH1:NE_NH1_NH2": 2773, "2_4_C:N_C_N-N_ND2:OD1_ND2_CB": 2774, "2AAS": 2775, ":OD": 2776, "2_4_C:O_C_C-E_OE2:OE1_OE2_CG": 2777, "2_6_N:N_N_C-V_CG1:CA_CG1_CG2": 2778, "1_6_C:C_C_S-V_CG2:CG1_CG2_CA": 2779, "1_5_C:N_C_C-L_CD1:CB_CD1_CD2": 2780, "1_2_O:C_O_C-L_CD2:CD1_CD2_CB": 2781, "1_2_N:C_N_C-R_NH1:NE_NH1_NH2": 2782, "2_1_O:O_O_C-I_CD1:CD1_CG1_CB": 2783, "1_1_C:N_C_C-G_O:C_N_CA": 2784, "1_2_C:C_C_C-N_OD1:CB_OD1_ND2": 2785, "2_1_C:C_C_C-Q_OE1:CG_OE1_NE2": 2786, "1_1_O:C_O_C-Y_CD2:CE2_CD2_CG": 2787, "2_6_C:C_C_N-M_CG:CB_CG_SD": 2788, "2_6_N:N_N_C-F_CD1:CG_CD1_CE1": 2789, "1_1_O:C_O_C-F_CE1:CD1_CE1_CZ": 2790, "2_6_N:C_N_C-V_O:C_N_CA": 2791, "2_2_O:C_O_O-": 2792, "2_6_O:N_O_C-D_OD1:CB_OD1_OD2": 2793, "1_6_C:C_C_N-E_OE1:CG_OE1_OE2": 2794, "2_3_C:N_C_C-P_CB:CG_CB_CA": 2795, "1_6_C:C_C_S-Y_OH:CE1_OH_CE2": 2796, "1_3_N:C_N_C-V_CG1:CA_CG1_CG2": 2797, "2_3_C:C_C_C-Y_CD2:CE2_CD2_CG": 2798, "1_2_C:C_C_C-Y_CE2:CZ_CE2_CD2": 2799, "2_6_O:N_O_C-F_CE2:CZ_CE2_CD2": 2800, "1_6_O:C_O_C-R_NE:CD_NE_CZ": 2801, "1_6_O:C_O_C-P_CG:CD_CG_CB": 2802, "2_6_N:C_N_C-W_NE1:CE2_NE1_CD2": 2803, "2_3_N:C_N_C-V_CG2:CG1_CG2_CA": 2804, "1_6_C:C_C_N-R_NH1:NE_NH1_NH2": 2805, "2_4_O:C_O_S-": 2806, "2_4_C:N_C_N-R_NE:CD_NE_CZ": 2807, "1_6_O:C_O_C-N_O:C_N_CA": 2808, "2_6_C:C_C_L-F_CZ:CE1_CZ_CE2": 2809, "2_2_C:C_C_C-N_OD1:CB_OD1_ND2": 2810, "1_4_C:N_C_N-I_CG2:CB_CG1_CD1": 2811, "1_6_N:C_N_N-G_O:C_N_CA": 2812, "2_6_C:C_C_S-Y_OH:CE1_OH_CE2": 2813, "1_3_O:C_O_P-R_NH2:NH1_NH2_NE": 2814, "1_1_L:C_L_C-V_CG2:CG1_CG2_CA": 2815, "2_3_O:C_O_C-S_OG:OG_CB_CA": 2816, "_O:N_O_N-": 2817, "2_6_N:C_N_C-C_SG:SG_CB_CA": 2818, "1_3_C:O_C_C-A_O:C_N_CA": 2819, "2_6_C:C_C_C-P_O:C_N_CA": 2820, "1_3_N:N_N_C-E_O:C_N_CA": 2821, "2_6_N:N_N_N-V_CG1:CA_CG1_CG2": 2822, "1_2_C:C_C_C-N_ND2:OD1_ND2_CB": 2823, "1_4_C:N_C_N-K_CE:CD_CE_NZ": 2824, "1_2_C:C_C_C-Y_CE1:CD1_CE1_CZ": 2825, "1_2_N:C_N_C-N_OD1:CB_OD1_ND2": 2826, "1_3_C:O_C_C-Y_CD2:CE2_CD2_CG": 2827, "1_6_O:C_O_C-R_O:C_N_CA": 2828, "2_3_C:O_C_C-D_OD1:CB_OD1_OD2": 2829, "1_6_O:C_O_C-M_CG:CB_CG_SD": 2830, "2_1_L:C_L_C-Y_CE2:CZ_CE2_CD2": 2831, "1_2_N:C_N_C-R_NH2:NH1_NH2_NE": 2832, "1_1_O:N_O_C-T_O:C_N_CA": 2833, "2_3_C:C_C_C-H_CD2:NE2_CD2_CG": 2834, "1_1_L:C_L_C-G_O:C_N_CA": 2835, "2_1_O:O_O_O-L_O:C_N_CA": 2836, "2_1_C:N_C_S-": 2837, "_S:N_S": 2838, "1_6_O:C_O_C-P_O:C_N_CA": 2839, "2_4_N:C_N_C-H_ND1:CG_ND1_CE1": 2840, "1_4_C:O_C_C-M_SD:CG_SD_SD": 2841, "2_1_L:C_L_C-G_O:C_N_CA": 2842, "2_1_O:O_O_O-E_O:C_N_CA": 2843, "1_1_C:C_C_C-F_O:C_N_CA": 2844, "2_6_C:C_C_L-F_CE1:CD1_CE1_CZ": 2845, "1_1_C:N_C_C-D_OD2:OD1_OD2_CB": 2846, "1_6_N:C_N_C-H_CE1:ND1_CE1_NE2": 2847, "1_1_C:C_C_O-": 2848, "2_6_N:N_N_C-F_CE2:CZ_CE2_CD2": 2849, "1_4_O:C_O_C-L_O:C_N_CA": 2850, "1_1_O:O_O_N-D_OD1:CB_OD1_OD2": 2851, "2_3_C:O_C_C-F_CD1:CG_CD1_CE1": 2852, "2_1_F:C_F_C-S_OG:OG_CB_CA": 2853, "1_6_N:C_N_C-I_O:C_N_CA": 2854, "2_6_O:N_O_C-F_CD1:CG_CD1_CE1": 2855, "2_1_F:F_F_F-F_CE1:CD1_CE1_CZ": 2856, "2_6_O:N_O_C-R_NH2:NH1_NH2_NE": 2857, "2_6_N:C_N_N-F_CE2:CZ_CE2_CD2": 2858, "1_1_N:N_N_S-": 2859, "1_4_C:O_C_C-Q_OE1:CG_OE1_NE2": 2860, "1_4_C:N_C_C-K_CG:CB_CG_CD": 2861, "2_1_N:N_N_C-R_NH1:NE_NH1_NH2": 2862, "1_2_C:C_C_C-F_CE1:CD1_CE1_CZ": 2863, "1_4_C:O_C_C-Y_CE1:CD1_CE1_CZ": 2864, "2_4_C:O_C_C-N_OD1:CB_OD1_ND2": 2865, "2_3_C:N_C_C-M_SD:CG_SD_SD": 2866, "1_3_N:N_N_C-V_CG1:CA_CG1_CG2": 2867, "1_2_N:C_N_C-E_OE2:OE1_OE2_CG": 2868, "2_3_C:C_C_C-Q_NE2:NE2_OE1_CG": 2869, "1_1_O:O_O_O-L_O:C_N_CA": 2870, "2_1_F:C_F_C-D_OD2:OD1_OD2_CB": 2871, "2_4_C:N_C_N-R_NH2:NH1_NH2_NE": 2872, "2_1_L:C_L_C-K_CD:CG_CD_CE": 2873, "1_3_C:O_C_C-Y_CD1:CG_CD1_CE1": 2874, "2_4_O:C_O_C-R_NH2:NH1_NH2_NE": 2875, "2_1_O:O_O_O-N_O:C_N_CA": 2876, "2_1_O:N_O_C-T_O:C_N_CA": 2877, "1_2_N:C_N_C-L_O:C_N_CA": 2878, "1_3_C:N_C_C-H_NE2:CE1_NE2_CD2": 2879, "2_4_N:C_N_C-N_O:C_N_CA": 2880, "2_6_N:N_N_C-F_CE1:CD1_CE1_CZ": 2881, "1_2_N:O_N_C-": 2882, "1_4_O:C_O_C-Y_CD1:CG_CD1_CE1": 2883, "2_1_C:C_C_C-K_CG:CB_CG_CD": 2884, "2_1_O:O_O_C-R_O:C_N_CA": 2885, "1_1_O:N_O_C-Y_CE1:CD1_CE1_CZ": 2886, "2_1_O:O_O_N-F_CE2:CZ_CE2_CD2": 2887, "1_6_N:C_N_C-N_O:C_N_CA": 2888, "2_6_N:C_N_N-T_CG2:CG2_OG1_CA": 2889, "2_6_N:C_N_N-Y_OH:CE1_OH_CE2": 2890, "2_1_O:N_O_C-K_O:C_N_CA": 2891, "2_6_O:O_O_O-S_OG:OG_CB_CA": 2892, "2_1_O:O_O_C-M_CB:CA_CB_CG": 2893, "2_1_O:O_O_O-P_CG:CD_CG_CB": 2894, "1_6_C:C_C_L-Y_OH:CE1_OH_CE2": 2895, "2_3_C:O_C_C-R_NH2:NH1_NH2_NE": 2896, "2_6_O:C_O_C-K_CG:CB_CG_CD": 2897, "1_2_N:C_N_C-Y_CE1:CD1_CE1_CZ": 2898, "1_6_C:C_C_L-G_O:C_N_CA": 2899, "2_3_N:C_N_C-G_O:C_N_CA": 2900, "2_3_O:C_O_P-R_NH2:NH1_NH2_NE": 2901, "2_2_C:C_C_C-H_NE2:CE1_NE2_CD2": 2902, "2_6_C:C_C_L-F_CE2:CZ_CE2_CD2": 2903, "1_6_C:C_C_N-Q_OE1:CG_OE1_NE2": 2904, "1_6_C:O_C_C-L_CD2:CD1_CD2_CB": 2905, "1_1_O:O_O_O-F_O:C_N_CA": 2906, "1_3_C:C_C_C-H_CE1:ND1_CE1_NE2": 2907, "2_4_O:C_O_C-S_O:C_N_CA": 2908, "2_6_O:N_O_C-V_CG1:CA_CG1_CG2": 2909, "1_1_L:C_L_C-A_CB:N_CA_C": 2910, "1_3_C:C_C_C-W_CZ2:CH2_CZ2_CE2": 2911, "2_4_C:N_C_C-K_CG:CB_CG_CD": 2912, "1_1_O:N_O_C-F_CZ:CE1_CZ_CE2": 2913, "1_1_O:O_O_O-Y_O:C_N_CA": 2914, "2_4_C:O_C_C-Y_CE2:CZ_CE2_CD2": 2915, "1_6_C:C_C_S-G_CA:N_CA_C": 2916, "1_1_L:C_L_C-Y_OH:CE1_OH_CE2": 2917, "_C:C_C_L-": 2918, "1_2_C:C_C_N-": 2919, "1_3_N:N_N_C-G_CA:N_CA_C": 2920, "2_4_C:O_C_C-F_CE1:CD1_CE1_CZ": 2921, "2_2_N:C_N_C-F_CE1:CD1_CE1_CZ": 2922, "2_6_C:N_C_C-E_OE2:OE1_OE2_CG": 2923, "2_6_N:N_N_C-T_CG2:CG2_OG1_CA": 2924, "2_4_C:O_C_C-Y_CE1:CD1_CE1_CZ": 2925, "2_1_F:F_F_F-F_CZ:CE1_CZ_CE2": 2926, "1_1_O:N_O_C-V_O:C_N_CA": 2927, "1_2_O:N_O_C-": 2928, "2_4_C:N_C_C-C_SG:SG_CB_CA": 2929, "2_4_O:C_O_C-P_CB:CG_CB_CA": 2930, "2_4_O:C_O_C-H_CE1:ND1_CE1_NE2": 2931, "1_3_C:N_C_C-N_O:C_N_CA": 2932, "2_1_F:C_F_C-G_O:C_N_CA": 2933, "1_1_O:O_O_N-A_CB:N_CA_C": 2934, "2_6_O:N_O_C-P_CB:CG_CB_CA": 2935, "1_2_O:C_O_C-D_OD2:OD1_OD2_CB": 2936, "2_4_C:N_C_N-R_NH1:NE_NH1_NH2": 2937, "2_6_C:C_C_N-H_CE1:ND1_CE1_NE2": 2938, "1_1_O:O_O_C-N_O:C_N_CA": 2939, "2_6_N:C_N_N-F_CZ:CE1_CZ_CE2": 2940, "1_3_N:N_N_C-V_CG2:CG1_CG2_CA": 2941, "2_1_C:N_C_C-Y_OH:CE1_OH_CE2": 2942, "2_2_N:C_N_C-T_CG2:CG2_OG1_CA": 2943, "2_4_O:C_O_C-F_CD2:CE2_CD2_CG": 2944, "1_2_N:C_N_C-Q_OE1:CG_OE1_NE2": 2945, "2_2_C:C_C_C-F_CD1:CG_CD1_CE1": 2946, "1_3_C:O_C_N-": 2947, "2_6_O:C_O_C-E_O:C_N_CA": 2948, "2_2_C:C_C_C-T_OG1:CA_CG2_OG1": 2949, "2_6_C:N_C_C-P_CG:CD_CG_CB": 2950, "1_3_C:O_C_C-I_O:C_N_CA": 2951, "2_4_O:C_O_C-D_OD1:CB_OD1_OD2": 2952, "2_3_C:C_C_C-I_CD1:CD1_CG1_CB": 2953, "2_6_C:C_C_P-": 2954, "2_6_N:C_N_N-D_OD1:CB_OD1_OD2": 2955, "2_6_N:C_N_N-F_CD1:CG_CD1_CE1": 2956, "1_1_O:N_O_C-M_O:C_N_CA": 2957, "1_3_C:C_C_C-S_O:C_N_CA": 2958, "1_2_S:C_S_C-Y_OH:CE1_OH_CE2": 2959, "1_1_O:C_O_C-R_CG:CB_CG_CD": 2960, "2_2_C:C_C_C-V_CG1:CA_CG1_CG2": 2961, "1_6_N:C_N_N-Y_OH:CE1_OH_CE2": 2962, "2_6_C:C_C_S-A_CB:N_CA_C": 2963, "1_1_O:C_O_C-P_O:C_N_CA": 2964, "1_1_F:C_F_C-Y_OH:CE1_OH_CE2": 2965, "2_4_O:C_O_C-M_CG:CB_CG_SD": 2966, "1_1_O:N_O_C-Y_CE2:CZ_CE2_CD2": 2967, "1_6_C:C_C_S-I_CG2:CB_CG1_CD1": 2968, "1_3_N:N_N_C-G_O:C_N_CA": 2969, "1_1_O:O_O_C-F_O:C_N_CA": 2970, "2_3_C:C_C_C-S_O:C_N_CA": 2971, "2_1_O:O_O_N-L_CD1:CB_CD1_CD2": 2972, "1_1_C:C_C_C-N_O:C_N_CA": 2973, "2_3_C:C_C_C-P_CG:CD_CG_CB": 2974, "2_3_C:C_C_C-M_SD:CG_SD_SD": 2975, "2_4_C:O_C_C-N_ND2:OD1_ND2_CB": 2976, "1_4_C:N_C_C-H_ND1:CG_ND1_CE1": 2977, "1_6_C:C_C_N-M_SD:CG_SD_SD": 2978, "1_4_C:O_C_C-T_O:C_N_CA": 2979, "2_6_N:C_N_C-K_CE:CD_CE_NZ": 2980, "1_2_S:C_S_C-V_CG2:CG1_CG2_CA": 2981, "1_1_F:C_F_C-G_O:C_N_CA": 2982, "2_6_C:C_C_L-Y_OH:CE1_OH_CE2": 2983, "1_2_N:C_N_C-E_O:C_N_CA": 2984, "1_6_C:C_C_S-V_CG1:CA_CG1_CG2": 2985, "2_6_C:C_C_N-R_CD:CG_CD_NE": 2986, "1_2_N:C_N_C-E_OE1:CG_OE1_OE2": 2987, "2_1_O:N_O_C-L_O:C_N_CA": 2988, "2_3_C:C_C_C-W_CZ2:CH2_CZ2_CE2": 2989, "2_1_O:O_O_C-M_SD:CG_SD_SD": 2990, "2_3_C:N_C_C-R_NH1:NE_NH1_NH2": 2991, "1_1_N:N_N_C-E_OE1:CG_OE1_OE2": 2992, "1_3_C:N_C_C-H_CE1:ND1_CE1_NE2": 2993, "2_4_C:N_C_N-L_CD1:CB_CD1_CD2": 2994, "2_1_O:N_O_C-R_CG:CB_CG_CD": 2995, "2_1_C:O_C_C-F_CE1:CD1_CE1_CZ": 2996, "1_1_O:O_O_N-Y_OH:CE1_OH_CE2": 2997, "2_3_C:N_C_C-H_CD2:NE2_CD2_CG": 2998, "2_3_C:N_C_C-W_CZ3:CE3_CZ3_CH2": 2999, "1_1_C:C_C_C-P_O:C_N_CA": 3000, "2_3_N:N_N_C-L_CD1:CB_CD1_CD2": 3001, "1_3_C:N_C_C-T_O:C_N_CA": 3002, "2_3_C:N_C_C-Y_CD2:CE2_CD2_CG": 3003, "2_2_C:C_C_C-E_OE2:OE1_OE2_CG": 3004, "2_1_C:C_C_C-Y_O:C_N_CA": 3005, "1_4_C:N_C_N-N_OD1:CB_OD1_ND2": 3006, "2_6_N:N_N_C-E_OE2:OE1_OE2_CG": 3007, "1_4_C:N_C_N-A_O:C_N_CA": 3008, "1_1_O:O_O_C-E_O:C_N_CA": 3009, "1AGLN": 3010, "1_4_O:C_O_C-H_NE2:CE1_NE2_CD2": 3011, "1_4_C:O_C_C-A_O:C_N_CA": 3012, "2_3_C:C_C_C-E_OE1:CG_OE1_OE2": 3013, "1_1_O:O_O_N-V_CG1:CA_CG1_CG2": 3014, "1_1_F:C_F_C-V_CG1:CA_CG1_CG2": 3015, "2_4_C:N_C_N-E_OE2:OE1_OE2_CG": 3016, "1_3_N:C_N_C-E_OE1:CG_OE1_OE2": 3017, "1_1_O:O_O_C-R_CG:CB_CG_CD": 3018, "2_3_C:C_C_C-W_CZ3:CE3_CZ3_CH2": 3019, "2_3_C:C_C_C-R_NH2:NH1_NH2_NE": 3020, "2_1_O:O_O_N-F_CE1:CD1_CE1_CZ": 3021, "2_3_C:O_C_C-T_OG1:CA_CG2_OG1": 3022, "2_4_O:C_O_C-M_CE:CG_SD_CG": 3023, "2_6_O:N_O_C-F_CZ:CE1_CZ_CE2": 3024, "2_3_O:C_O_C-Y_OH:CE1_OH_CE2": 3025, "1_1_O:C_O_C-F_CD1:CG_CD1_CE1": 3026, "2_1_O:O_O_C-W_CE3:CD2_CE3_CZ3": 3027, "1_4_C:O_C_C-F_CZ:CE1_CZ_CE2": 3028, "2_2_C:C_C_C-Y_CE1:CD1_CE1_CZ": 3029, "2_6_N:C_N_N-T_OG1:CA_CG2_OG1": 3030, "1APHE": 3031, "2_3_C:O_C_C-H_CE1:ND1_CE1_NE2": 3032, "1_1_O:O_O_O-R_O:C_N_CA": 3033, "2_1_L:C_L_C-V_CG1:CA_CG1_CG2": 3034, "1_1_O:C_O_C-F_CE2:CZ_CE2_CD2": 3035, "2_1_O:O_O_N-W_CZ2:CH2_CZ2_CE2": 3036, ":O_F_C-": 3037, "1_1_O:C_O_C-Y_O:C_N_CA": 3038, "1_1_C:N_C_C-V_CG1:CA_CG1_CG2": 3039, "2_1_L:C_L_C-T_CG2:CG2_OG1_CA": 3040, "2_6_O:N_O_C-A_CB:N_CA_C": 3041, "1_6_N:C_N_C-R_NE:CD_NE_CZ": 3042, "2_1_F:C_F_C-F_CE1:CD1_CE1_CZ": 3043, "2_5_N:C_N_C-N_OD1:CB_OD1_ND2": 3044, "2_4_C:O_C_C-P_CB:CG_CB_CA": 3045, "2_4_C:N_C_C-V_O:C_N_CA": 3046, "2_1_F:C_F_C-F_CE2:CZ_CE2_CD2": 3047, "1_1_O:O_O_O-N_O:C_N_CA": 3048, "1_1_O:O_O_C-Y_O:C_N_CA": 3049, "1_1_O:O_O_N-N_ND2:OD1_ND2_CB": 3050, "1_2_C:C_C_C-Q_OE1:CG_OE1_NE2": 3051, "2_2_C:C_C_C-A_CB:N_CA_C": 3052, "1_1_L:C_L_C-A_O:C_N_CA": 3053, "1_4_C:N_C_C-W_O:C_N_CA": 3054, "2_1_C:N_C_C-F_CZ:CE1_CZ_CE2": 3055, "2_6_N:N_N_C-S_OG:OG_CB_CA": 3056, "2_6_O:O_O_O-D_OD1:CB_OD1_OD2": 3057, "1_1_O:C_O_C-H_CD2:NE2_CD2_CG": 3058, "1_4_C:O_C_C-F_CE1:CD1_CE1_CZ": 3059, "1_3_C:O_C_C-S_O:C_N_CA": 3060, "2_3_C:N_C_C-Y_CD1:CG_CD1_CE1": 3061, "2_3_C:C_C_C-N_ND2:OD1_ND2_CB": 3062, "1_1_O:C_O_C-M_CG:CB_CG_SD": 3063, "2_1_O:C_O_C-K_CG:CB_CG_CD": 3064, "2_1_F:N_F_C-": 3065, "2_6_C:C_C_S-V_CG1:CA_CG1_CG2": 3066, "2_1_O:O_O_O-Q_O:C_N_CA": 3067, "1_6_C:C_C_N-E_O:C_N_CA": 3068, "2_2_C:C_C_C-R_NH2:NH1_NH2_NE": 3069, "1_6_N:C_N_C-M_CG:CB_CG_SD": 3070, "1_1_O:C_O_C-F_CD2:CE2_CD2_CG": 3071, "2_1_C:C_C_C-H_ND1:CG_ND1_CE1": 3072, "2ATRP": 3073, "2_3_C:O_C_C-D_O:C_N_CA": 3074, "1_3_N:C_N_C-T_OG1:CA_CG2_OG1": 3075, "1_1_C:C_C_C-H_CD2:NE2_CD2_CG": 3076, "2_3_O:C_O_C-D_O:C_N_CA": 3077, "2_6_O:C_O_C-Q_OE1:CG_OE1_NE2": 3078, "2_1_O:O_O_C-K_CB:CA_CB_CG": 3079, "2_4_C:N_C_N-Y_OH:CE1_OH_CE2": 3080, "2_3_O:N_O_C-": 3081, "2_6_N:C_N_N-S_OG:OG_CB_CA": 3082, "1_1_N:N_N_C-A_CB:N_CA_C": 3083, "2_3_C:O_C_C-V_CG1:CA_CG1_CG2": 3084, "1_1_N:N_N_C-L_CD1:CB_CD1_CD2": 3085, "1_2_C:C_C_C-K_CE:CD_CE_NZ": 3086, "1_6_N:N_N_C-M_O:C_N_CA": 3087, "1_4_C:N_C_C-R_NE:CD_NE_CZ": 3088, "1_6_N:N_N_C-I_CG2:CB_CG1_CD1": 3089, "2_1_N:N_N_C-F_CE1:CD1_CE1_CZ": 3090, "2_3_C:O_C_C-A_CB:N_CA_C": 3091, "1_4_O:C_O_C-P_CG:CD_CG_CB": 3092, "2_1_N:N_N_C-F_CZ:CE1_CZ_CE2": 3093, "1_6_O:C_O_C-Y_O:C_N_CA": 3094, "1_4_C:O_C_C-Y_CD2:CE2_CD2_CG": 3095, "1_1_F:C_F_C-V_CG2:CG1_CG2_CA": 3096, "2_1_O:O_O_C-I_CG2:CB_CG1_CD1": 3097, "2_6_O:N_O_C-D_O:C_N_CA": 3098, "1_6_F:F_F_C-": 3099, "2_4_O:C_O_C-Y_CD2:CE2_CD2_CG": 3100, "2_1_O:O_O_O-F_CD2:CE2_CD2_CG": 3101, "2_6_C:C_C_L-T_CG2:CG2_OG1_CA": 3102, "_S:C_S_L-": 3103, "2_1_O:O_O_O-Y_CD1:CG_CD1_CE1": 3104, "2_1_O:N_O_C-K_CG:CB_CG_CD": 3105, "2_6_O:O_O_C-G_CA:N_CA_C": 3106, "2_6_O:C_O_C-F_O:C_N_CA": 3107, "2_6_C:C_C_O-V_CG2:CG1_CG2_CA": 3108, "1_1_C:C_C_C-K_CD:CG_CD_CE": 3109, "1_3_C:O_C_C-L_O:C_N_CA": 3110, "2_3_C:C_C_C-M_CE:CG_SD_CG": 3111, "2_1_O:O_O_N-Y_CE1:CD1_CE1_CZ": 3112, "2_6_N:C_N_C-F_O:C_N_CA": 3113, "2_1_N:N_N_N-T_CG2:CG2_OG1_CA": 3114, "2_4_O:C_O_C-E_OE1:CG_OE1_OE2": 3115, ":NE": 3116, "2_6_C:C_C_S-Y_CE1:CD1_CE1_CZ": 3117, "2_1_O:N_O_N-L_CD2:CD1_CD2_CB": 3118, "2_4_C:N_C_N-S_O:C_N_CA": 3119, "2_3_C:O_C_C-N_ND2:OD1_ND2_CB": 3120, "2_2_N:C_N_C-Y_CE2:CZ_CE2_CD2": 3121, "1_6_N:C_N_C-D_O:C_N_CA": 3122, "1_3_C:C_C_C-T_O:C_N_CA": 3123, "2_6_C:C_C_F-": 3124, "2_3_C:N_C_C-F_CD2:CE2_CD2_CG": 3125, "2_1_L:O_L_C-": 3126, "1_3_C:O_C_C-D_O:C_N_CA": 3127, "2_6_C:C_C_N-Q_NE2:NE2_OE1_CG": 3128, "1_4_O:C_O_C-T_O:C_N_CA": 3129, "2_3_C:O_C_C-K_CD:CG_CD_CE": 3130, "2_6_C:C_C_O-L_CD1:CB_CD1_CD2": 3131, "2_2_C:C_C_N-": 3132, "2_1_O:C_O_C-Q_OE1:CG_OE1_NE2": 3133, "2_1_O:O_O_C-Q_OE1:CG_OE1_NE2": 3134, "2_6_C:N_C_C-Y_CD2:CE2_CD2_CG": 3135, "1_0_C:S_C_C-": 3136, "1_6_N:N_N_C-N_ND2:OD1_ND2_CB": 3137, "1_3_C:C_C_C-W_CZ3:CE3_CZ3_CH2": 3138, "2_6_C:C_C_N-M_CB:CA_CB_CG": 3139, "2_2_O:C_O_C-D_OD2:OD1_OD2_CB": 3140, "2_3_C:O_C_C-F_CD2:CE2_CD2_CG": 3141, ":CG_OE": 3142, "2_6_N:N_N_N-Y_CE1:CD1_CE1_CZ": 3143, "1_1_O:C_O_C-P_CG:CD_CG_CB": 3144, "1_6_O:N_O_C-R_NH1:NE_NH1_NH2": 3145, "1_2_C:C_C_C-F_CE2:CZ_CE2_CD2": 3146, "2_3_N:N_N_C-D_OD2:OD1_OD2_CB": 3147, "1_6_N:C_N_C-R_CD:CG_CD_NE": 3148, "2_3_C:C_C_C-Y_CD1:CG_CD1_CE1": 3149, "1_1_O:O_O_N-Q_OE1:CG_OE1_NE2": 3150, "2_6_C:N_C_C-N_OD1:CB_OD1_ND2": 3151, "1_1_O:O_O_C-F_CZ:CE1_CZ_CE2": 3152, "2_4_C:N_C_C-K_CE:CD_CE_NZ": 3153, "1_6_N:C_N_N-R_NH1:NE_NH1_NH2": 3154, "2_4_O:C_O_C-Q_NE2:NE2_OE1_CG": 3155, "2_6_O:N_O_C-R_CD:CG_CD_NE": 3156, "1_4_C:O_C_C-F_O:C_N_CA": 3157, "1_3_N:C_N_C-E_OE2:OE1_OE2_CG": 3158, "1_5_N:C_N_C-K_CE:CD_CE_NZ": 3159, "1_3_O:P_O_P-G_O:C_N_CA": 3160, "1_6_O:C_O_C-P_CB:CG_CB_CA": 3161, "1_4_C:N_C_N-N_ND2:OD1_ND2_CB": 3162, "1_4_C:O_C_C-Y_CD1:CG_CD1_CE1": 3163, "1_6_N:N_N_N-D_OD2:OD1_OD2_CB": 3164, "1_1_C:N_C_C-Y_OH:CE1_OH_CE2": 3165, "2_1_O:O_O_N-T_CG2:CG2_OG1_CA": 3166, "1_6_N:C_N_N-A_CB:N_CA_C": 3167, "2_4_C:O_C_C-H_CE1:ND1_CE1_NE2": 3168, "1_6_N:C_N_C-F_O:C_N_CA": 3169, "1_6_C:C_C_N-L_O:C_N_CA": 3170, "1_6_C:C_C_N-P_O:C_N_CA": 3171, "1_3_O:C_O_P-A_CB:N_CA_C": 3172, "1_4_C:O_C_C-K_CD:CG_CD_CE": 3173, ":CG1AVAL": 3174, "V_CG2A": 3175, "VAL:CG1AVAL": 3176, "V_CG2AVAL:CG1AVAL": 3177, "V_CG2AVAL:CG1AVAL_CG": 3178, "1_2_N:C_N_C-A_O:C_N_CA": 3179, "2_1_N:N_N_C-R_CD:CG_CD_NE": 3180, "2_1_C:C_C_C-W_NE1:CE2_NE1_CD2": 3181, "1_2_N:C_N_C-N_ND2:OD1_ND2_CB": 3182, "2_6_C:C_C_S-D_O:C_N_CA": 3183, "1_1_O:O_O_C-P_O:C_N_CA": 3184, "2_1_O:O_O_N-E_OE2:OE1_OE2_CG": 3185, "1_6_C": 3186, "2_3_N:C_N_C-L_CD1:CB_CD1_CD2": 3187, "1_1_O:N_O_C-F_CE1:CD1_CE1_CZ": 3188, "2_0_C:C_C_O-": 3189, "2_6_O:C_O_C-Y_O:C_N_CA": 3190, "2_4_N:N_N_C-G_CA:N_CA_C": 3191, "2_2_N:C_N_C-E_OE2:OE1_OE2_CG": 3192, "H1AARG": 3193, ":NH1AARG": 3194, "R_NH2AA": 3195, "RG:NH1AARG": 3196, "R_NH2AARG:NH1AARG": 3197, "R_NH2AARG:NH1AARG_NH": 3198, "2_4_C:O_C_N-": 3199, "1_3_C:C_C_C-W_CE3:CD2_CE3_CZ3": 3200, "1_6_C:N_C_C-T_OG1:CA_CG2_OG1": 3201, "_S:N_S_C-": 3202, "1_3_C:O_C_C-K_CD:CG_CD_CE": 3203, "1_3_C:O_C_C-H_NE2:CE1_NE2_CD2": 3204, "1_2_C:C_C_C-S_O:C_N_CA": 3205, "2_4_O:C_O_C-M_SD:CG_SD_SD": 3206, "1_1_O:O_O_O-M_SD:CG_SD_SD": 3207, "2_6_O:N_O_C-E_OE2:OE1_OE2_CG": 3208, "1_6_N:C_N_C-Y_O:C_N_CA": 3209, "1_1_F:F_F_F-G_O:C_N_CA": 3210, "1_5_N:C_N_C-E_OE2:OE1_OE2_CG": 3211, "1_3_C:N_C_C-P_O:C_N_CA": 3212, "1_1_C:N_C_C-V_CG2:CG1_CG2_CA": 3213, "2_1_O:C_O_C-K_CB:CA_CB_CG": 3214, "1ATYR": 3215, "1_1_N:N_N_N-T_OG1:CA_CG2_OG1": 3216, "2_4_O:C_O_C-Y_CD1:CG_CD1_CE1": 3217, "2_6_C:C_C_C-H_O:C_N_CA": 3218, "1_2_S:C_S_C-V_CG1:CA_CG1_CG2": 3219, "2_3_C:C_C_C-D_OD1:CB_OD1_OD2": 3220, "2_3_C:N_C_C-M_CG:CB_CG_SD": 3221, "2_6_C:C_C_N-P_CD:N_CD_CG": 3222, "2_2_S:C_S_C-V_CG2:CG1_CG2_CA": 3223, "2_6_O:O_O_O-A_O:C_N_CA": 3224, "1_1_N:N_C_C-L_CD2:CD1_CD2_CB": 3225, "1_1_F:C_F_C-A_CB:N_CA_C": 3226, "2_4_N:C_N_C-Q_O:C_N_CA": 3227, "2_1_O:C_O_C-N_O:C_N_CA": 3228, "2_1_N:N_N_C-E_OE1:CG_OE1_OE2": 3229, "2_1_O:O_O_N-N_ND2:OD1_ND2_CB": 3230, "2_6_C:O_C_C-F_CZ:CE1_CZ_CE2": 3231, "1_3_O:C_O_P-G_O:C_N_CA": 3232, "1_1_O:C_O_C-M_O:C_N_CA": 3233, "1_4_C:N_C_N-M_SD:CG_SD_SD": 3234, "2_1_L:C_L_C-E_OE2:OE1_OE2_CG": 3235, "2_1_N:N_N_C-F_CD1:CG_CD1_CE1": 3236, "2_3_O:C_O_C-H_NE2:CE1_NE2_CD2": 3237, "2_2_S:C_S_C-F_CZ:CE1_CZ_CE2": 3238, "1AILE": 3239, "1_6_C:C_C_S-D_OD1:CB_OD1_OD2": 3240, "1_6_N:C_N_N-G_CA:N_CA_C": 3241, "2_1_N:N_N_C-Q_NE2:NE2_OE1_CG": 3242, "1_3_C:N_C_C-W_CE3:CD2_CE3_CZ3": 3243, "2_1_O:C_O_C-R_O:C_N_CA": 3244, "2_6_N:N_N_C-Y_CE1:CD1_CE1_CZ": 3245, "2_4_C:O_C_C-S_O:C_N_CA": 3246, "2_6_C:N_C_C-F_CD1:CG_CD1_CE1": 3247, "_N_C-": 3248, "2_4_C:O_C_C-F_CE2:CZ_CE2_CD2": 3249, "1_1_C:C_C_C-D_O:C_N_CA": 3250, "1_1_O:C_O_C-P_CD:N_CD_CG": 3251, "2_6_O:C_O_C-C_SG:SG_CB_CA": 3252, "2_3_O:C_O_C-R_NH2:NH1_NH2_NE": 3253, "2_1_O:O_O_O-K_CG:CB_CG_CD": 3254, ":O_S_C-": 3255, "1_4_C:O_C_C-H_CE1:ND1_CE1_NE2": 3256, "1_1_N:N_N_C-E_O:C_N_CA": 3257, "1_1_O:N_O_C-F_O:C_N_CA": 3258, "1_6_C:C_C_N-A_O:C_N_CA": 3259, "2_6_N:C_N_N-N_OD1:CB_OD1_ND2": 3260, "2_1_N:N_N_N-G_O:C_N_CA": 3261, "2_3_C:N_C_C-W_CH2:CZ3_CH2_CZ2": 3262, "2_6_O:N_O_C-S_O:C_N_CA": 3263, "2_1_O:O_O_C-K_CG:CB_CG_CD": 3264, "1_6_C:C_C_N-N_ND2:OD1_ND2_CB": 3265, "1_6_N:C_N_N-T_OG1:CA_CG2_OG1": 3266, "2_6_C:C_C_N-Y_CD1:CG_CD1_CE1": 3267, "1_1_N:N_N_C-V_CG1:CA_CG1_CG2": 3268, "2_3_O:C_O_C-F_CZ:CE1_CZ_CE2": 3269, "2_1_O:N_O_C-Q_OE1:CG_OE1_NE2": 3270, "1_2_C:C_C_C-L_O:C_N_CA": 3271, "2_6_F:F_F_C-": 3272, "2_6_C:C_C_L-Y_CE1:CD1_CE1_CZ": 3273, "2_1_O:O_O_C-I_O:C_N_CA": 3274, "1_4_O:C_O_C-S_O:C_N_CA": 3275, "V_CG1AVAL": 3276, ":CA_CG1AVAL": 3277, "V_CG1AVAL:CA_CG1AVAL": 3278, "1_6_O:C_O_C-H_CD2:NE2_CD2_CG": 3279, "_O:P_O_O-": 3280, "2_4_N:C_N_C-W_CD1:NE1_CD1_CG": 3281, "2_3_C:O_C_C-I_CD1:CD1_CG1_CB": 3282, "2_1_O:O_O_O-I_CG2:CB_CG1_CD1": 3283, "1_1_O:N_O_N-D_OD2:OD1_OD2_CB": 3284, "2_1_L:C_L_C-Y_CE1:CD1_CE1_CZ": 3285, "2_1_F:F_F_F-S_OG:OG_CB_CA": 3286, "2_6_C:C_C_L-G_O:C_N_CA": 3287, "2_1_O:C_O_C-M_O:C_N_CA": 3288, "1_1_O:C_O_C-Y_CD1:CG_CD1_CE1": 3289, "1_2_C:C_C_C-F_CD1:CG_CD1_CE1": 3290, "1_6_C:C_C_N-R_NH2:NH1_NH2_NE": 3291, "2_6_O:N_O_C-S_OG:OG_CB_CA": 3292, "2_3_C:O_C_C-M_CB:CA_CB_CG": 3293, "2_1_C:C_C_C-W_CE3:CD2_CE3_CZ3": 3294, "1_1_N:N_N_C-R_NH1:NE_NH1_NH2": 3295, "1_4_O:C_O_P-G_O:C_N_CA": 3296, "2_6_C:N_C_C-F_CD2:CE2_CD2_CG": 3297, "2_6_O:O_O_O-Y_OH:CE1_OH_CE2": 3298, "1_6_C:C_C_L-V_CG1:CA_CG1_CG2": 3299, "2_6_C:N_C_C-M_CE:CG_SD_CG": 3300, "2_3_C:N_C_C-M_CB:CA_CB_CG": 3301, "2_1_L:C_L_C-Y_CD1:CG_CD1_CE1": 3302, "2_3_C:C_C_C-P_CB:CG_CB_CA": 3303, "1_6_O:C_O_C-W_CZ2:CH2_CZ2_CE2": 3304, "2_6_N:C_N_N-R_NH2:NH1_NH2_NE": 3305, "1_1_N:N_N_C-G_CA:N_CA_C": 3306, "1_4_O:C_O_C-M_CG:CB_CG_SD": 3307, "1_1_O:O_O_C-F_CD2:CE2_CD2_CG": 3308, "2_6_O:N_O_C-Y_CD2:CE2_CD2_CG": 3309, "1_4_C:C_C_O-": 3310, "1_1_O:N_O_C-K_O:C_N_CA": 3311, "1_1_N:N_C_C-V_CG1:CA_CG1_CG2": 3312, "2_1_O:O_O_N-Y_CE2:CZ_CE2_CD2": 3313, "2_3_N:C_N_C-S_OG:OG_CB_CA": 3314, "2_3_C:C_C_C-R_CD:CG_CD_NE": 3315, "1_1_O:O_O_O-K_CB:CA_CB_CG": 3316, "2_6_C:N_C_C-S_O:C_N_CA": 3317, "2_3_C:C_C_C-I_CG2:CB_CG1_CD1": 3318, "2_6_N:C_N_C-K_O:C_N_CA": 3319, "1_6_N:C_N_N-I_CG2:CB_CG1_CD1": 3320, "1_2_N:C_N_C-F_CZ:CE1_CZ_CE2": 3321, "2_6_O:N_O_C-A_O:C_N_CA": 3322, "2_1_N:N_N_C-H_NE2:CE1_NE2_CD2": 3323, "1_6_N:N_N_C-R_NH1:NE_NH1_NH2": 3324, "2_1_F:C_F_C-T_OG1:CA_CG2_OG1": 3325, "2_5_C:C_C_C-L_CD2:CD1_CD2_CB": 3326, "1_1_N:N_N_C-L_CD2:CD1_CD2_CB": 3327, "1_1_N:O_N_N-": 3328, "2_6_C:C_C_N-R_NE:CD_NE_CZ": 3329, "2_3_C:C_C_C-R_NH1:NE_NH1_NH2": 3330, "1_1_N:N_N_C-V_CG2:CG1_CG2_CA": 3331, "2_6_N:N_N_C-D_OD1:CB_OD1_OD2": 3332, "2_1_O:N_O_N-Y_OH:CE1_OH_CE2": 3333, "1_1_O:N_O_N-Y_OH:CE1_OH_CE2": 3334, "1_1_N:N_N_C-E_OE2:OE1_OE2_CG": 3335, "2_6_C:C_C_L-Y_CE2:CZ_CE2_CD2": 3336, "1_3_O:C_O_C-E_OE2:OE1_OE2_CG": 3337, "1_6_C:C_C_P-": 3338, "1_1_O:O_O_C-F_CE2:CZ_CE2_CD2": 3339, "1_1_N:N_N_N-D_OD2:OD1_OD2_CB": 3340, "2_4_O:C_O_C-I_CG2:CB_CG1_CD1": 3341, "1_2_S:C_S_C-D_OD2:OD1_OD2_CB": 3342, "1_3_N:C_N_C-K_CE:CD_CE_NZ": 3343, "1_3_N:C_N_C-N_OD1:CB_OD1_ND2": 3344, "2_1_N:N_N_N-D_OD1:CB_OD1_OD2": 3345, "2_4_C:N_C_N-F_CZ:CE1_CZ_CE2": 3346, "1_3_O:C_O_P-T_OG1:CA_CG2_OG1": 3347, "2_6_C:C_C_S-Y_CE2:CZ_CE2_CD2": 3348, "2_1_O:C_O_C-Y_O:C_N_CA": 3349, "1_3_C:O_C_C-T_O:C_N_CA": 3350, "1_1_O:C_O_C-P_CB:CG_CB_CA": 3351, "2_2_N:C_N_C-H_NE2:CE1_NE2_CD2": 3352, "2_3_O:C_O_C-L_CD1:CB_CD1_CD2": 3353, "1_1_O:O_O_C-Y_CD2:CE2_CD2_CG": 3354, "1_1_O:N_O_C-C_O:C_N_CA": 3355, "2_4_C:O_C_C-K_CD:CG_CD_CE": 3356, "1_6_C:C_C_N-F_CZ:CE1_CZ_CE2": 3357, "2_1_C:C_C_C-K_CE:CD_CE_NZ": 3358, "2_1_O:O_O_O-Y_CD2:CE2_CD2_CG": 3359, "1_4_N:N_N_C-L_CD1:CB_CD1_CD2": 3360, "2_6_C:C_C_N-K_NZ:NZ_CE_CD": 3361, "1_2_O:C_O_C-Y_OH:CE1_OH_CE2": 3362, "2_1_C:N_C_C-F_CE1:CD1_CE1_CZ": 3363, "1_1_O:O_O_O-K_CG:CB_CG_CD": 3364, "2_2_N:C_N_C-R_CD:CG_CD_NE": 3365, "2_1_C:O_C_C-D_OD2:OD1_OD2_CB": 3366, "1_6_N:C_N_N-E_OE1:CG_OE1_OE2": 3367, "1_1_C:N_C_C-A_CB:N_CA_C": 3368, "1_1_O:O_O_O-Y_CE2:CZ_CE2_CD2": 3369, "2_6_C:C_C_L-S_OG:OG_CB_CA": 3370, ":P_O_O-": 3371, "2_6_C:O_C_C-D_OD2:OD1_OD2_CB": 3372, "2_6_C:C_C_L-D_OD2:OD1_OD2_CB": 3373, "2_6_C:C_C_L-K_CD:CG_CD_CE": 3374, "2_1_N:C_N_C-D_OD2:OD1_OD2_CB": 3375, "1_6_N:C_N_C-P_CB:CG_CB_CA": 3376, "1_0_C:C_C_C-L_CD2:CD1_CD2_CB": 3377, "2_1_C:N_C_C-F_CE2:CZ_CE2_CD2": 3378, "2_3_O:C_O_C-E_OE2:OE1_OE2_CG": 3379, "1_4_C:O_C_C-F_CE2:CZ_CE2_CD2": 3380, "2_1_O:N_O_C-K_CE:CD_CE_NZ": 3381, "1_4_C:O_C_C-S_O:C_N_CA": 3382, "1_1_O:O_O_N-R_NH1:NE_NH1_NH2": 3383, "1_1_F:C_F_C-D_OD2:OD1_OD2_CB": 3384, "2_6_N:C_N_N-E_OE1:CG_OE1_OE2": 3385, "2_1_C:N_C_C-G_O:C_N_CA": 3386, "2_6_O:O_O_O-S_O:C_N_CA": 3387, "2_4_C:N_C_N-V_CG1:CA_CG1_CG2": 3388, "2_1_O:N_O_C-H_ND1:CG_ND1_CE1": 3389, "1_1_N:N_N_C-R_NH2:NH1_NH2_NE": 3390, "1_6_O:C_O_C-K_CG:CB_CG_CD": 3391, "1_1_O:O_O_N-R_NH2:NH1_NH2_NE": 3392, "1_2_N:C_N_C-K_CD:CG_CD_CE": 3393, "2_0_C:C_C_C-V_CG2:CG1_CG2_CA": 3394, "2_1_F:C_F_C-T_CG2:CG2_OG1_CA": 3395, "2_4_O:C_O_C-M_CB:CA_CB_CG": 3396, "2_1_O:O_O_C-E_O:C_N_CA": 3397, "2_3_C:N_C_C-I_CD1:CD1_CG1_CB": 3398, "2_1_F:C_F_C-F_CD1:CG_CD1_CE1": 3399, "1_6_C:C_C_O-L_CD2:CD1_CD2_CB": 3400, ":P_C_P-": 3401, "1_3_O:P_O_P-K_CE:CD_CE_NZ": 3402, "2_1_O:O_O_O-W_CZ2:CH2_CZ2_CE2": 3403, "2_4_C:N_C_C-F_O:C_N_CA": 3404, "2_6_O:C_O_C-N_O:C_N_CA": 3405, "2_4_C:N_C_N-R_CD:CG_CD_NE": 3406, "1_3_C:N_C_C-M_CG:CB_CG_SD": 3407, "1_2_C:C_C_C-E_O:C_N_CA": 3408, "2_6_C:N_C_C-H_CE1:ND1_CE1_NE2": 3409, "1_1_O:N_O_C-R_NE:CD_NE_CZ": 3410, "2_2_S:C_S_C-L_CD1:CB_CD1_CD2": 3411, "2_3_C:N_C_C-W_CE3:CD2_CE3_CZ3": 3412, "1_6_O:C_O_C-H_ND1:CG_ND1_CE1": 3413, "1_4_O:C_O_P-I_CG2:CB_CG1_CD1": 3414, "1_1_O:N_O_C-M_CG:CB_CG_SD": 3415, "2_3_N:C_N_C-E_OE2:OE1_OE2_CG": 3416, "1_1_N:N_N_N-G_O:C_N_CA": 3417, "1_1_C:C_C_C-P_CG:CD_CG_CB": 3418, "2_1_N:O_N_C-G_CA:N_CA_C": 3419, "2_3_C:C_C_C-K_CD:CG_CD_CE": 3420, "2_6_C:N_C_C-T_OG1:CA_CG2_OG1": 3421, "2_1_L:C_L_C-T_OG1:CA_CG2_OG1": 3422, "1_1_C:C_C_C-Y_O:C_N_CA": 3423, "2_6_O:N_O_C-R_NH1:NE_NH1_NH2": 3424, "1_6_O:N_O_C-L_O:C_N_CA": 3425, "L_CD2A": 3426, ":CD1ALEU": 3427, "LEU:CD1ALEU": 3428, "L_CD2ALEU:CD1ALEU": 3429, "L_CD2ALEU:CD1ALEU_CD": 3430, "2_6_N:N_N_C-N_OD1:CB_OD1_ND2": 3431, "2_6_C:N_C_C-K_CD:CG_CD_CE": 3432, "1_3_C:O_C_C-H_CE1:ND1_CE1_NE2": 3433, "2_0_C:C_C_C-G_CA:N_CA_C": 3434, "2_1_O:O_O_N-R_NH2:NH1_NH2_NE": 3435, "2_1_C:O_C_C-H_NE2:CE1_NE2_CD2": 3436, "1_6_C:N_C_C-M_SD:CG_SD_SD": 3437, "2_1_O:N_O_C-K_CB:CA_CB_CG": 3438, "1_5_N:C_N_C-M_SD:CG_SD_SD": 3439, "2_6_C:C_C_L-M_CE:CG_SD_CG": 3440, "1_5_C:N_C_C-V_CG1:CA_CG1_CG2": 3441, "1_1_O:N_O_C-F_CE2:CZ_CE2_CD2": 3442, ":N_C_O-": 3443, "1_1_N:N_N_C-S_O:C_N_CA": 3444, "1_6_N:N_N_C-T_OG1:CA_CG2_OG1": 3445, "1_1_C:C_C_C-H_NE2:CE1_NE2_CD2": 3446, "2_4_O:C_O_C-R_NH1:NE_NH1_NH2": 3447, "1_1_O:O_O_C-F_CE1:CD1_CE1_CZ": 3448, "1_1_O:O_O_C-H_CD2:NE2_CD2_CG": 3449, "1_6_N:C_N_C-W_CE3:CD2_CE3_CZ3": 3450, "2_4_C:N_C_N-F_CE1:CD1_CE1_CZ": 3451, "2_1_S:C_S_O-": 3452, "2_4_C:N_C_C-Y_O:C_N_CA": 3453, "1_1_O:O_O_C-Y_CD1:CG_CD1_CE1": 3454, "2_4_C:N_C_C-H_ND1:CG_ND1_CE1": 3455, "1_4_C:O_C_C-F_CD1:CG_CD1_CE1": 3456, "1_2_C:C_C_C-A_O:C_N_CA": 3457, "2_3_C:O_C_C-P_CG:CD_CG_CB": 3458, "1_6_C:N_C_C-E_OE2:OE1_OE2_CG": 3459, "1_5_N:C_N_C-T_OG1:CA_CG2_OG1": 3460, "1_3_C:C_C_C-K_CD:CG_CD_CE": 3461, "2_3_O:C_O_C-M_CB:CA_CB_CG": 3462, "2_6_O:N_O_C-F_CD2:CE2_CD2_CG": 3463, "1_3_O:C_O_C-E_OE1:CG_OE1_OE2": 3464, "1_3_O:C_O_C-R_NH1:NE_NH1_NH2": 3465, "2_3_C:N_C_C-Q_OE1:CG_OE1_NE2": 3466, "2_5_N:C_N_C-D_O:C_N_CA": 3467, "1_1_N:N_C_C-V_CG2:CG1_CG2_CA": 3468, "1_3_C:C_C_C-V_O:C_N_CA": 3469, "2_1_C:O_C_C-F_CZ:CE1_CZ_CE2": 3470, "2_1_N:C_N_C-Y_OH:CE1_OH_CE2": 3471, "2_6_N:N_N_C-A_CB:N_CA_C": 3472, "2_4_C:N_C_N-F_CE2:CZ_CE2_CD2": 3473, "1_6_O:N_O_C-E_OE1:CG_OE1_OE2": 3474, "1_3_O:C_O_P-R_NH1:NE_NH1_NH2": 3475, "2_4_C:C_C_O-": 3476, "1_1_C:C_C_C-M_CG:CB_CG_SD": 3477, "2_6_C:N_C_C-P_CB:CG_CB_CA": 3478, "1_1_S:N_S_N-": 3479, "2_6_O:N_O_C-H_NE2:CE1_NE2_CD2": 3480, "2_6_O:C_O_C-R_O:C_N_CA": 3481, "2_1_O:C_O_C-W_CD1:NE1_CD1_CG": 3482, "1_6_N:N_N_O-": 3483, "_C_F-": 3484, "1_6_N:C_N_C-H_O:C_N_CA": 3485, "2_3_C:N_C_C-I_CG2:CB_CG1_CD1": 3486, "2_1_C:N_C_C-N_OD1:CB_OD1_ND2": 3487, "1_6_O:C_O_C-M_O:C_N_CA": 3488, "2_5_C:C_C_C-G_CA:N_CA_C": 3489, "1_6_O:C_O_C-W_NE1:CE2_NE1_CD2": 3490, "2_1_O:O_O_C-K_CE:CD_CE_NZ": 3491, "1_1_F:C_F_C-I_CG2:CB_CG1_CD1": 3492, "2_1_N:N_N_C-Y_CE1:CD1_CE1_CZ": 3493, "2_1_N:N_N_N-R_NH2:NH1_NH2_NE": 3494, "2_3_N:C_N_C-Y_OH:CE1_OH_CE2": 3495, "2_1_C:N_C_C-S_OG:OG_CB_CA": 3496, "1_3_O:C_O_C-R_NH2:NH1_NH2_NE": 3497, "2_2_S:C_S_C-F_CE1:CD1_CE1_CZ": 3498, "2_4_O:C_O_C-R_CD:CG_CD_NE": 3499, "1_1_L:C_L_C-I_CG2:CB_CG1_CD1": 3500, "1_2_S:C_S_C-A_CB:N_CA_C": 3501, "1_2_N:C_N_C-F_CE1:CD1_CE1_CZ": 3502, "2_2_S:C_S_C-G_O:C_N_CA": 3503, "1_5_N:C_N_C-I_CG2:CB_CG1_CD1": 3504, "1_6_N:C_N_N-E_O:C_N_CA": 3505, "1_3_C:N_C_C-W_CH2:CZ3_CH2_CZ2": 3506, "2_1_C:C_C_C-F_O:C_N_CA": 3507, "1_6_C:C_C_S-T_OG1:CA_CG2_OG1": 3508, "2_4_O:C_O_C-A_O:C_N_CA": 3509, "2_6_C:C_C_S-P_CG:CD_CG_CB": 3510, "2_3_C:C_C_C-M_CB:CA_CB_CG": 3511, "2_4_C:O_C_C-T_OG1:CA_CG2_OG1": 3512, "1_4_O:C_O_C-W_CZ2:CH2_CZ2_CE2": 3513, "1_1_C:C_": 3514, "1_2_O:C_O_C-V_CG2:CG1_CG2_CA": 3515, "2_4_O:C_O_C-W_CH2:CZ3_CH2_CZ2": 3516, "1_5_C:N_C_C-L_CD2:CD1_CD2_CB": 3517, "2_6_N:N_N_C-D_O:C_N_CA": 3518, "1_2_O:C_O_C-G_O:C_N_CA": 3519, "2_5_N:C_N_C-F_CZ:CE1_CZ_CE2": 3520, "1_6_C:C_C_N-K_CE:CD_CE_NZ": 3521, "2_3_O:C_O_C-A_CB:N_CA_C": 3522, "2_1_C:N_C_C-T_CG2:CG2_OG1_CA": 3523, "1_1_C:O_C_C-A_CB:N_CA_C": 3524, "1_3_C:C_C_C-N_O:C_N_CA": 3525, "1_3_C:N_C_C-K_O:C_N_CA": 3526, "1_6_S:C_S_S-": 3527, "1_5_O:C_O_P-": 3528, "1_1_O:O_O_C-F_CD1:CG_CD1_CE1": 3529, "2_3_C:N_C_C-W_CZ2:CH2_CZ2_CE2": 3530, "1_6_N:C_N_N-E_OE2:OE1_OE2_CG": 3531, "2_1_N:N_N_C-Y_CE2:CZ_CE2_CD2": 3532, "1_1_C:O_C_C-V_CG2:CG1_CG2_CA": 3533, "1_1_C:C_C_C-W_CH2:CZ3_CH2_CZ2": 3534, "1_1_O:C_O_C-W_CZ2:CH2_CZ2_CE2": 3535, "2_1_O:N_O_N-N_ND2:OD1_ND2_CB": 3536, "1_3_O:C_O_C-M_SD:CG_SD_SD": 3537, "1_1_O:O_O_N-K_CE:CD_CE_NZ": 3538, "2_6_C:C_C_N-I_CG2:CB_CG1_CD1": 3539, "2_6_C:N_C_C-D_O:C_N_CA": 3540, "2_2_C:C_C_C-K_CD:CG_CD_CE": 3541, ":CB_OD": 3542, "2_1_O:O_O_O-I_CD1:CD1_CG1_CB": 3543, "2_1_O:N_O_C-Y_O:C_N_CA": 3544, "2_3_O:C_O_C-F_CE1:CD1_CE1_CZ": 3545, "2_2_N:C_N_C-N_ND2:OD1_ND2_CB": 3546, "1_3_C:N_C_C-V_O:C_N_CA": 3547, "2_5_O:C_O_P-": 3548, "1_6_O:N_O_C-N_OD1:CB_OD1_ND2": 3549, "2_6_N:C_N_C-H_ND1:CG_ND1_CE1": 3550, "1_3_C:O_C_C-E_O:C_N_CA": 3551, "2_6_C:C_C_O-D_OD2:OD1_OD2_CB": 3552, "1_6_C:C_C_O-L_CD1:CB_CD1_CD2": 3553, "1_5_N:C_N_C-N_OD1:CB_OD1_ND2": 3554, "1_1_O:O_O_C-H_ND1:CG_ND1_CE1": 3555, "2_1_O:N_O_N-V_CG2:CG1_CG2_CA": 3556, "2_2_S:C_S_C-D_OD2:OD1_OD2_CB": 3557, "2_6_O:N_O_C-H_CE1:ND1_CE1_NE2": 3558, "2_0_C:C_C_C-L_CD2:CD1_CD2_CB": 3559, "2_3_C:C_C_C-Q_OE1:CG_OE1_NE2": 3560, "2_3_N:C_N_C-F_CE1:CD1_CE1_CZ": 3561, "1_1_C:C_C_C-W_CZ2:CH2_CZ2_CE2": 3562, "1_6_N:N_N_C-K_CE:CD_CE_NZ": 3563, "2_6_C:C_C_S-H_CE1:ND1_CE1_NE2": 3564, "1_6_N:N_N_C-N_OD1:CB_OD1_ND2": 3565, "1_3_N:C_N_C-M_SD:CG_SD_SD": 3566, "2_4_C:N_C_N-Y_CE2:CZ_CE2_CD2": 3567, "2_6_N:N_N_N-F_CZ:CE1_CZ_CE2": 3568, "2_4_O:C_O_C-P_CD:N_CD_CG": 3569, "2_2_C:C_C_C-D_OD1:CB_OD1_OD2": 3570, "_NH1AARG": 3571, "R_NH1AARG": 3572, ":NE_NH1AARG": 3573, "R_NH1AARG:NE_NH1AARG": 3574, "1_6_N:C_N_C-W_CZ3:CE3_CZ3_CH2": 3575, "1_1_O:C_O_C-H_O:C_N_CA": 3576, "2_4_C:N_C_C-K_O:C_N_CA": 3577, "2_6_C:O_C_C-T_CG2:CG2_OG1_CA": 3578, "1_1_C:N_C_C-D_OD1:CB_OD1_OD2": 3579, "2_1_L:C_L_C-H_NE2:CE1_NE2_CD2": 3580, "2_1_O:O_O_C-N_O:C_N_CA": 3581, "1_1_L:C_L_C-D_OD2:OD1_OD2_CB": 3582, "2_1_C:C_C_C-V_O:C_N_CA": 3583, "1_4_C:O_C_C-H_NE2:CE1_NE2_CD2": 3584, "1_1_O:C_O_C-W_CZ3:CE3_CZ3_CH2": 3585, "2_1_F:F_F_F-Y_OH:CE1_OH_CE2": 3586, "1_1_O:N_O_C-P_CB:CG_CB_CA": 3587, "1_2_O:C_O_C-G_CA:N_CA_C": 3588, "2_6_C:C_C_L-M_SD:CG_SD_SD": 3589, "2_6_C:C_C_N-S_O:C_N_CA": 3590, "1_6_N:N_N_C-E_OE1:CG_OE1_OE2": 3591, "1_6_O:N_O_C-Y_CE1:CD1_CE1_CZ": 3592, "1_1_O:N_O_C-D_O:C_N_CA": 3593, "1_1_C:C_C_C-K_O:C_N_CA": 3594, "1_6_C:C_C_N-F_CE2:CZ_CE2_CD2": 3595, "2_6_C:N_C_C-Y_CD1:CG_CD1_CE1": 3596, "2_1_L:C_L_C-F_CD2:CE2_CD2_CG": 3597, "1_6_O:C_O_C-K_O:C_N_CA": 3598, "1_3_O:C_O_C-F_O:C_N_CA": 3599, "2_6_O:N_O_C-N_OD1:CB_OD1_ND2": 3600, "2_4_O:C_O_C-H_CD2:NE2_CD2_CG": 3601, "1_2_C": 3602, "S:O_S_O-": 3603, "2_1_F:C_F_C-N_ND2:OD1_ND2_CB": 3604, "1_4_C:N_C_N-Q_OE1:CG_OE1_NE2": 3605, "2_6_C:N_C_C-D_OD1:CB_OD1_OD2": 3606, "1_6_C:C_C_N-F_CE1:CD1_CE1_CZ": 3607, "2_2_C:N_C_C-G_CA:N_CA_C": 3608, "2_0_C:C_C_N-": 3609, "2_1_N:N_N_C-F_CE2:CZ_CE2_CD2": 3610, "1_1_N:N_N_C-T_OG1:CA_CG2_OG1": 3611, "1_1_O:N_O_C-N_O:C_N_CA": 3612, "1_6_C:O_C_C-A_CB:N_CA_C": 3613, "2_1_N:N_N_N-Y_OH:CE1_OH_CE2": 3614, "2_4_O:C_O_C-K_CB:CA_CB_CG": 3615, "2_4_C:N_C_N-H_NE2:CE1_NE2_CD2": 3616, "1_3_C:N_C_C-W_CZ3:CE3_CZ3_CH2": 3617, "1_3_C:N_C_C-W_CZ2:CH2_CZ2_CE2": 3618, "_L:C_L_C-": 3619, "1_6_O:O_O_C-L_CD1:CB_CD1_CD2": 3620, "2_2_N:C_N_C-N_OD1:CB_OD1_ND2": 3621, "1_1_O:C_O_C-W_CH2:CZ3_CH2_CZ2": 3622, "2_6_C:N_C_C-R_NH2:NH1_NH2_NE": 3623, "2_3_C:O_C_C-P_CB:CG_CB_CA": 3624, "2_O:C_O_N-": 3625, "1_3_C:O_C_C-N_O:C_N_CA": 3626, "1_3_C:N_C_C-M_CB:CA_CB_CG": 3627, "2_1_C:N_C_C-Y_CE2:CZ_CE2_CD2": 3628, "1_1_O:O_O_O-H_CD2:NE2_CD2_CG": 3629, "1_5_C:C_C_C-V_CG2:CG1_CG2_CA": 3630, "2_1_N:N_N_C-H_CD2:NE2_CD2_CG": 3631, "2_5_N:C_N_C-Y_OH:CE1_OH_CE2": 3632, "2_6_N:N_N_C-M_CE:CG_SD_CG": 3633, "2_4_O:C_O_C-W_CZ2:CH2_CZ2_CE2": 3634, ":C_N_S-": 3635, "2_6_C:C_C_S-H_NE2:CE1_NE2_CD2": 3636, "1_3_O:P_O_P-A_CB:N_CA_C": 3637, "2_1_C:P_C_O-": 3638, "1_6_C:N_C_C-E_OE1:CG_OE1_OE2": 3639, "1_6_O:N_O_C-R_NH2:NH1_NH2_NE": 3640, "2_6_O:N_O_C-E_OE1:CG_OE1_OE2": 3641, "2_6_O:N_O_C-H_CD2:NE2_CD2_CG": 3642, "1_2_O:C_O_C-V_CG1:CA_CG1_CG2": 3643, "1_6_N:C_N_N-A_O:C_N_CA": 3644, "2_6_C:C_C_S-S_OG:OG_CB_CA": 3645, "1_6_N:C_N_C-P_CG:CD_CG_CB": 3646, "2_1_N:N_N_C-T_OG1:CA_CG2_OG1": 3647, "2_6_C:C_C_L-F_CD1:CG_CD1_CE1": 3648, "2_3_C:O_C_C-E_OE1:CG_OE1_OE2": 3649, "1_1_F:F_F_F-I_CG2:CB_CG1_CD1": 3650, "2_1_O:O_O_O-P_CD:N_CD_CG": 3651, "2_3_C:N_C_C-P_CD:N_CD_CG": 3652, "2_1_F:C_F_C-Y_CE2:CZ_CE2_CD2": 3653, "1_5_N:C_N_C-K_CD:CG_CD_CE": 3654, "1_6_O:C_O_C-W_CE3:CD2_CE3_CZ3": 3655, "2_1_O:N_O_C-F_O:C_N_CA": 3656, "2_1_O:O_O_O-P_CB:CG_CB_CA": 3657, "2_2_N:C_N_C-Y_CE1:CD1_CE1_CZ": 3658, "1_5_C:N_C_C-V_CG2:CG1_CG2_CA": 3659, "2_1_N:N_N_C-I_CG2:CB_CG1_CD1": 3660, "1_1_C:C_C_C-H_CE1:ND1_CE1_NE2": 3661, "1_3_O:C_O_C-N_OD1:CB_OD1_ND2": 3662, "2_1_F:F_F_F-A_CB:N_CA_C": 3663, "2_6_C:N_C_C-H_CD2:NE2_CD2_CG": 3664, "2_4_O:C_O_C-K_NZ:NZ_CE_CD": 3665, "2_1_N:N_N_N-E_OE2:OE1_OE2_CG": 3666, "2_1_O:O_O_C-F_O:C_N_CA": 3667, "1_3_C:N_C_C-P_CG:CD_CG_CB": 3668, "1_6_O:C_O_C-W_CH2:CZ3_CH2_CZ2": 3669, "2_3_C:N_C_C-I_O:C_N_CA": 3670, "1_6_N:C_N_C-W_CZ2:CH2_CZ2_CE2": 3671, "1_6_N:C_N_N-R_NH2:NH1_NH2_NE": 3672, "2_5_N:C_N_C-E_OE2:OE1_OE2_CG": 3673, "2_1_O:O_O_N-P_CG:CD_CG_CB": 3674, "1_1_O:N_O_N-G_O:C_N_CA": 3675, "2_2_O:C_O_C-L_CD2:CD1_CD2_CB": 3676, "1_1_C:C_C_C-C_O:C_N_CA": 3677, "1_5_N:C_N_C-Y_CE1:CD1_CE1_CZ": 3678, "2_1_O:O_O_N-I_CD1:CD1_CG1_CB": 3679, "1_6_O:C_O_C-M_CB:CA_CB_CG": 3680, "2_1_F:F_F_F-D_OD2:OD1_OD2_CB": 3681, "2_6_N:C_N_C-C_O:C_N_CA": 3682, "1_1_O:O_O_O-H_ND1:CG_ND1_CE1": 3683, "1_2_S:C_S_C-I_CG2:CB_CG1_CD1": 3684, "1_1_N:N_C_C-Y_OH:CE1_OH_CE2": 3685, "2_2_N:C_N_C-V_CG1:CA_CG1_CG2": 3686, "2_3_C:C_C_C-D_O:C_N_CA": 3687, "1_1_O:O_O_O-E_O:C_N_CA": 3688, "2_5_N:C_N_C-S_OG:OG_CB_CA": 3689, "1_3_C:N_C_C-M_O:C_N_CA": 3690, "2_1_N:N_N_C-P_CG:CD_CG_CB": 3691, "2_6_O:O_O_O-R_NE:CD_NE_CZ": 3692, "2_6_C:C_C_S-N_ND2:OD1_ND2_CB": 3693, "1_1_L:C_L_S-": 3694, "1_1_F:F_F_F-Y_OH:CE1_OH_CE2": 3695, "2_1_C:C_C_C-E_O:C_N_CA": 3696, "2_6_N:C_N_C-Q_O:C_N_CA": 3697, "1_3_C:N_C_C-I_O:C_N_CA": 3698, "2_3_O:C_O_P-T_CG2:CG2_OG1_CA": 3699, "1_1_O:O_O_C-H_O:C_N_CA": 3700, "2_6_N:C_N_N-R_NH1:NE_NH1_NH2": 3701, "2_6_C:N_C_C-R_CD:CG_CD_NE": 3702, "2_2_O:C_O_C-G_O:C_N_CA": 3703, "2_6_C:N_C_C-N_ND2:OD1_ND2_CB": 3704, "1_4_C:O_C_C-I_O:C_N_CA": 3705, "1_1_O:N_O_C-F_CD1:CG_CD1_CE1": 3706, "1_6_O:N_O_C-I_O:C_N_CA": 3707, "1_6_N:C_N_C-W_CH2:CZ3_CH2_CZ2": 3708, "2_1_C:N_C_C-F_CD1:CG_CD1_CE1": 3709, "1_1_O:N_O_C-Y_CD2:CE2_CD2_CG": 3710, "2_1_N:N_N_C-S_O:C_N_CA": 3711, "2_6_C:C_C_S-F_CD1:CG_CD1_CE1": 3712, "2_4_C:N_C_N-I_O:C_N_CA": 3713, "1_4_O:C_O_C-E_O:C_N_CA": 3714, "2_4_C:N_C_C-R_O:C_N_CA": 3715, "2_6_N:N_N_C-Y_CD1:CG_CD1_CE1": 3716, "2_6_N:C_N_C-N_O:C_N_CA": 3717, "1_1_C:C_C_C-R_O:C_N_CA": 3718, "2_3_O:C_O_C-N_ND2:OD1_ND2_CB": 3719, "2_1_N:N_N_C-A_O:C_N_CA": 3720, "2_3_C:N_C_C-A_O:C_N_CA": 3721, "2_1_O:N_O_N-G_O:C_N_CA": 3722, "2_6_N:O_N_N-": 3723, "2_4_C:O_C_C-R_NH1:NE_NH1_NH2": 3724, "2_6_O:O_O_O-E_OE2:OE1_OE2_CG": 3725, "2_1_O:O_O_O-Q_OE1:CG_OE1_NE2": 3726, "1_3_N:N_N_C-K_CD:CG_CD_CE": 3727, "2_1_O:O_O_O-W_NE1:CE2_NE1_CD2": 3728, "2_4_O:C_O_C-L_O:C_N_CA": 3729, "1_3_C:C_C_C-P_CG:CD_CG_CB": 3730, "2_1_O:O_O_O-W_CH2:CZ3_CH2_CZ2": 3731, "2_1_F:C_F_C-H_NE2:CE1_NE2_CD2": 3732, "2_1_L:C_L_C-M_CE:CG_SD_CG": 3733, "1_3_C:O_C_C-W_CZ2:CH2_CZ2_CE2": 3734, "1_6_C:C_C_N-F_CD1:CG_CD1_CE1": 3735, "2_4_C:O_C_C-A_CB:N_CA_C": 3736, "2_3_O:C_O_C-Y_CE2:CZ_CE2_CD2": 3737, "1_6_O:N_O_C-F_O:C_N_CA": 3738, "2_3_N:C_N_C-F_CZ:CE1_CZ_CE2": 3739, "1_6_N:N_N_N-L_CD2:CD1_CD2_CB": 3740, "2_4_O:C_O_C-I_O:C_N_CA": 3741, "1_1_C:C_C_C-W_CZ3:CE3_CZ3_CH2": 3742, "2_1_L:C_L_C-K_CB:CA_CB_CG": 3743, "2_3_N:C_N_C-T_CG2:CG2_OG1_CA": 3744, "1_1_O:O_O_C-W_NE1:CE2_NE1_CD2": 3745, "1_3_O:C_O_C-A_O:C_N_CA": 3746, "1_1_O:N_O_N-D_OD1:CB_OD1_OD2": 3747, "2_6_C:N_C_C-M_CG:CB_CG_SD": 3748, "1_2_O:O_O_P-": 3749, "2_6_O:N_O_C-N_ND2:OD1_ND2_CB": 3750, "1_2_C:C_C_C-Y_CD1:CG_CD1_CE1": 3751, "1_3_C:O_C_C-M_CG:CB_CG_SD": 3752, "2_3_O:C_O_C-F_CE2:CZ_CE2_CD2": 3753, "1_3_O:C_O_C-K_CD:CG_CD_CE": 3754, "1_6_O:O_O_O-Y_OH:CE1_OH_CE2": 3755, "T_OG1AT": 3756, "HR:CA_CG": 3757, "T_OG1ATHR:CA_CG": 3758, "T_OG1ATHR:CA_CG2ATHR": 3759, "1_1_S:C_S_O-": 3760, "2_4_C:O_C_C-V_CG1:CA_CG1_CG2": 3761, "1_4_O:C_O_C-I_O:C_N_CA": 3762, "2_4_O:C_O_C-W_CZ3:CE3_CZ3_CH2": 3763, "2_1_O:O_O_C-C_SG:SG_CB_CA": 3764, "2_6_C:N_C_C-W_CH2:CZ3_CH2_CZ2": 3765, "2_1_O:C_O_C-E_O:C_N_CA": 3766, "2_6_C:C_C_N-H_CD2:NE2_CD2_CG": 3767, "1_1_O:N_O_C-Y_CD1:CG_CD1_CE1": 3768, "1_3_N:N_N_C-I_CG2:CB_CG1_CD1": 3769, "1_6_O:N_O_C-A_O:C_N_CA": 3770, "2_3_N:C_N_C-N_OD1:CB_OD1_ND2": 3771, "1_1_O:N_O_N-A_CB:N_CA_C": 3772, "2_4_C:O_C_C-D_OD1:CB_OD1_OD2": 3773, "AT": 3774, "ATRP": 3775, "2_1_O:O_O_N-Q_NE2:NE2_OE1_CG": 3776, "2_6_C:C_C_S-P_CB:CG_CB_CA": 3777, "2_3_C:O_C_C-Y_CD2:CE2_CD2_CG": 3778, "1_4_O:C_O_C-V_O:C_N_CA": 3779, "1_4_C:N_C_N-V_O:C_N_CA": 3780, "2_2_N:C_N_C-R_NH2:NH1_NH2_NE": 3781, "1_3_O:C_O_C-N_ND2:OD1_ND2_CB": 3782, "2_1_F:F_F_F-V_CG1:CA_CG1_CG2": 3783, "1_6_N:N_N_N-V_CG1:CA_CG1_CG2": 3784, "2_6_C:C_C_N-W_CZ2:CH2_CZ2_CE2": 3785, "1_1_C:C_C_C-W_CE3:CD2_CE3_CZ3": 3786, "1_3_O:C_O_S-": 3787, "2_6_N:C_N_N-Y_CE1:CD1_CE1_CZ": 3788, "2_6_N:N_N_N-Y_OH:CE1_OH_CE2": 3789, "1_6_N:C_N_C-H_CD2:NE2_CD2_CG": 3790, "1_3_C:C_C_C-I_O:C_N_CA": 3791, "2_3_C:C_C_C-P_CD:N_CD_CG": 3792, "2_3_C:O_C_C-Q_NE2:NE2_OE1_CG": 3793, "1_6_C:N_C_C-R_NH1:NE_NH1_NH2": 3794, "2_1_L:C_L_C-H_CE1:ND1_CE1_NE2": 3795, "2_1_F:C_F_C-Y_CE1:CD1_CE1_CZ": 3796, "2_1_F:F_F_O-": 3797, "1_1_N:N_N_C-Q_OE1:CG_OE1_NE2": 3798, "1_0_C:C_C_O-": 3799, "1_6_N:C_N_L-": 3800, "2_1_O:O_O_O-W_CZ3:CE3_CZ3_CH2": 3801, "2_6_O:C_O_C-M_O:C_N_CA": 3802, "2_2_C:C_C_C-S_O:C_N_CA": 3803, "2_4_C:N_C_C-Q_O:C_N_CA": 3804, ":O_F_F-": 3805, "1_6_O:C_O_C-W_CZ3:CE3_CZ3_CH2": 3806, "2_1_F:F_F_F-F_CD1:CG_CD1_CE1": 3807, "2_1_L:C_L_C-A_CB:N_CA_C": 3808, "2_2_S:C_S_C-V_CG1:CA_CG1_CG2": 3809, "1_6_O:C_O_C-P_CD:N_CD_CG": 3810, "2_6_N:C_N_N-Y_CE2:CZ_CE2_CD2": 3811, "1_1_O:O_O_N-T_OG1:CA_CG2_OG1": 3812, "1_6_C:C_C_L-V_CG2:CG1_CG2_CA": 3813, "2_2_C:C_C_C-N_ND2:OD1_ND2_CB": 3814, "1_6_C:O_C_C-G_O:C_N_CA": 3815, "1_1_O:O_O_C-D_O:C_N_CA": 3816, "1_6_N:C_N_C-C_O:C_N_CA": 3817, "2_4_C:N_C_N-D_OD1:CB_OD1_OD2": 3818, "1_3_C:C_C_C-P_O:C_N_CA": 3819, "2_6_C:N_C_C-M_SD:CG_SD_SD": 3820, "1_2_N:C_N_C-R_CD:CG_CD_NE": 3821, "1_4_C:O_C_C-F_CD2:CE2_CD2_CG": 3822, "2_2_N:C_N_C-D_O:C_N_CA": 3823, "1_2_C:C_C_C-F_CD2:CE2_CD2_CG": 3824, "1_1_C:C_C_C-R_CD:CG_CD_NE": 3825, "1_6_F:C_F_C-L_CD1:CB_CD1_CD2": 3826, "1_4_O:C_O_C-R_CD:CG_CD_NE": 3827, "1_2_O:C_O_C-D_OD1:CB_OD1_OD2": 3828, "2_1_O:N_O_N-Y_CE1:CD1_CE1_CZ": 3829, "2_6_N:C_N_N-R_NE:CD_NE_CZ": 3830, "1_6_N:C_N_C-R_O:C_N_CA": 3831, "1_1_O:N_O_C-H_O:C_N_CA": 3832, "2_2_C:C_C_C-M_CE:CG_SD_CG": 3833, "1_3_C:C_C_C-P_CD:N_CD_CG": 3834, "2_2_C:C_C_C-H_CE1:ND1_CE1_NE2": 3835, "1_1_C:C_C_C-H_O:C_N_CA": 3836, "1AASN": 3837, "2_1_O:N_O_N-S_OG:OG_CB_CA": 3838, "2_3_C:O_C_C-H_CD2:NE2_CD2_CG": 3839, "1_1_C:C_C_C-K_CG:CB_CG_CD": 3840, "1_6_N:C_N_C-K_CG:CB_CG_CD": 3841, "1_3_N:C_N_C-E_O:C_N_CA": 3842, "1_2_N:C_N_C-Y_CE2:CZ_CE2_CD2": 3843, "1_3_O:C_O_C-F_CE1:CD1_CE1_CZ": 3844, "1_3_O:C_O_C-Y_CE1:CD1_CE1_CZ": 3845, "1_6_N:N_N_C-E_OE2:OE1_OE2_CG": 3846, "1_1_O:O_O_N-N_OD1:CB_OD1_ND2": 3847, "1_2_C:C_C_C-Y_CD2:CE2_CD2_CG": 3848, "2_6_O:C_O_C-W_CD1:NE1_CD1_CG": 3849, "1_1_C:O_C_C-D_OD2:OD1_OD2_CB": 3850, "1_3_C:N_C_C-H_CD2:NE2_CD2_CG": 3851, "1_1_O:N_O_C-P_CG:CD_CG_CB": 3852, "2_3_C:C_C_C-W_CE3:CD2_CE3_CZ3": 3853, "1_4_O:C_O_C-P_CB:CG_CB_CA": 3854, "1_3_C:O_C_C-P_O:C_N_CA": 3855, "1_1_O:O_O_N-E_OE2:OE1_OE2_CG": 3856, "1_5_N:C_N_C-E_OE1:CG_OE1_OE2": 3857, "1_4_O:C_O_C-N_O:C_N_CA": 3858, "1_4_C:O_C_C-E_O:C_N_CA": 3859, "1_5_C:C_C_C-A_CB:N_CA_C": 3860, "2_1_L:C_L_C-P_CG:CD_CG_CB": 3861, "1_1_O:N_O_C-F_CD2:CE2_CD2_CG": 3862, "2_1_O:O_O_N-A_CB:N_CA_C": 3863, "2_6_N:N_N_N-T_CG2:CG2_OG1_CA": 3864, "2_2_C:C_C_C-F_CD2:CE2_CD2_CG": 3865, "2_4_C:O_C_C-F_CD1:CG_CD1_CE1": 3866, "2_1_O:O_O_O-M_CG:CB_CG_SD": 3867, "2_1_O:N_O_N-R_NH2:NH1_NH2_NE": 3868, "2_6_N:N_N_C-R_NH2:NH1_NH2_NE": 3869, "2_6_C:O_C_C-F_CE2:CZ_CE2_CD2": 3870, "2_1_F:F_F_F-H_NE2:CE1_NE2_CD2": 3871, "1_1_O:O_O_C-W_CZ2:CH2_CZ2_CE2": 3872, "1_3_C:N_C_C-F_O:C_N_CA": 3873, "2_1_L:C_L_C-S_O:C_N_CA": 3874, "2_1_N:C_N_C-E_OE2:OE1_OE2_CG": 3875, "2_2_S:C_S_C-Y_OH:CE1_OH_CE2": 3876, "2_1_L:C_L_C-M_CG:CB_CG_SD": 3877, "2_1_O:O_O_C-V_O:C_N_CA": 3878, "2_6_C:C_C_S-F_CD2:CE2_CD2_CG": 3879, "2_2_O:C_O_P-G_O:C_N_CA": 3880, "2_3_O:P_O_P-S_O:C_N_CA": 3881, "D_OD2AAS": 3882, "1_6_N:C_N_C-R_CG:CB_CG_CD": 3883, "D_OD2AASP": 3884, "1AASP_OD": 3885, ":OD1AASP_OD": 3886, "D_OD2AASP:OD1AASP_OD": 3887, "1_1_O:O_O_C-M_CG:CB_CG_SD": 3888, "2_6_N:C_N_C-R_O:C_N_CA": 3889, "2_4_C:O_C_C-D_O:C_N_CA": 3890, "2_6_O:N_O_C-T_OG1:CA_CG2_OG1": 3891, "1_1_C:O_C_C-G_O:C_N_CA": 3892, "1_4_C:N_C_N-S_O:C_N_CA": 3893, "2_6_N:N_N_C-M_CG:CB_CG_SD": 3894, "2_3_C:O_C_C-M_CE:CG_SD_CG": 3895, "2_1_N:N_N_C-Q_OE1:CG_OE1_NE2": 3896, "2_3_C:N_C_C-K_CB:CA_CB_CG": 3897, "1_4_C:C_C_C-M_CE:CG_SD_CG": 3898, "1_1_F:C_F_C-A_O:C_N_CA": 3899, "1_1_F:F_F_F-D_OD2:OD1_OD2_CB": 3900, ":L_O": 3901, "1_3_C:C_C_C-F_O:C_N_CA": 3902, "2_6_N:C_N_N-A_CB:N_CA_C": 3903, "1_6_C:C_C_L-D_OD2:OD1_OD2_CB": 3904, "1_6_N:C_N_N-L_O:C_N_CA": 3905, "2_1_F:C_F_F-": 3906, "1_6_N:C_N_C-W_NE1:CE2_NE1_CD2": 3907, "1_6_N:N_N_C-R_NH2:NH1_NH2_NE": 3908, "1_5_O:C_O_C-V_CG1:CA_CG1_CG2": 3909, "1_1_O:C_O_C-H_ND1:CG_ND1_CE1": 3910, "2_6_C:N_C_C-I_O:C_N_CA": 3911, "2AHIS": 3912, "2_0_S:C_S_C-": 3913, "2_1_L:C_L_C-Y_CD2:CE2_CD2_CG": 3914, "2_1_O:O_O_N-D_O:C_N_CA": 3915, "1_3_N:N_N_C-N_OD1:CB_OD1_ND2": 3916, "2_6_N:N_N_N-F_CE1:CD1_CE1_CZ": 3917, "2_4_C:N_C_S-": 3918, "2_6_N:C_N_N-D_O:C_N_CA": 3919, "2_4_O:C_O_P-I_O:C_N_CA": 3920, "2_1_F:C_F_C-K_CD:CG_CD_CE": 3921, "2_3_O:C_O_C-V_CG1:CA_CG1_CG2": 3922, "2_1_L:C_L_C-R_NH2:NH1_NH2_NE": 3923, "1_4_O:C_O_C-P_CD:N_CD_CG": 3924, "2_3_C:O_C_C-I_CG2:CB_CG1_CD1": 3925, "2_6_O:O_O_C-D_OD2:OD1_OD2_CB": 3926, "2_2_C:C_C_C-H_CD2:NE2_CD2_CG": 3927, "2_6_O:N_O_C-R_NE:CD_NE_CZ": 3928, "2_1_F:C_F_C-V_CG1:CA_CG1_CG2": 3929, "1_3_C:O_C_C-P_CG:CD_CG_CB": 3930, "1_3_C:O_C_C-H_CD2:NE2_CD2_CG": 3931, "2_6_N:C_N_N-P_CG:CD_CG_CB": 3932, "1_5_N:C_N_C-R_NH1:NE_NH1_NH2": 3933, "2_2_C:C_C_C-M_SD:CG_SD_SD": 3934, "1_2_O:C_O_C-A_CB:N_CA_C": 3935, "2_6_C:N_C_C-Q_NE2:NE2_OE1_CG": 3936, "1_1_C:C_C_C-M_O:C_N_CA": 3937, "1_1_O:N_O_C-R_CD:CG_CD_NE": 3938, "1_3_C:N_C_C-P_CB:CG_CB_CA": 3939, "1_3_C:N_C_C-R_CD:CG_CD_NE": 3940, "1_6_O:O_O_O-K_CD:CG_CD_CE": 3941, "1_1_L:C_L_C-D_OD1:CB_OD1_OD2": 3942, "1_3_C:C_C_C-D_O:C_N_CA": 3943, "1_3_C:N_C_C-H_O:C_N_CA": 3944, "1_3_C:C_C_C-H_ND1:CG_ND1_CE1": 3945, "1_1_N:N_N_C-T_O:C_N_CA": 3946, ":B": 3947, "1_1_O:N_O_N-N_ND2:OD1_ND2_CB": 3948, "1_6_C:C_C_N-Y_CE1:CD1_CE1_CZ": 3949, "2_2_C": 3950, "_CD1ALEU": 3951, "L_CD1ALEU": 3952, ":CB_CD1ALEU": 3953, "L_CD1ALEU:CB_CD1ALEU": 3954, "2_6_N:N_N_C-N_ND2:OD1_ND2_CB": 3955, "2_3_C:N_C_C-K_NZ:NZ_CE_CD": 3956, "2_6_C:O_C_C-F_CE1:CD1_CE1_CZ": 3957, "2_3_C:O_C_C-R_CD:CG_CD_NE": 3958, "1_1_O:O_O_C-P_CG:CD_CG_CB": 3959, "2_6_C:C_C_S-Q_NE2:NE2_OE1_CG": 3960, "1_5_C:N_C_C-Y_OH:CE1_OH_CE2": 3961, "2_6_C:N_C_C-E_OE1:CG_OE1_OE2": 3962, "1_1_F:N_F_C-": 3963, "1_3_N:N_N_C-N_ND2:OD1_ND2_CB": 3964, "2_3_C:O_C_C-R_NH1:NE_NH1_NH2": 3965, "1_6_N:N_N_C-E_O:C_N_CA": 3966, "1_2_O:O_O_C-": 3967, "2_2_S:C_S_C-F_CE2:CZ_CE2_CD2": 3968, "1_1_F:F_F_F-G_CA:N_CA_C": 3969, "1_1_F:F_F_F-M_SD:CG_SD_SD": 3970, "2_1_O:N_O_C-M_O:C_N_CA": 3971, "1_2_C:C_C_C-M_CG:CB_CG_SD": 3972, "2_1_C:N_C_C-V_CG1:CA_CG1_CG2": 3973, "1_3_O:C_O_C-Q_OE1:CG_OE1_NE2": 3974, "1_1_N:N_N_N-R_NH1:NE_NH1_NH2": 3975, "1_1_O:C_O_C-M_CB:CA_CB_CG": 3976, "2_6_O:N_O_C-K_CD:CG_CD_CE": 3977, "2_4_N:N_N_C-L_CD2:CD1_CD2_CB": 3978, "1_6_N:C_N_C-W_O:C_N_CA": 3979, "1_4_O:C_O_C-P_O:C_N_CA": 3980, "2_3_O:C_O_S-": 3981, "1_3_C:O_C_C-W_CH2:CZ3_CH2_CZ2": 3982, "2_6_C:C_C_L-F_CD2:CE2_CD2_CG": 3983, ":S_O_O-": 3984, "1_6_O:N_O_C-K_CD:CG_CD_CE": 3985, "1_2_C:C_C_C-F_O:C_N_CA": 3986, "1_1_O:N_O_N-L_CD2:CD1_CD2_CB": 3987, "1_3_O:P_O_P-T_OG1:CA_CG2_OG1": 3988, "1_4_N:N_N_C-L_CD2:CD1_CD2_CB": 3989, "2_3_C:O_C_C-W_CH2:CZ3_CH2_CZ2": 3990, "1_6_N:N_N_C-L_O:C_N_CA": 3991, "2_4_O:C_O_C-Q_OE1:CG_OE1_NE2": 3992, "2_1_C:O_C_C-F_CE2:CZ_CE2_CD2": 3993, "2_2_N:C_N_C-M_CE:CG_SD_CG": 3994, "2_1_C:O_C_C-S_OG:OG_CB_CA": 3995, "2_2_O:C_O_C-Y_OH:CE1_OH_CE2": 3996, "1_4_C:O_C_C-R_CD:CG_CD_NE": 3997, "2_1_L:C_L_C-D_O:C_N_CA": 3998, "1_6_C:N_C_C-Q_OE1:CG_OE1_NE2": 3999, "2_1_C:N_C_C-Y_CE1:CD1_CE1_CZ": 4000, "2_3_C:C_C_C-A_O:C_N_CA": 4001, "1_6_C:N_C_C-F_CZ:CE1_CZ_CE2": 4002, "2_1_N:N_N_C-I_CD1:CD1_CG1_CB": 4003, "1_6_C:C_C_N-K_O:C_N_CA": 4004, "2_3_N:C_N_C-F_CE2:CZ_CE2_CD2": 4005, "1_1_L:O_L_C-": 4006, "2_3_O:P_O_P-T_CG2:CG2_OG1_CA": 4007, "2_1_O:N_O_C-W_NE1:CE2_NE1_CD2": 4008, "1_4_O:C_O_C-W_CZ3:CE3_CZ3_CH2": 4009, "1_6_C:C_C_L-A_CB:N_CA_C": 4010, "1_3_O:C_O_P-K_CE:CD_CE_NZ": 4011, "1_1_O:N_O_C-M_CB:CA_CB_CG": 4012, "2_1_F:F_F_F-G_O:C_N_CA": 4013, "1_1_C:P_C_O-": 4014, "2_1_O:O_O_O-M_CE:CG_SD_CG": 4015, "1_1_L:C_L_C-T_OG1:CA_CG2_OG1": 4016, "1_5_N:C_N_C-R_NH2:NH1_NH2_NE": 4017, "2_4_C:O_C_C-R_NE:CD_NE_CZ": 4018, "1_1_O:O_O_C-C_O:C_N_CA": 4019, "2_1_N:N_N_N-K_CD:CG_CD_CE": 4020, "1_1_L:C_L_C-L_O:C_N_CA": 4021, "2_6_N:N_N_N-Y_CE2:CZ_CE2_CD2": 4022, "1_3_C:N_C_C-C_O:C_N_CA": 4023, "2_1_C:O_C_C-Y_OH:CE1_OH_CE2": 4024, "1_2_C:C_C_C-K_CD:CG_CD_CE": 4025, "2_1_O:C_O_C-C_SG:SG_CB_CA": 4026, "2_3_O:C_O_C-N_OD1:CB_OD1_ND2": 4027, "1_6_C:N_C_C-R_NH2:NH1_NH2_NE": 4028, "2_1_C:N_C_C-E_OE2:OE1_OE2_CG": 4029, "2_6_N:N_N_C-A_O:C_N_CA": 4030, "1_3_C:N_C_C-W_O:C_N_CA": 4031, "2_4_O:C_O_P-D_OD2:OD1_OD2_CB": 4032, "1_3_N:C_N_O-": 4033, "2_6_F:C_F_C-L_CD2:CD1_CD2_CB": 4034, "2_1_N:N_N_C-R_NE:CD_NE_CZ": 4035, "2_6_C:C_C_N-A_O:C_N_CA": 4036, "2_6_O:N_O_C-M_CB:CA_CB_CG": 4037, "2_5_N:C_N_C-V_CG1:CA_CG1_CG2": 4038, "2_2_C:C_C_C-W_CZ2:CH2_CZ2_CE2": 4039, "2_6_C:C_C_N-K_CG:CB_CG_CD": 4040, "1_3_C:C_C_C-M_CB:CA_CB_CG": 4041, "2_3_N:N_N_C-F_CZ:CE1_CZ_CE2": 4042, "2_6_O:N_O_C-T_O:C_N_CA": 4043, "2_1_O:N_O_C-V_O:C_N_CA": 4044, "2_2_N:O_N_C-": 4045, "1_1_C:O_C_C-I_CG2:CB_CG1_CD1": 4046, "2_3_C:N_C_C-L_O:C_N_CA": 4047, "2_5_N:C_N_C-F_CE2:CZ_CE2_CD2": 4048, "2_6_O:O_O_O-K_CD:CG_CD_CE": 4049, "2_4_C:O_C_C-R_CD:CG_CD_NE": 4050, "2_6_C:F_C_C-": 4051, "2_6_O:O_O_C-Y_CE2:CZ_CE2_CD2": 4052, "2_4_C:O_C_C-M_CB:CA_CB_CG": 4053, "2_1_O:N_O_N-Y_CE2:CZ_CE2_CD2": 4054, "2_3_C:N_C_C-R_NE:CD_NE_CZ": 4055, "2_2_C:C_C_C-E_OE1:CG_OE1_OE2": 4056, "2_3_N:N_N_C-D_O:C_N_CA": 4057, "1_6_N:C_N_C-M_CB:CA_CB_CG": 4058, "2_6_C:C_C_L-E_OE2:OE1_OE2_CG": 4059, "2_1_O:O_O_N-H_CD2:NE2_CD2_CG": 4060, "1_4_C:N_C_N-L_O:C_N_CA": 4061, "1_1_N:C_N_C-G_O:C_N_CA": 4062, "1_6_O:N_O_C-Y_CD1:CG_CD1_CE1": 4063, "2_6_C:O_C_C-A_CB:N_CA_C": 4064, "1_1_F:C_F_C-D_OD1:CB_OD1_OD2": 4065, "1_2_F": 4066, "2_3_C:O_C_C-Y_CD1:CG_CD1_CE1": 4067, "_CB:CA_CB_CA": 4068, "1_1_C:C_C_C-P_CB:CG_CB_CA": 4069, "1_1_N:N_N_C-N_OD1:CB_OD1_ND2": 4070, "2_1_C:O_C_C-H_CE1:ND1_CE1_NE2": 4071, "2_1_C:C_C_C-M_O:C_N_CA": 4072, "1_1_O:O_O_C-P_CB:CG_CB_CA": 4073, "2_6_O:N_O_C-P_CG:CD_CG_CB": 4074, "2_2_N:C_N_C-S_O:C_N_CA": 4075, "2_1_C:O_C_C-T_CG2:CG2_OG1_CA": 4076, "1_6_C:N_C_C-N_OD1:CB_OD1_ND2": 4077, "2_3_O:C_O_C-S_O:C_N_CA": 4078, "2_1_L:C_L_C-N_OD1:CB_OD1_ND2": 4079, "1_4_O:C_O_O-": 4080, "1_1_N:N_N_C-A_O:C_N_CA": 4081, "2_6_N:N_N_C-R_NE:CD_NE_CZ": 4082, "1_3_C:C_C_C-C_O:C_N_CA": 4083, "2_4_O:C_O_P-G_O:C_N_CA": 4084, "2_3_N:N_N_C-G_O:C_N_CA": 4085, "1_1_C:C_C_C-M_CB:CA_CB_CG": 4086, "2_6_C:C_C_S-E_OE2:OE1_OE2_CG": 4087, "2_6_C:C_C_S-M_SD:CG_SD_SD": 4088, "2_4_C:N_C_N-Y_CE1:CD1_CE1_CZ": 4089, "2_6_O:N_O_C-W_CZ3:CE3_CZ3_CH2": 4090, "2_6_C:C_C_L-A_CB:N_CA_C": 4091, "1_1_L:C_L_C-E_O:C_N_CA": 4092, "2_6_N:N_N_C-H_NE2:CE1_NE2_CD2": 4093, "2_6_C:C_C_N-R_CG:CB_CG_CD": 4094, "1_4_N:N_N_C-D_OD2:OD1_OD2_CB": 4095, "2_1_O:F_O": 4096, "_P_C-": 4097, "2_4_C:O_C_C-E_OE1:CG_OE1_OE2": 4098, "2_1_C:C_C_C-K_O:C_N_CA": 4099, "2_4_C:N_C_C-C_O:C_N_CA": 4100, "2_6_C:N_C_C-R_NH1:NE_NH1_NH2": 4101, "2_2_O:C_O_C-F_CE1:CD1_CE1_CZ": 4102, "1_4_O:C_O_C-H_CD2:NE2_CD2_CG": 4103, "2_5_N:C_N_C-D_OD1:CB_OD1_OD2": 4104, "1_2_O:C_O_C-I_CG2:CB_CG1_CD1": 4105, "2_1_S:N_S_C-": 4106, "2_1_L:C_L_C-M_CB:CA_CB_CG": 4107, "1_3_C:N_C_C-P_CD:N_CD_CG": 4108, "2_4_C:N_C_N-N_OD1:CB_OD1_ND2": 4109, "2_6_C:C_C_L-T_OG1:CA_CG2_OG1": 4110, "1_6_C:O_C_C-D_OD2:OD1_OD2_CB": 4111, "2_6_C:C_C_S-I_CD1:CD1_CG1_CB": 4112, "2_6_N:C_N_N-R_CD:CG_CD_NE": 4113, "1_1_O:N_O_C-H_CD2:NE2_CD2_CG": 4114, "2_1_N:N_N_C-N_OD1:CB_OD1_ND2": 4115, "2_6_O:O_O_C-L_CD1:CB_CD1_CD2": 4116, "1_4_O:C_O_C-W_CH2:CZ3_CH2_CZ2": 4117, "1_1_C:C_O_C-": 4118, "1_4_O:C_O_C-M_CB:CA_CB_CG": 4119, "1_4_C:O_C_C-L_O:C_N_CA": 4120, "1_6_C:N_C_C-Y_CE2:CZ_CE2_CD2": 4121, "1_6_O:C_O_C-H_O:C_N_CA": 4122, "2_1_O:N_O_C-E_O:C_N_CA": 4123, "1_3_O:C_O_C-F_CZ:CE1_CZ_CE2": 4124, "1_1_L:C_L_C-I_O:C_N_CA": 4125, "1_1_F:F_F_F-L_O:C_N_CA": 4126, "2_6_N:N_N_C-F_CD2:CE2_CD2_CG": 4127, "1_1_O:C_O_C-W_NE1:CE2_NE1_CD2": 4128, "1_1_O:O_O_N-I_O:C_N_CA": 4129, "1_1_O:O_O_C-K_O:C_N_CA": 4130, "1_1_O:N_O_C-P_CD:N_CD_CG": 4131, "2_1_O:O_O_N-W_CH2:CZ3_CH2_CZ2": 4132, "2_6_C:N_C_C-P_CD:N_CD_CG": 4133, "2_3_O:C_O_P-S_OG:OG_CB_CA": 4134, "1_1_C:C_C_C-P_CD:N_CD_CG": 4135, "1_3_O:C_O_P-I_O:C_N_CA": 4136, "2_6_C:O_C_C-G_O:C_N_CA": 4137, "2_2_C:C_C_C-R_NH1:NE_NH1_NH2": 4138, "2_3_C:N_C_C-E_O:C_N_CA": 4139, "2_1_N:O_N_C-G_O:C_N_CA": 4140, "1_2_C:C_C_C-T_O:C_N_CA": 4141, "1_6_N:C_N_C-P_CD:N_CD_CG": 4142, "2_6_C:C_C_O-T_CG2:CG2_OG1_CA": 4143, "2_3_O:C_O_P-D_O:C_N_CA": 4144, "L:N_L": 4145, "1_3_C:N_C_C-D_O:C_N_CA": 4146, "2_3_O:C_O_C-H_CE1:ND1_CE1_NE2": 4147, "2_4_O:C_O_O-": 4148, "1_4_C:N_C_N-K_CD:CG_CD_CE": 4149, "2_6_N:N_N_N-G_O:C_N_CA": 4150, "2_2_O:C_O_C-T_CG2:CG2_OG1_CA": 4151, "1_1_O:O_O_O-F_CZ:CE1_CZ_CE2": 4152, "2_4_C:N_C_N-F_CD1:CG_CD1_CE1": 4153, "1_6_C:O_C_C-Y_OH:CE1_OH_CE2": 4154, "2_1_F:C_F_C-R_NH2:NH1_NH2_NE": 4155, "1_6_O:C_O_C-K_CB:CA_CB_CG": 4156, "2_3_N:N_N_C-F_CE2:CZ_CE2_CD2": 4157, "1_6_C:O_C_C-V_CG1:CA_CG1_CG2": 4158, "2_1_F:F_F_F-Y_CE1:CD1_CE1_CZ": 4159, "1_2_O:C_O_C-T_OG1:CA_CG2_OG1": 4160, "2_1_O:C_O_O-D_OD2:OD1_OD2_CB": 4161, "1_1_O:N_O_N-L_CD1:CB_CD1_CD2": 4162, "_S:O_S_C-": 4163, "1_6_N:N_N_C-M_SD:CG_SD_SD": 4164, "1_3_N:N_N_C-E_OE2:OE1_OE2_CG": 4165, "2_1_F:F_F_F-F_CD2:CE2_CD2_CG": 4166, "2_1_N:N_N_N-R_NH1:NE_NH1_NH2": 4167, "1_3_N:N_N_C-M_SD:CG_SD_SD": 4168, "2_1_O:N_O_S-": 4169, "1_6_C:C_C_N-Y_CE2:CZ_CE2_CD2": 4170, "2_1_N:N_N_C-M_CG:CB_CG_SD": 4171, "1_1_C:O_C_C-L_O:C_N_CA": 4172, "2_1_O:N_O_N-F_CZ:CE1_CZ_CE2": 4173, "1_3_O:C_O_P-V_CG2:CG1_CG2_CA": 4174, "2_6_O:O_O_O-T_O:C_N_CA": 4175, "2_0_C:C_C_C-L_CD1:CB_CD1_CD2": 4176, "2_4_C:N_C_C-N_O:C_N_CA": 4177, "2_6_C:O_C_O-": 4178, "2_1_C:N_C_C-D_OD1:CB_OD1_OD2": 4179, "2_1_F:F_F_F-Y_CE2:CZ_CE2_CD2": 4180, "2_1_F:C_F_C-W_CH2:CZ3_CH2_CZ2": 4181, "2_6_C:C_C_L-M_CG:CB_CG_SD": 4182, "2_1_N:N_N_C-Q_O:C_N_CA": 4183, "2_1_F:C_F_C-E_OE2:OE1_OE2_CG": 4184, "1_6_C:C_C_N-F_O:C_N_CA": 4185, "2_6_C:C_C_S-R_NH2:NH1_NH2_NE": 4186, "1_6_C:C_C_N-S_O:C_N_CA": 4187, "2_6_N:N_N_C-Y_CD2:CE2_CD2_CG": 4188, "1_3_N:N_N_C-L_O:C_N_CA": 4189, "2_6_C:N_C_C-I_CD1:CD1_CG1_CB": 4190, "1_3_C:O_C_C-Y_O:C_N_CA": 4191, "2_1_F:C_F_C-A_CB:N_CA_C": 4192, "2_6_N:N_N_N-E_OE2:OE1_OE2_CG": 4193, "1_1_O:C_O_C-C_O:C_N_CA": 4194, "2_1_O:O_O_N-P_CB:CG_CB_CA": 4195, "2_2_N:C_N_C-D_OD1:CB_OD1_OD2": 4196, "2_3_N:C_N_O-": 4197, ":CZ": 4198, "2_6_C:N_C_C-W_CZ2:CH2_CZ2_CE2": 4199, "2_3_C:O_C_C-M_CG:CB_CG_SD": 4200, "1_3_N:C_N_C-Y_CE1:CD1_CE1_CZ": 4201, "2_6_O:C_O_C-K_O:C_N_CA": 4202, "2_1_N:N_N_C-N_ND2:OD1_ND2_CB": 4203, "1_3_O:C_O_P-S_O:C_N_CA": 4204, "1_6_C:N_C_C-F_CE1:CD1_CE1_CZ": 4205, "1_6_O:O_O_O-I_O:C_N_CA": 4206, "2_2_C:C_C_C-I_CD1:CD1_CG1_CB": 4207, "2_6_C:C_C_L-H_NE2:CE1_NE2_CD2": 4208, "2_1_N:N_N_N-S_OG:OG_CB_CA": 4209, "2_1_L:C_L_C-K_NZ:NZ_CE_CD": 4210, "2_3_C:O_C_C-M_SD:CG_SD_SD": 4211, "1_1_O:N_O_N-K_CE:CD_CE_NZ": 4212, "2_2_C:C_C_C-R_CD:CG_CD_NE": 4213, "1_6_O:N_O_C-F_CD1:CG_CD1_CE1": 4214, "2_4_O:C_O_C-C_SG:SG_CB_CA": 4215, "1_3_N:C_N_C-R_NH1:NE_NH1_NH2": 4216, "1_6_O:N_O_C-Q_OE1:CG_OE1_NE2": 4217, "1_4_O:N_O_N-": 4218, "1_6_O:O_O_O-E_OE1:CG_OE1_OE2": 4219, "2_3_C:O_C_C-I_O:C_N_CA": 4220, "2_1_F:C_F_C-P_CG:CD_CG_CB": 4221, "2_4_O:C_O_P-A_O:C_N_CA": 4222, "2_1_N:C_N_C-G_O:C_N_CA": 4223, "1_6_O:N_O_C-Y_CE2:CZ_CE2_CD2": 4224, "2_6_C:N_C_O-": 4225, "2_3_O:C_O_P-S_O:C_N_CA": 4226, "2_3_O:C_O_C-P_CB:CG_CB_CA": 4227, "2_4_O:C_O_C-E_O:C_N_CA": 4228, "1_3_N:C_N_C-I_CG2:CB_CG1_CD1": 4229, "1_2_C:N_C_C-L_CD1:CB_CD1_CD2": 4230, "2_2_O:N_O_C-": 4231, "1_3_C:N_C_C-W_NE1:CE2_NE1_CD2": 4232, "1_5_N:C_N_C-L_O:C_N_CA": 4233, "2_4_C:O_C_C-Q_NE2:NE2_OE1_CG": 4234, "2_6_N:N_N_C-K_CD:CG_CD_CE": 4235, "2_3_C:C_C_C-H_ND1:CG_ND1_CE1": 4236, "1_3_C:N_C_C-R_O:C_N_CA": 4237, "2_1_O:N_O_C-Q_O:C_N_CA": 4238, "2_2_O:C_O_P-G_CA:N_CA_C": 4239, "2_3_C:O_C_C-W_CZ2:CH2_CZ2_CE2": 4240, "1_1_C:C_C_C-R_CG:CB_CG_CD": 4241, "2_4_C:N_C_N-M_O:C_N_CA": 4242, "2_6_C:C_C_N-I_O:C_N_CA": 4243, "2_4_O:C_O_C-R_NE:CD_NE_CZ": 4244, "1_2_S:C_S_C-G_CA:N_CA_C": 4245, "1_6_C:O_C_C-I_CG2:CB_CG1_CD1": 4246, "2_1_C:O_C_C-P_CB:CG_CB_CA": 4247, "1_3_C:O_C_C-P_CB:CG_CB_CA": 4248, "1_1_C:P_C_C-": 4249, "1_1_O:O_O_O-F_CE1:CD1_CE1_CZ": 4250, "2_1_C:N_C_C-D_O:C_N_CA": 4251, "2_5_N:C_N_C-T_CG2:CG2_OG1_CA": 4252, "1_1_O:O_O_C-K_CG:CB_CG_CD": 4253, "2_1_N:N_N_C-A_CB:N_CA_C": 4254, "2AGL": 4255, "1_5_C:C_C_C-V_CG1:CA_CG1_CG2": 4256, "1_3_C:O_C_C-R_CD:CG_CD_NE": 4257, "2_6_C:O_C_C-S_OG:OG_CB_CA": 4258, "2_3_N:C_N_S-G_O:C_N_CA": 4259, "1_1_O:O_O_O-F_CE2:CZ_CE2_CD2": 4260, "2_1_L:C_L_C-M_SD:CG_SD_SD": 4261, "2_6_O:O_O_O-Y_CE1:CD1_CE1_CZ": 4262, "2_1_C:O_C_C-E_OE2:OE1_OE2_CG": 4263, "2_6_C:C_C_S-I_O:C_N_CA": 4264, "1_2_N:C_N_C-F_CE2:CZ_CE2_CD2": 4265, "1_2_C:C_C_O-": 4266, "2_1_L:C_L_C-E_OE1:CG_OE1_OE2": 4267, "2_6_C:N_C_C-W_CZ3:CE3_CZ3_CH2": 4268, "2_5_N:C_N_C-F_CE1:CD1_CE1_CZ": 4269, "2_6_C:C_C_S-N_OD1:CB_OD1_ND2": 4270, "2_1_N:O_N_C-V_CG2:CG1_CG2_CA": 4271, "1_3_C:C_C_C-P_CB:CG_CB_CA": 4272, "2_1_O:O_O_N-F_CD1:CG_CD1_CE1": 4273, "2_1_N:N_N_N-L_CD2:CD1_CD2_CB": 4274, "2_6_C:O_C_C-Y_OH:CE1_OH_CE2": 4275, "2_1_F:C_F_C-Y_CD1:CG_CD1_CE1": 4276, "1_6_O:N_O_C-E_OE2:OE1_OE2_CG": 4277, "2_2_N:C_N_C-F_CD1:CG_CD1_CE1": 4278, "2_1_C:C_C_C-R_O:C_N_CA": 4279, "1_6_O:C_O_C-W_CD1:NE1_CD1_CG": 4280, "2_4_O:C_O_P-G_CA:N_CA_C": 4281, "1_1_O:O_O_O-M_O:C_N_CA": 4282, "1_4_O:C_O_C-K_O:C_N_CA": 4283, "2_4_O:C_O_C-W_NE1:CE2_NE1_CD2": 4284, "1_3_C:F_C_C-": 4285, "2_5_N:C_N_C-T_OG1:CA_CG2_OG1": 4286, "1_1_O:O_O_O-F_CD1:CG_CD1_CE1": 4287, "1_4_O:C_O_C-K_CG:CB_CG_CD": 4288, "2_4_O:C_O_C-T_O:C_N_CA": 4289, "2_6_C:C_C_L-Y_CD2:CE2_CD2_CG": 4290, "_C:F_C_F-": 4291, "1_1_O:N_O_N-R_NH2:NH1_NH2_NE": 4292, "2_3_O:C_O_P-A_O:C_N_CA": 4293, "1_1_O:O_O_C-P_CD:N_CD_CG": 4294, "1_6_C:C_C_N-N_O:C_N_CA": 4295, "2_5_C:C_C_C-V_CG2:CG1_CG2_CA": 4296, "2_6_S:C_S_L-": 4297, "2_4_C:N_C_N-A_CB:N_CA_C": 4298, "1_1_N:C_N_C-Y_OH:CE1_OH_CE2": 4299, "1_6_N:C_N_C-H_ND1:CG_ND1_CE1": 4300, "2_1_C:N_C_C-H_NE2:CE1_NE2_CD2": 4301, "2_1_N:N_N_C-F_CD2:CE2_CD2_CG": 4302, "1_3_O:C_O_N-": 4303, "2_1_C:N_C_C-K_CD:CG_CD_CE": 4304, "2_4_N:C_N_C-W_O:C_N_CA": 4305, "2_3_C:C_C_C-L_O:C_N_CA": 4306, "2_4_C:N_C_N-D_O:C_N_CA": 4307, "1_3_C:O_C_C-F_O:C_N_CA": 4308, "2_1_N:N_N_C-D_O:C_N_CA": 4309, "1_1_O:C_O_C-K_CG:CB_CG_CD": 4310, "1_2_N:C_N_C-F_CD2:CE2_CD2_CG": 4311, "1_4_O:C_O_C-D_O:C_N_CA": 4312, "1_3_O:C_O_P-Y_OH:CE1_OH_CE2": 4313, "1_4_C:O_C_C-P_CG:CD_CG_CB": 4314, "1_6_C:C_C_S-Q_OE1:CG_OE1_NE2": 4315, "2_2_O:C_O_C-F_CZ:CE1_CZ_CE2": 4316, "1_0_C:C_C_C-V_CG2:CG1_CG2_CA": 4317, "2_1_N:O_N_O-H_NE2:CE1_NE2_CD2": 4318, "1_6_N:C_N_C-K_CB:CA_CB_CG": 4319, "2_1_O:O_O_O-M_SD:CG_SD_SD": 4320, "1_5_C:C_C_C-I_CG2:CB_CG1_CD1": 4321, "1_2_N:C_N_O-": 4322, "1_0_C:C_C_C-L_CD1:CB_CD1_CD2": 4323, "2_1_C:C_C_C-W_CD1:NE1_CD1_CG": 4324, "2_1_N:N_N_C-V_O:C_N_CA": 4325, "2_6_N:C_N_C-W_CD1:NE1_CD1_CG": 4326, "2_6_O:N_O_C-R_CG:CB_CG_CD": 4327, "1_1_L:C_L_C-G_CA:N_CA_C": 4328, "1_3_N:N_N_C-T_OG1:CA_CG2_OG1": 4329, "2_1_N:C_N_C-V_CG2:CG1_CG2_CA": 4330, "1_1_C:N_C_C-I_CG2:CB_CG1_CD1": 4331, "1_0_P:P_P_O-": 4332, "2_4_C:O_C_C-P_CG:CD_CG_CB": 4333, "2_3_N:C_N_C-H_NE2:CE1_NE2_CD2": 4334, "1_3_C:O_C_C-V_O:C_N_CA": 4335, "1_1_O:O_O_N-E_OE1:CG_OE1_OE2": 4336, "1_3_C:C_C_C-R_CD:CG_CD_NE": 4337, "1_3_C:O_C_C-P_CD:N_CD_CG": 4338, "2_5_C:N_C_C-V_CG2:CG1_CG2_CA": 4339, "2_1_C:O_C_C-Y_CE2:CZ_CE2_CD2": 4340, "2_4_C:O_C_C-I_CD1:CD1_CG1_CB": 4341, "1_3_C:C_C_C-W_CD1:NE1_CD1_CG": 4342, "2_1_O:O_O_O-M_CB:CA_CB_CG": 4343, "2_4_C:O_C_C-F_CD2:CE2_CD2_CG": 4344, "2_0_C:C_C_C-T_CG2:CG2_OG1_CA": 4345, "1_3_C:O_C_C-R_CG:CB_CG_CD": 4346, "1_1_O:C_O_C-W_CE3:CD2_CE3_CZ3": 4347, "1_6_O:C_O_C-C_O:C_N_CA": 4348, "1_1_O:O_O_O-F_CD2:CE2_CD2_CG": 4349, "2_1_O:C_O_O-G_CA:N_CA_C": 4350, "2_2_C:C_C_O-": 4351, "1_3_O:P_O_P-Y_OH:CE1_OH_CE2": 4352, "1_6_N:N_N_C-Q_OE1:CG_OE1_NE2": 4353, "2_1_N:N_N_C-I_O:C_N_CA": 4354, "2_1_O:C_O_C-K_O:C_N_CA": 4355, "2_1_O:N_O_C-C_SG:SG_CB_CA": 4356, "2_3_O:P_O_P-Y_OH:CE1_OH_CE2": 4357, "1_1_C:O_C_C-Y_OH:CE1_OH_CE2": 4358, "1_6_C:C_C_N-H_O:C_N_CA": 4359, "1_5_N:C_N_C-N_ND2:OD1_ND2_CB": 4360, "1_1_C:N_C_C-T_OG1:CA_CG2_OG1": 4361, "1_2_N:C_N_C-H_CE1:ND1_CE1_NE2": 4362, "2_6_O:O_O_N-G_CA:N_CA_C": 4363, "1_5_N:C_N_C-M_O:C_N_CA": 4364, "1_3_N:C_N_C-N_ND2:OD1_ND2_CB": 4365, "2_3_O:C_O_C-D_OD1:CB_OD1_OD2": 4366, "2_1_F:F_F_F-M_CB:CA_CB_CG": 4367, "2_6_O:O_O_C-L_CD2:CD1_CD2_CB": 4368, "2_4_C:O_C_C-A_O:C_N_CA": 4369, "2_2_O:O_O_P-": 4370, "2_5_C:N_C_C-G_CA:N_CA_C": 4371, "1_6_O:O_O_O-I_CG2:CB_CG1_CD1": 4372, "2_1_F:C_F_C-D_OD1:CB_OD1_OD2": 4373, "2_1_O:O_O_N-S_O:C_N_CA": 4374, "1_6_O:N_O_C-Y_O:C_N_CA": 4375, "2_1_C:O_C_C-A_CB:N_CA_C": 4376, "1_4_O:C_O_C-R_NE:CD_NE_CZ": 4377, "1_1_F:C_F_C-G_CA:N_CA_C": 4378, "2_2_N:C_N_C-A_CB:N_CA_C": 4379, "2_2_N:C_N_C-M_CB:CA_CB_CG": 4380, "2_6_C:N_C_C-R_NE:CD_NE_CZ": 4381, "2_1_O:N_O_N-L_CD1:CB_CD1_CD2": 4382, "1_6_N:C_N_N-K_CE:CD_CE_NZ": 4383, "1_4_O:C_O_P-D_OD2:OD1_OD2_CB": 4384, "1_6_N:N_N_C-Y_CE1:CD1_CE1_CZ": 4385, "1_6_O:N_O_C-N_ND2:OD1_ND2_CB": 4386, "2_1_O:O_O_C-Y_O:C_N_CA": 4387, "1_3_C:O_C_C-M_CB:CA_CB_CG": 4388, "2_3_C:O_C_C-K_NZ:NZ_CE_CD": 4389, "1_1_C:C_C_C-H_ND1:CG_ND1_CE1": 4390, "2_3_O:C_O_C-E_OE1:CG_OE1_OE2": 4391, "2_6_C:O_C_N-": 4392, "1_6_C:C_C_N-K_CD:CG_CD_CE": 4393, "2_6_C:C_C_S-Y_CD1:CG_CD1_CE1": 4394, "2_3_O:C_O_C-Y_CE1:CD1_CE1_CZ": 4395, "2_2_N:C_N_C-H_CE1:ND1_CE1_NE2": 4396, "1_4_C:O_C_C-R_CG:CB_CG_CD": 4397, "2_6_O:O_O_C-Y_CE1:CD1_CE1_CZ": 4398, "2_3_C:C_C_C-C_SG:SG_CB_CA": 4399, "2_6_F:C_F_C-G_CA:N_CA_C": 4400, "1_2_N:C_N_C-F_CD1:CG_CD1_CE1": 4401, "2_6_C:C_C_O-F_CZ:CE1_CZ_CE2": 4402, "1_1_L:C_L_C-E_OE2:OE1_OE2_CG": 4403, "1_6_C:O_C_C-V_CG2:CG1_CG2_CA": 4404, "1_6_C:N_C_C-N_ND2:OD1_ND2_CB": 4405, "2_2_N:C_N_C-R_NH1:NE_NH1_NH2": 4406, "1_1_N:C_N_C-D_OD2:OD1_OD2_CB": 4407, "1_1_C:N_C_C-G_CA:N_CA_C": 4408, "2_3_C:O_C_C-R_NE:CD_NE_CZ": 4409, "1_6_N:N_N_N-D_OD1:CB_OD1_OD2": 4410, "2_1_N:N_N_C-K_CD:CG_CD_CE": 4411, "1_1_F:F_F_F-A_O:C_N_CA": 4412, "2_6_O:N_O_C-M_SD:CG_SD_SD": 4413, "2_6_O:O_O_O-I_O:C_N_CA": 4414, "2_6_C:C_C_S-W_CH2:CZ3_CH2_CZ2": 4415, "2_3_O:C_O_C-F_CD1:CG_CD1_CE1": 4416, "1_3_C:N_C_C-Y_O:C_N_CA": 4417, "2_5_C:N_C_C-L_CD1:CB_CD1_CD2": 4418, "2_6_N:N_N_C-M_SD:CG_SD_SD": 4419, "1_1_O:C_O_C-K_O:C_N_CA": 4420, "1_6_C:N_C_C-K_CE:CD_CE_NZ": 4421, "2_3_C:O_C_C-W_CZ3:CE3_CZ3_CH2": 4422, "1_6_C:C_C_N-F_CD2:CE2_CD2_CG": 4423, "1_3_O:C_O_C-Y_CE2:CZ_CE2_CD2": 4424, "1_6_C:N_C_C-Y_CE1:CD1_CE1_CZ": 4425, "2_1_N:N_N_N-S_O:C_N_CA": 4426, "1_6_C:N_C_C-L_O:C_N_CA": 4427, "1_5_N:C_N_C-A_O:C_N_CA": 4428, "1_6_C:C_C_S-P_O:C_N_CA": 4429, "2_6_N:C_N_N-F_CD2:CE2_CD2_CG": 4430, "1_1_L:C_L_C-S_O:C_N_CA": 4431, "1_6_O:N_O_C-Y_CD2:CE2_CD2_CG": 4432, "2_3_O:C_O_N-": 4433, "1_6_O:O_O_O-R_NE:CD_NE_CZ": 4434, "1_1_F:C_F_C-T_OG1:CA_CG2_OG1": 4435, "1_6_C:C_C_N-Y_CD1:CG_CD1_CE1": 4436, "1_6_O:N_O_C-F_CE1:CD1_CE1_CZ": 4437, "2_4_C:N_C_N-A_O:C_N_CA": 4438, "2_4_C:N_C_N-K_NZ:NZ_CE_CD": 4439, "1_1_O:N_O_C-R_CG:CB_CG_CD": 4440, "2_5_N:C_N_C-K_CD:CG_CD_CE": 4441, "1_4_N:N_N_C-V_CG2:CG1_CG2_CA": 4442, "2_1_O:O_O_N-I_CG2:CB_CG1_CD1": 4443, "1_2_C:C_C_C-H_NE2:CE1_NE2_CD2": 4444, ":F_C_C-": 4445, "2_2_C:C_C_C-M_CB:CA_CB_CG": 4446, "2_4_O:C_O_C-K_CG:CB_CG_CD": 4447, "1_3_C:O_C_C-W_CZ3:CE3_CZ3_CH2": 4448, "2_6_O:N_O_C-W_CE3:CD2_CE3_CZ3": 4449, "1_2_S:C_S_C-T_OG1:CA_CG2_OG1": 4450, "2_3_O:P_O_P-R_NH1:NE_NH1_NH2": 4451, "2_1_L:C_L_C-P_CB:CG_CB_CA": 4452, "1_1_O:O_O_C-Q_O:C_N_CA": 4453, "1_4_O:C_O_P-A_CB:N_CA_C": 4454, "2_3_C:O_C_C-A_O:C_N_CA": 4455, "1_5_O:C_O_C-L_CD1:CB_CD1_CD2": 4456, "1_3_C:N_C_N-G_O:C_N_CA": 4457, "2_6_N:C_N_N-M_CE:CG_SD_CG": 4458, "1_1_N:N_N_C-K_CE:CD_CE_NZ": 4459, "2_6_O:O_O_O-D_O:C_N_CA": 4460, "1_4_C:N_C_N-I_O:C_N_CA": 4461, "1_3_N:N_N_C-E_OE1:CG_OE1_OE2": 4462, "2_4_C:N_C_N-M_CE:CG_SD_CG": 4463, "2_1_L:C_L_C-R_NH1:NE_NH1_NH2": 4464, "2_6_N:C_N_N-P_CD:N_CD_CG": 4465, "2_6_C:C_C_B-": 4466, "2_6_C:C_C_N-K_CE:CD_CE_NZ": 4467, "2_3_C:C_C_C-K_CB:CA_CB_CG": 4468, "2_1_O:O_O_N-D_OD1:CB_OD1_OD2": 4469, "2_6_C:N_C_C-M_CB:CA_CB_CG": 4470, "2_6_O:O_O_O-V_CG2:CG1_CG2_CA": 4471, "2_1_F:C_F_C-D_O:C_N_CA": 4472, "1_3_C:N_C_C-H_ND1:CG_ND1_CE1": 4473, "2_6_N:C_N_N-I_CD1:CD1_CG1_CB": 4474, "2_3_C:C_C_C-R_CG:CB_CG_CD": 4475, "2_6_C:C_C_S-P_CD:N_CD_CG": 4476, "2_1_O:O_O_N-K_CD:CG_CD_CE": 4477, "1_4_C:O_C_C-P_CB:CG_CB_CA": 4478, "2_6_C:C_C_S-M_CE:CG_SD_CG": 4479, "2_1_F:C_F_C-S_O:C_N_CA": 4480, "1_1_O:O_O_N-L_O:C_N_CA": 4481, "1_6_C:C_C_S-N_OD1:CB_OD1_ND2": 4482, "1_6_O:O_O_C-R_NH1:NE_NH1_NH2": 4483, "1_1_O:O_O_N-H_CE1:ND1_CE1_NE2": 4484, "2_6_C:C_C_S-W_CZ2:CH2_CZ2_CE2": 4485, "2_2_N:C_N_C-A_O:C_N_CA": 4486, "2_4_N:N_N_C-D_OD2:OD1_OD2_CB": 4487, "1_6_N:C_N_N-N_OD1:CB_OD1_ND2": 4488, "1_3_C:C_C_C-M_O:C_N_CA": 4489, "1_3_O:C_O_C-Y_CD2:CE2_CD2_CG": 4490, "2_1_F:F_F_F-T_OG1:CA_CG2_OG1": 4491, "1_2_C:C_C_C-P_O:C_N_CA": 4492, "1_3_C:C_C_C-W_NE1:CE2_NE1_CD2": 4493, "2_3_O:C_O_C-A_O:C_N_CA": 4494, "2_6_S:N_S_C-": 4495, "2_3_C:C_C_C-R_NE:CD_NE_CZ": 4496, "1_1_O:O_O_C-W_CE3:CD2_CE3_CZ3": 4497, "1_4_O:C_O_C-R_CG:CB_CG_CD": 4498, "1_3_O:C_O_C-H_CE1:ND1_CE1_NE2": 4499, "1_1_N:N_N_C-V_O:C_N_CA": 4500, "1_2_C:C_C_C-N_O:C_N_CA": 4501, "1_6_O:N_O_C-M_SD:CG_SD_SD": 4502, "2_2_C:C_C_C-W_CH2:CZ3_CH2_CZ2": 4503, "1_1_O:N_O_C-W_CZ2:CH2_CZ2_CE2": 4504, "1_1_O:O_O_C-K_CB:CA_CB_CG": 4505, "2_1_L:C_L_C-K_CG:CB_CG_CD": 4506, "1_6_O:O_O_O-E_OE2:OE1_OE2_CG": 4507, "2_2_C:C_C_C-P_CG:CD_CG_CB": 4508, "2_6_C:C_C_O-A_CB:N_CA_C": 4509, "2_1_L:C_L_N-": 4510, "1_1_O:O_O_O-Y_CD2:CE2_CD2_CG": 4511, "1_1_C:C_C_C-W_CD1:NE1_CD1_CG": 4512, "2_6_C:C_C_N-C_SG:SG_CB_CA": 4513, "1_3_C:C_C_C-R_O:C_N_CA": 4514, "2_1_O:N_O_N-P_CB:CG_CB_CA": 4515, "2_1_F:C_F_C-F_CD2:CE2_CD2_CG": 4516, "1_2_N:C_N_C-S_O:C_N_CA": 4517, "2_3_O:P_O_P-S_OG:OG_CB_CA": 4518, "2_4_C:N_C_N-K_CD:CG_CD_CE": 4519, "2_6_O:O_O_O-H_CE1:ND1_CE1_NE2": 4520, "2_6_O:N_O_C-I_O:C_N_CA": 4521, "2_6_N:N_N_C-E_OE1:CG_OE1_OE2": 4522, "2_2_O:C_O_C-V_CG2:CG1_CG2_CA": 4523, "1_1_O:N_O_N-G_CA:N_CA_C": 4524, "K_CB:CA_CB_CA": 4525, "2_4_C:O_C_C-K_NZ:NZ_CE_CD": 4526, "2_4_O:C_O_C-R_CG:CB_CG_CD": 4527, "1_0_C:C_C_N-": 4528, "2_1_N:N_N_N-Y_CE2:CZ_CE2_CD2": 4529, "1_3_N:C_N_C-R_NH2:NH1_NH2_NE": 4530, "1_6_O:N_O_C-R_CD:CG_CD_NE": 4531, "1_2_S:C_S_C-D_OD1:CB_OD1_OD2": 4532, "1_6_C:C_C_O-A_CB:N_CA_C": 4533, "2_5_C:N_C_C-L_CD2:CD1_CD2_CB": 4534, "1_1_L:C_L_C-N_OD1:CB_OD1_ND2": 4535, "2_6_C:C_C_N-Q_OE1:CG_OE1_NE2": 4536, "2_2_C:C_C_C-P_CB:CG_CB_CA": 4537, "1_3_N:C_N_P-": 4538, "1_4_N:N_N_C-D_OD1:CB_OD1_OD2": 4539, "2_2_O:C_O_C-L_CD1:CB_CD1_CD2": 4540, "2_6_O:O_O_O-H_NE2:CE1_NE2_CD2": 4541, "2_6_N:C_N_N-A_O:C_N_CA": 4542, "2_1_L:C_L_C-N_ND2:OD1_ND2_CB": 4543, "1_1_N:N_N_C-I_CG2:CB_CG1_CD1": 4544, "2_6_C:C_C_L-H_CE1:ND1_CE1_NE2": 4545, "1_6_C:C_C_N-Y_CD2:CE2_CD2_CG": 4546, "1_6_O:O_O_O-V_CG2:CG1_CG2_CA": 4547, "2_1_N:O_N_C-D_OD2:OD1_OD2_CB": 4548, "2_3_C:O_C_C-T_O:C_N_CA": 4549, "1_1_N:O_N_C-I_O:C_N_CA": 4550, "1_6_C:C_C_L-T_OG1:CA_CG2_OG1": 4551, "2_6_C:C_C_S-D_OD1:CB_OD1_OD2": 4552, "1_1_N:N_N_N-Y_OH:CE1_OH_CE2": 4553, "1_3_C:O_C_C-W_CE3:CD2_CE3_CZ3": 4554, "1_1_N:N_N_N-L_CD2:CD1_CD2_CB": 4555, "1_4_O:C_O_C-F_O:C_N_CA": 4556, "1_1_O:N_O_N-R_NH1:NE_NH1_NH2": 4557, "2_2_C:C_C_C-Q_NE2:NE2_OE1_CG": 4558, "2_6_N:N_N_C-S_O:C_N_CA": 4559, "2_3_O:C_O_C-T_OG1:CA_CG2_OG1": 4560, "2_1_C:O_C_C-Y_CE1:CD1_CE1_CZ": 4561, "1_6_N:N_N_N-Y_OH:CE1_OH_CE2": 4562, "2_3_C:N_C_C-M_O:C_N_CA": 4563, "2_2_S:C_S_C-Y_CE1:CD1_CE1_CZ": 4564, "1_4_C:O_C_C-M_CG:CB_CG_SD": 4565, "1_4_O:C_O_C-Y_O:C_N_CA": 4566, "2_6_F:C_F_C-L_CD1:CB_CD1_CD2": 4567, "1_6_C:C_C_S-R_NH1:NE_NH1_NH2": 4568, "2_1_F:C_F_C-W_CZ2:CH2_CZ2_CE2": 4569, "L:N_L_N-": 4570, "2_6_N:N_N_N-R_NH1:NE_NH1_NH2": 4571, "2_6_C:C_C_S-R_NH1:NE_NH1_NH2": 4572, "1_3_C:C_C_S-L_CD1:CB_CD1_CD2": 4573, "1_6_N:N_N_C-K_CD:CG_CD_CE": 4574, "1_1_O:O_O_O-Y_CD1:CG_CD1_CE1": 4575, "2_6_O:N_O_N-G_CA:N_CA_C": 4576, "_O:P_O_C-": 4577, "1_4_O:C_O_C-K_CB:CA_CB_CG": 4578, "1_1_L:C_L_C-K_CE:CD_CE_NZ": 4579, "1_1_O:N_O_C-R_O:C_N_CA": 4580, "1_6_C:C_C_L-I_CG2:CB_CG1_CD1": 4581, "1_1_N:N_N_C-I_O:C_N_CA": 4582, "1_6_C:N_C_C-E_O:C_N_CA": 4583, "2_1_L:C_L_C-D_OD1:CB_OD1_OD2": 4584, "1_1_O:F_O": 4585, "1_6_N:C_N_C-Q_O:C_N_CA": 4586, "1_4_C:N_C_N-F_CZ:CE1_CZ_CE2": 4587, "1_3_O:C_O_C-P_CB:CG_CB_CA": 4588, "1_6_O:N_O_C-R_NE:CD_NE_CZ": 4589, "2_6_O:O_O_O-Y_CE2:CZ_CE2_CD2": 4590, "2_3_N:C_N_C-Y_CE2:CZ_CE2_CD2": 4591, "1_1_N:C_N_C-D_OD1:CB_OD1_OD2": 4592, "2_6_N:N_N_C-R_NH1:NE_NH1_NH2": 4593, "1_1_L:C_L_C-V_O:C_N_CA": 4594, "1_1_O:O_O_C-W_CZ3:CE3_CZ3_CH2": 4595, "1_6_C:O_C_C-T_OG1:CA_CG2_OG1": 4596, "1_1_C:N_C_C-Q_OE1:CG_OE1_NE2": 4597, "2_3_N:N_N_C-Y_OH:CE1_OH_CE2": 4598, "1_1_C:N_C_S-": 4599, "1_1_O:N_O_C-W_CH2:CZ3_CH2_CZ2": 4600, "2_1_O:O_O_O-M_O:C_N_CA": 4601, "1_2_C:N_C_C-L_CD2:CD1_CD2_CB": 4602, "1_1_O:O_O_C-W_CH2:CZ3_CH2_CZ2": 4603, "1_4_C:O_C_C-W_CH2:CZ3_CH2_CZ2": 4604, "2_1_C:O_C_C-G_O:C_N_CA": 4605, "1_4_C:O_C_C-W_CZ2:CH2_CZ2_CE2": 4606, "2_1_O:O_O_N-R_NH1:NE_NH1_NH2": 4607, "2_6_C:C_C_L-N_OD1:CB_OD1_ND2": 4608, "2_6_N:N_N_C-I_O:C_N_CA": 4609, "2_6_F": 4610, "2_2_N:C_N_O-": 4611, "2_1_O:O_O_N-V_CG1:CA_CG1_CG2": 4612, "1_4_N:N_N_C-G_CA:N_CA_C": 4613, "2_3_C:N_C_C-C_SG:SG_CB_CA": 4614, "1_6_C:N_C_C-F_CE2:CZ_CE2_CD2": 4615, "2_1_L:C_L_C-L_O:C_N_CA": 4616, "1_1_C:C_C_C-Q_O:C_N_CA": 4617, "1_6_C:C_C_F-": 4618, "1_1_L:C_L_C-E_OE1:CG_OE1_OE2": 4619, "2_1_C:P_C_C-": 4620, "1_1_C:N_C_C-L_O:C_N_CA": 4621, "1_6_N:N_N_N-V_CG2:CG1_CG2_CA": 4622, "2_3_C:N_C_C-V_O:C_N_CA": 4623, "1_1_F:C_F_C-L_O:C_N_CA": 4624, "2_6_N:C_N_N-Y_CD1:CG_CD1_CE1": 4625, "2_6_O:O_O_O-R_CD:CG_CD_NE": 4626, "1_6_N:O_N_N-": 4627, "2_1_N:C_N_C-L_CD2:CD1_CD2_CB": 4628, "2_3_O:C_O_P-R_NE:CD_NE_CZ": 4629, "2_1_F:F_F_F-M_SD:CG_SD_SD": 4630, "2_6_C:N_C_C-K_CB:CA_CB_CG": 4631, "2_6_N:C_N_C-W_O:C_N_CA": 4632, "2_4_C:N_C_N-T_O:C_N_CA": 4633, "1_3_N:C_N_C-Q_OE1:CG_OE1_NE2": 4634, "1_1_C:C_C_C-K_CB:CA_CB_CG": 4635, "2_1_O:O_O_O-H_O:C_N_CA": 4636, "2_6_O:C_O_P-": 4637, "1_1_F:F_F_F-T_OG1:CA_CG2_OG1": 4638, "1_5_N:C_N_C-F_CE1:CD1_CE1_CZ": 4639, "2_3_C:N_C_C-R_CG:CB_CG_CD": 4640, "2_1_F:C_F_C-P_CD:N_CD_CG": 4641, "2_1_F:F_F_F-M_CE:CG_SD_CG": 4642, "2_6_O:C_O_S-": 4643, "2_6_N:N_N_C-Q_NE2:NE2_OE1_CG": 4644, "2_4_N:C_N_S-D_O:C_N_CA": 4645, "1_2_C:C_C_C-H_CE1:ND1_CE1_NE2": 4646, "1_4_C:O_C_C-P_CD:N_CD_CG": 4647, "2_3_O:C_O_P-R_O:C_N_CA": 4648, "2_6_N:N_N_C-T_OG1:CA_CG2_OG1": 4649, "2_6_C:C_C_O-G_O:C_N_CA": 4650, "1_6_N:N_N_C-A_O:C_N_CA": 4651, "1_1_O:N_O_N-V_CG1:CA_CG1_CG2": 4652, "1_3_C:O_C_C-K_O:C_N_CA": 4653, "1_6_C:C_C_O-Y_OH:CE1_OH_CE2": 4654, "1_2_N:C_N_C-P_O:C_N_CA": 4655, "2_6_N:C_N_N-S_O:C_N_CA": 4656, "2_3_O:C_O_C-M_SD:CG_SD_SD": 4657, "2_2_C:N_C_C-L_CD2:CD1_CD2_CB": 4658, "2_6_C:C_C_S-W_CZ3:CE3_CZ3_CH2": 4659, "2_3_O:C_O_C-R_NH1:NE_NH1_NH2": 4660, "2_2_N:C_N_C-T_OG1:CA_CG2_OG1": 4661, "1_6_C:O_C_N-": 4662, "1_3_C:N_C_C-K_CB:CA_CB_CG": 4663, "1_1_F:C_F_C-N_ND2:OD1_ND2_CB": 4664, "1_1_N:N_C_C-G_CA:N_CA_C": 4665, "1_6_O:N_O_C-T_O:C_N_CA": 4666, "1_4_O:C_O_C-C_O:C_N_CA": 4667, "1_3_C:C_C_C-R_CG:CB_CG_CD": 4668, "2_2_C:C_C_C-Y_CD1:CG_CD1_CE1": 4669, "1_6_C:C_C_N-D_O:C_N_CA": 4670, "1_4_C:O_C_C-W_CZ3:CE3_CZ3_CH2": 4671, "2_6_C:S_C_C-": 4672, "2_1_S:O_S_O-": 4673, "2_1_O:O_O_C-Q_O:C_N_CA": 4674, "1_4_O:C_O_C-H_ND1:CG_ND1_CE1": 4675, "1_1_C:O_C_C-T_OG1:CA_CG2_OG1": 4676, "1_1_C:N_C_C-E_O:C_N_CA": 4677, "1_4_C:N_C_N-R_CD:CG_CD_NE": 4678, "2_1_L:C_L_C-A_O:C_N_CA": 4679, "2_1_O:N_O_N-V_CG1:CA_CG1_CG2": 4680, "2_1_N:N_N_C-M_O:C_N_CA": 4681, "1_6_O:O_O_C-A_CB:N_CA_C": 4682, "2_2_C:C_C_C-I_CG2:CB_CG1_CD1": 4683, "1_2_O:C_O_P-A_CB:N_CA_C": 4684, "1_3_C:O_C_C-H_ND1:CG_ND1_CE1": 4685, "1_1_N:N_N_C-N_O:C_N_CA": 4686, "2_4_C:N_C_N-T_OG1:CA_CG2_OG1": 4687, "2_6_N:N_N_N-F_CD1:CG_CD1_CE1": 4688, "2_6_C:C_C_L-Y_CD1:CG_CD1_CE1": 4689, "1_1_C:C_C_C-W_NE1:CE2_NE1_CD2": 4690, "1_3_C:O_C_C-M_O:C_N_CA": 4691, "2_1_C:N_C_C-T_OG1:CA_CG2_OG1": 4692, "1_2_C:N_C_C-Y_OH:CE1_OH_CE2": 4693, "1_3_O:P_O_P-R_NE:CD_NE_CZ": 4694, "2_6_C:N_C_C-R_CG:CB_CG_CD": 4695, "2_2_C:C_C_C-K_CB:CA_CB_CG": 4696, "1_6_O:O_O_O-S_O:C_N_CA": 4697, "2_1_F:C_F_C-R_NH1:NE_NH1_NH2": 4698, "1_2_N:C_N_C-R_NE:CD_NE_CZ": 4699, "2_2_O:C_O_C-S_OG:OG_CB_CA": 4700, "1_1_N:C_N_C-E_OE2:OE1_OE2_CG": 4701, "2_1_N:N_N_C-H_CE1:ND1_CE1_NE2": 4702, "2_1_O:O_O_N-N_OD1:CB_OD1_ND2": 4703, "1_6_C:C_C_L-L_O:C_N_CA": 4704, "2_6_C:C_C_N-F_O:C_N_CA": 4705, "1_6_C:C_C_O-D_OD2:OD1_OD2_CB": 4706, "2_6_C:C_C_S-M_CG:CB_CG_SD": 4707, "2_1_O:N_O_N-F_CE2:CZ_CE2_CD2": 4708, ":C_P": 4709, "2_2_S:C_S_C-S_OG:OG_CB_CA": 4710, "2_1_F:F_F_F-T_CG2:CG2_OG1_CA": 4711, "2_3_C:N_C_C-T_O:C_N_CA": 4712, "2_1_N:N_N_N-V_CG2:CG1_CG2_CA": 4713, "2_1_O:O_O_N-P_CD:N_CD_CG": 4714, "1_4_C:O_C_C-H_CD2:NE2_CD2_CG": 4715, "1_6_O:C_O_P-": 4716, "2_6_N:C_N_N-K_CD:CG_CD_CE": 4717, "1_4_C:O_C_C-V_O:C_N_CA": 4718, "1_0_S:C_S_C-": 4719, "1_4_O:C_O_C-W_CE3:CD2_CE3_CZ3": 4720, "2_1_N:C_N_C-T_CG2:CG2_OG1_CA": 4721, "2_1_O:O_O_N-F_CD2:CE2_CD2_CG": 4722, "2_6_O:O_O_O-N_ND2:OD1_ND2_CB": 4723, "2_2_C:C_C_C-Y_CD2:CE2_CD2_CG": 4724, "1_3_O:C_O_C-F_CE2:CZ_CE2_CD2": 4725, ":P_O_P-": 4726, "2_6_O:N_O_C-M_CG:CB_CG_SD": 4727, "1_2_C:C_C_C-H_CD2:NE2_CD2_CG": 4728, "I_CG": 4729, "2AILE": 4730, "I_CG2AILE": 4731, "I_CG2AILE:CB_CG": 4732, "I_CG2AILE:CB_CG1AILE": 4733, "2_1_C:N_C_C-A_CB:N_CA_C": 4734, "1_1_F:C_F_C-R_NH1:NE_NH1_NH2": 4735, "2_6_N:N_N_N-F_CE2:CZ_CE2_CD2": 4736, "1_6_N:N_N_N-R_NH1:NE_NH1_NH2": 4737, "2_5_C:C_C_C-L_CD1:CB_CD1_CD2": 4738, "1_1_F:C_F_F-": 4739, "2_6_O:O_O_O-K_NZ:NZ_CE_CD": 4740, "1_6_N:N_N_N-E_O:C_N_CA": 4741, "1_1_N:C_N_C-E_OE1:CG_OE1_OE2": 4742, "1_6_C:C_C_S-R_NH2:NH1_NH2_NE": 4743, "1_1_L:C_L_C-R_NH1:NE_NH1_NH2": 4744, "1_1_N:N_N_C-L_O:C_N_CA": 4745, "2_0_C:C_C_C-F_CZ:CE1_CZ_CE2": 4746, "1_2_C:C_C_C-D_O:C_N_CA": 4747, "1_3_C:C_C_C-Y_O:C_N_CA": 4748, "2_1_F:C_F_C-M_CE:CG_SD_CG": 4749, "1_3_O:C_O_P-I_CG2:CB_CG1_CD1": 4750, "2_6_N:C_N_N-N_ND2:OD1_ND2_CB": 4751, "2_3_N:N_N_C-N_OD1:CB_OD1_ND2": 4752, "2_6_N:N_N_N-M_CB:CA_CB_CG": 4753, "2_4_C:N_C_N-H_CE1:ND1_CE1_NE2": 4754, "1_3_N:N_N_C-Y_CE1:CD1_CE1_CZ": 4755, "2_4_C:O_C_C-W_CH2:CZ3_CH2_CZ2": 4756, "2_1_F:C_F_C-H_CE1:ND1_CE1_NE2": 4757, "2_1_N:N_N_C-Y_CD1:CG_CD1_CE1": 4758, "1_3_C:O_C_C-R_O:C_N_CA": 4759, "2_1_F:C_F_C-N_OD1:CB_OD1_ND2": 4760, "1_6_O:O_O_C-D_OD1:CB_OD1_OD2": 4761, "1_3_N:C_N_C-F_CE1:CD1_CE1_CZ": 4762, "2_4_C:C_C_N-G_CA:N_CA_C": 4763, "1_6_C:C_C_S-E_OE2:OE1_OE2_CG": 4764, "1_3_N:N_N_C-A_O:C_N_CA": 4765, "1_6_O:N_O_C-F_CD2:CE2_CD2_CG": 4766, "2_6_N:C_N_N-H_NE2:CE1_NE2_CD2": 4767, "_P:C_P": 4768, "1_3_C:N_C_C-R_CG:CB_CG_CD": 4769, "2_1_F:C_F_C-R_CD:CG_CD_NE": 4770, "Q_OE1AGLN": 4771, ":CG_OE1AGLN": 4772, "Q_OE1AGLN:CG_OE1AGLN": 4773, "2_4_C:N_C_C-W_CD1:NE1_CD1_CG": 4774, "2_3_C:N_C_C-Q_O:C_N_CA": 4775, "2_4_C:O_C_C-Y_CD2:CE2_CD2_CG": 4776, "2_6_N:N_N_C-R_CD:CG_CD_NE": 4777, "1_1_N:N_C_C-D_OD2:OD1_OD2_CB": 4778, "1_5_N:C_N_C-E_O:C_N_CA": 4779, "2_1_O:O_O_N-T_OG1:CA_CG2_OG1": 4780, "1_2_N:C_N_C-Y_CD1:CG_CD1_CE1": 4781, "1_3_C:N_C_C-W_CD1:NE1_CD1_CG": 4782, "2_3_C:C_C_C-I_O:C_N_CA": 4783, "2_3_C:N_C_C-W_NE1:CE2_NE1_CD2": 4784, "2_2_C:C_C_C-A_O:C_N_CA": 4785, "2_6_C:O_C_C-F_CD1:CG_CD1_CE1": 4786, "1_4_C:N_C_N-T_O:C_N_CA": 4787, "2_1_O:O_O_F-": 4788, "2_3_N:C_N_C-S_O:C_N_CA": 4789, "2_1_F:F_F_F-E_OE2:OE1_OE2_CG": 4790, "_C:P_C_P-": 4791, "1_1_O:O_O_N-A_O:C_N_CA": 4792, "1_2_N:C_N_C-M_CG:CB_CG_SD": 4793, "1_6_O:O_O_C-D_OD2:OD1_OD2_CB": 4794, "2_6_C:C_C_L-P_CG:CD_CG_CB": 4795, "2_3_C:N_C_C-K_CG:CB_CG_CD": 4796, "2_2_N:C_N_C-Q_NE2:NE2_OE1_CG": 4797, "1_1_O:C_O_C-W_O:C_N_CA": 4798, "1_1_O:O_O_O-K_O:C_N_CA": 4799, "2_1_F:C_F_C-M_CG:CB_CG_SD": 4800, "2_6_N:N_N_N-D_OD1:CB_OD1_OD2": 4801, "1_6_N:N_N_N-G_O:C_N_CA": 4802, "2_3_N:N_N_C-F_CE1:CD1_CE1_CZ": 4803, "1_6_O:O_O_C-L_CD2:CD1_CD2_CB": 4804, "2_1_L:C_L_C-R_CD:CG_CD_NE": 4805, "2_2_O:O_O_C-": 4806, "2_6_C:O_C_C-Y_CE1:CD1_CE1_CZ": 4807, "1_1_O:C_O_C-W_CD1:NE1_CD1_CG": 4808, "2_6_C:C_C_L-K_CG:CB_CG_CD": 4809, "1_3_C:C_C_C-K_O:C_N_CA": 4810, "1_6_F": 4811, "1_2_C:C_C_C-I_O:C_N_CA": 4812, "2_6_O:N_O_C-L_O:C_N_CA": 4813, "2_6_O:O_O_O-A_CB:N_CA_C": 4814, "1_3_C:N_C_C-K_CG:CB_CG_CD": 4815, "1_1_C:N_C_C-E_OE2:OE1_OE2_CG": 4816, "1_4_C:O_C_C-Y_O:C_N_CA": 4817, "2_6_N:N_N_N-N_OD1:CB_OD1_ND2": 4818, "2_1_F:F_F_F-H_CE1:ND1_CE1_NE2": 4819, "2_6_C:C_C_O-Y_OH:CE1_OH_CE2": 4820, "1_1_O:N_O_C-K_CG:CB_CG_CD": 4821, "1_3_O:C_O_C-F_CD1:CG_CD1_CE1": 4822, "1_1_O:O_O_O-P_CG:CD_CG_CB": 4823, "2_1_C:C_C_C-N_O:C_N_CA": 4824, "1_4_C:N_C_N-D_O:C_N_CA": 4825, "2_1_N:N_N_C-P_CD:N_CD_CG": 4826, "2_1_C:N_C_C-N_ND2:OD1_ND2_CB": 4827, "1_4_C:O_C_C-W_CE3:CD2_CE3_CZ3": 4828, "2_4_C:N_C_N-E_OE1:CG_OE1_OE2": 4829, "2_2_S:C_S_C-Y_CE2:CZ_CE2_CD2": 4830, "2_1_C:N_C_C-P_CB:CG_CB_CA": 4831, "2_6_O:N_O_C-I_CG2:CB_CG1_CD1": 4832, "1_2_C:C_C_C-V_O:C_N_CA": 4833, "1_6_C:C_C_S-N_ND2:OD1_ND2_CB": 4834, "2_1_L:C_L_O-": 4835, "2_4_N:N_N_C-L_CD1:CB_CD1_CD2": 4836, "1_6_O:O_O_O-L_CD1:CB_CD1_CD2": 4837, "_S:O_S_O-": 4838, "2_1_C:N_C_C-F_CD2:CE2_CD2_CG": 4839, "2_6_C:C_C_O-F_CE1:CD1_CE1_CZ": 4840, "1_6_C:C_C_N-T_O:C_N_CA": 4841, "2_1_O:O_O_C-W_CD1:NE1_CD1_CG": 4842, "1_6_O:O_O_C-V_CG1:CA_CG1_CG2": 4843, "2_4_N:N_N_C-V_CG2:CG1_CG2_CA": 4844, "2_6_C:C_C_O-F_CE2:CZ_CE2_CD2": 4845, "2_3_C:C_C_C-E_O:C_N_CA": 4846, "1_4_C:N_C_N-F_CE1:CD1_CE1_CZ": 4847, "1_3_N:C_N_C-K_CD:CG_CD_CE": 4848, "2_1_O:O_O_O-C_SG:SG_CB_CA": 4849, "2_6_N:N_N_N-T_OG1:CA_CG2_OG1": 4850, "1_6_C:C_C_L-G_CA:N_CA_C": 4851, "2_4_C:O_C_C-H_CD2:NE2_CD2_CG": 4852, "2_6_N:N_N_N-S_OG:OG_CB_CA": 4853, "1_6_N:C_N_C-W_CD1:NE1_CD1_CG": 4854, "2_4_C:O_C_C-W_CZ2:CH2_CZ2_CE2": 4855, "2_3_O:C_O_C-K_CD:CG_CD_CE": 4856, "2_6_C:C_C_S-T_OG1:CA_CG2_OG1": 4857, "1_1_N:N_N_N-E_OE1:CG_OE1_OE2": 4858, "2_6_O:N_O_C-V_O:C_N_CA": 4859, "1_1_O:N_O_N-Q_OE1:CG_OE1_NE2": 4860, "1_3_N:C_N_C-F_CZ:CE1_CZ_CE2": 4861, "1_1_F:C_F_C-N_OD1:CB_OD1_ND2": 4862, "2_6_C:C_C_L-D_O:C_N_CA": 4863, "2_1_C:O_C_C-H_CD2:NE2_CD2_CG": 4864, "1_6_O:O_O_O-R_CD:CG_CD_NE": 4865, "1_3_C:C_C_S-L_CD2:CD1_CD2_CB": 4866, "2_0_C:C_C_C-M_SD:CG_SD_SD": 4867, "1_6_C:N_C_C-Y_CD2:CE2_CD2_CG": 4868, "2_4_O:C_O_C-H_ND1:CG_ND1_CE1": 4869, "1_1_N:O_N_C-D_OD2:OD1_OD2_CB": 4870, "1_6_C:N_C_C-F_CD1:CG_CD1_CE1": 4871, "1_4_C:N_C_N-R_CG:CB_CG_CD": 4872, "1_6_C:C_C_O-V_CG2:CG1_CG2_CA": 4873, "1_6_C:F_C_C-": 4874, "1_4_C:N_C_N-F_CD1:CG_CD1_CE1": 4875, "2_3_N:N_N_C-S_OG:OG_CB_CA": 4876, "1_1_O:N_O_N-V_CG2:CG1_CG2_CA": 4877, "1_6_O:N_O_C-V_O:C_N_CA": 4878, "1_1_O:O_O_C-M_O:C_N_CA": 4879, "1_4_C:N_C_N-P_O:C_N_CA": 4880, "1_1_N:O_N_C-D_OD1:CB_OD1_OD2": 4881, "2_4_O:C_O_C-K_CE:CD_CE_NZ": 4882, "1_1_F:C_F_C-S_O:C_N_CA": 4883, "2_4_C:O_C_C-Y_CD1:CG_CD1_CE1": 4884, "1_3_N:N_N_C-Y_O:C_N_CA": 4885, "1_6_F:C_F_C-L_CD2:CD1_CD2_CB": 4886, "1_4_N:N_N_C-V_CG1:CA_CG1_CG2": 4887, "2_6_O:O_O_O-L_CD2:CD1_CD2_CB": 4888, "2_1_C:N_C_O-": 4889, "1_2_O:C_O_C-Y_CE1:CD1_CE1_CZ": 4890, "1_6_O:O_O_C-A_O:C_N_CA": 4891, "2_6_C:N_C_C-K_NZ:NZ_CE_CD": 4892, "2_2_S:C_S_C-T_CG2:CG2_OG1_CA": 4893, "2_1_O:N_O_N-D_OD1:CB_OD1_OD2": 4894, "1_1_O:C_O_C-Q_O:C_N_CA": 4895, "2_6_O:O_O_C-V_CG2:CG1_CG2_CA": 4896, "1_5_N:C_N_C-F_CZ:CE1_CZ_CE2": 4897, "1_5_C:C_C_C-Y_OH:CE1_OH_CE2": 4898, "2_1_N:C_N_C-H_NE2:CE1_NE2_CD2": 4899, "1_0_C:C_C_C-Y_OH:CE1_OH_CE2": 4900, "1_1_F:C_F_C-R_NH2:NH1_NH2_NE": 4901, "1_4_C:N_C_N-Y_CE2:CZ_CE2_CD2": 4902, "_P:O_P_C-": 4903, "1_6_O:O_O_C-Y_OH:CE1_OH_CE2": 4904, "2_1_O:C_O_O-G_O:C_N_CA": 4905, "1_4_O:O_O_C-": 4906, "2_1_F:F_F_F-H_CD2:NE2_CD2_CG": 4907, ":C_F_O-": 4908, "1_1_L:C_L_C-Q_OE1:CG_OE1_NE2": 4909, "1_1_O:O_O_N-K_CD:CG_CD_CE": 4910, "2_1_O:N_O_N-A_CB:N_CA_C": 4911, "2_6_O:N_O_C-K_NZ:NZ_CE_CD": 4912, "2_2_N:C_N_C-K_CD:CG_CD_CE": 4913, "2_1_N:C_N_C-Y_CE2:CZ_CE2_CD2": 4914, "1_1_O:O_O_N-T_O:C_N_CA": 4915, "2_1_N:N_N_C-W_CE3:CD2_CE3_CZ3": 4916, "2_2_O:C_O_C-F_CE2:CZ_CE2_CD2": 4917, "1_1_C:O_C_C-I_O:C_N_CA": 4918, "2_1_F:F_F_F-M_CG:CB_CG_SD": 4919, "2_1_F:F_F_F-W_CH2:CZ3_CH2_CZ2": 4920, "2_3_O:C_O_C-M_CG:CB_CG_SD": 4921, "1_6_C:N_C_C-Y_CD1:CG_CD1_CE1": 4922, "1_1_N:N_N_N-G_CA:N_CA_C": 4923, "1_1_N:N_C_C-Y_CD2:CE2_CD2_CG": 4924, "2_6_O:N_O_C-M_CE:CG_SD_CG": 4925, "2_1_N:N_N_C-K_NZ:NZ_CE_CD": 4926, "2_3_C:N_C_C-F_O:C_N_CA": 4927, "1_2_C:C_C_C-W_NE1:CE2_NE1_CD2": 4928, "1_6_C:C_C_S-F_CZ:CE1_CZ_CE2": 4929, "2_2_N:C_N_C-L_O:C_N_CA": 4930, "2_6_C:C_C_S-I_CG2:CB_CG1_CD1": 4931, "2_1_N:N_N_C-W_CH2:CZ3_CH2_CZ2": 4932, "2_1_N:N_N_C-P_CB:CG_CB_CA": 4933, "1_1_O:N_O_C-Q_O:C_N_CA": 4934, "1_3_O:P_O_P-K_CD:CG_CD_CE": 4935, "1_4_C:O_C_C-R_NE:CD_NE_CZ": 4936, "1_6_C:O_C_O-": 4937, "1_3_O:C_O_C-Y_CD1:CG_CD1_CE1": 4938, "2_4_C:N_C_N-F_CD2:CE2_CD2_CG": 4939, "1_6_C:O_C_C-G_CA:N_CA_C": 4940, "1_2_O:C_O_P-R_NH2:NH1_NH2_NE": 4941, "2_3_O:C_O_P-Y_OH:CE1_OH_CE2": 4942, "2_4_C:O_C_C-R_CG:CB_CG_CD": 4943, "2_6_N:N_N_N-R_NH2:NH1_NH2_NE": 4944, "2_3_C:C_C_C-T_O:C_N_CA": 4945, "2_1_O:N_O_N-E_OE2:OE1_OE2_CG": 4946, "2_1_O:O_O_N-T_O:C_N_CA": 4947, "2_1_F:C_F_C-Y_CD2:CE2_CD2_CG": 4948, "1_4_C:O_C_C-P_O:C_N_CA": 4949, "1_6_O:N_O_C-P_CB:CG_CB_CA": 4950, ":NE2": 4951, ":NE2A": 4952, "2_3_C:N_C_C-K_CE:CD_CE_NZ": 4953, "2_3_C:O_C_C-P_CD:N_CD_CG": 4954, "2_1_C:O_C_C-R_NH1:NE_NH1_NH2": 4955, "2_3_N:C_N_C-E_OE1:CG_OE1_OE2": 4956, "1_1_O:N_O_C-K_CB:CA_CB_CG": 4957, "1_1_C:N_C_C-N_OD1:CB_OD1_ND2": 4958, "2_3_N:N_N_C-D_OD1:CB_OD1_OD2": 4959, "2_1_C:C_C_C-Q_O:C_N_CA": 4960, "1_4_C:N_C_N-F_CE2:CZ_CE2_CD2": 4961, "2_1_O:N_O_C-R_O:C_N_CA": 4962, "1_6_O:O_O_C-G_O:C_N_CA": 4963, "1_1_O:C_O_C-K_CB:CA_CB_CG": 4964, "2_6_O:N_O_C-W_CZ2:CH2_CZ2_CE2": 4965, "1_6_N:N_N_N-A_CB:N_CA_C": 4966, "1_1_O:N_O_C-H_ND1:CG_ND1_CE1": 4967, "2_6_C:C_C_S-H_CD2:NE2_CD2_CG": 4968, "2_1_O:O_O_O-C_O:C_N_CA": 4969, "2_1_O:O_O_O-W_CD1:NE1_CD1_CG": 4970, "2_3_N:N_N_C-E_OE2:OE1_OE2_CG": 4971, "2_6_O:C_O_C-Q_O:C_N_CA": 4972, "2_3_N:C_N_C-D_O:C_N_CA": 4973, "2_2_N:C_N_C-M_SD:CG_SD_SD": 4974, "1_1_N:O_N_C-G_O:C_N_CA": 4975, "2_1_N:N_N_O-": 4976, "1_1_N:N_N_N-R_NH2:NH1_NH2_NE": 4977, "2_3_N:C_N_C-Y_CE1:CD1_CE1_CZ": 4978, "1_6_C:C_C_N-I_O:C_N_CA": 4979, "1_6_C:C_C_L-M_SD:CG_SD_SD": 4980, "1_6_O:O_O_C-G_CA:N_CA_C": 4981, "2_1_L:C_L_C-Q_NE2:NE2_OE1_CG": 4982, "2_1_F:O_F_C-": 4983, "2_6_C:C_C_N-K_O:C_N_CA": 4984, "2_2_F": 4985, "1_3_N:N_N_C-K_O:C_N_CA": 4986, "2_1_C:O_C_C-V_CG1:CA_CG1_CG2": 4987, "1_4_C:O_C_C-N_O:C_N_CA": 4988, "1_1_C:N_C_C-E_OE1:CG_OE1_OE2": 4989, "2_6_N:N_N_C-I_CD1:CD1_CG1_CB": 4990, "2_6_C:C_C_N-W_NE1:CE2_NE1_CD2": 4991, "2_1_C:O_C_C-N_OD1:CB_OD1_ND2": 4992, "2_3_N:C_N_C-A_CB:N_CA_C": 4993, "1_6_C:C_C_L-E_OE2:OE1_OE2_CG": 4994, "2_3_C:C_C_C-K_NZ:NZ_CE_CD": 4995, "2_6_C:N_C_C-K_CG:CB_CG_CD": 4996, "2_6_O:O_O_O-R_O:C_N_CA": 4997, "1_1_L:C_L_C-F_O:C_N_CA": 4998, "1_2_N:C_N_C-V_O:C_N_CA": 4999, "2_6_N:C_N_N-W_CZ3:CE3_CZ3_CH2": 5000, "1_4_N:N_N_C-A_CB:N_CA_C": 5001, "1_5_N:C_N_C-Y_CE2:CZ_CE2_CD2": 5002, "1_2_O:C_O_C-F_CZ:CE1_CZ_CE2": 5003, "1_5_N:C_N_S-": 5004, "2_6_N:N_N_C-H_CE1:ND1_CE1_NE2": 5005, "1_6_C:C_C_O-G_O:C_N_CA": 5006, "2_1_F:F_F_F-D_O:C_N_CA": 5007, "1_3_C:C_C_O-": 5008, "1_6_N:N_N_N-I_CG2:CB_CG1_CD1": 5009, "2_2_C:C_C_C-I_O:C_N_CA": 5010, "2_6_O:O_O_C-T_CG2:CG2_OG1_CA": 5011, "1_1_C:O_C_C-D_OD1:CB_OD1_OD2": 5012, "1_2_O:C_O_C-K_CE:CD_CE_NZ": 5013, "1_1_F:C_F_C-N_O:C_N_CA": 5014, "2_6_N:N_N_C-P_CG:CD_CG_CB": 5015, "2_6_O:N_O_C-H_ND1:CG_ND1_CE1": 5016, "2_5_C:C_C_C-I_CD1:CD1_CG1_CB": 5017, "1_6_N:N_N_C-F_CZ:CE1_CZ_CE2": 5018, "1_6_C:C_C_O-V_CG1:CA_CG1_CG2": 5019, "1_1_O:O_O_N-H_NE2:CE1_NE2_CD2": 5020, "1_6_C:C_C_S-F_CE2:CZ_CE2_CD2": 5021, "1_4_N:N_N_C-K_CE:CD_CE_NZ": 5022, "1_6_O:N_O_C-H_CE1:ND1_CE1_NE2": 5023, "2_2_N:C_N_C-Y_CD1:CG_CD1_CE1": 5024, "2_1_O:O_O_C-K_O:C_N_CA": 5025, "2_6_O:O_O_C-Y_OH:CE1_OH_CE2": 5026, "1_2_O:C_O_P-D_OD2:OD1_OD2_CB": 5027, "2_4_O:C_O_C-F_O:C_N_CA": 5028, "1_4_C:O_C_C-H_ND1:CG_ND1_CE1": 5029, "1_3_O:C_O_P-L_CD1:CB_CD1_CD2": 5030, "1_2_S:N_S_C-": 5031, "2_3_C:O_C_N-": 5032, "1_6_C:C_C_L-D_OD1:CB_OD1_OD2": 5033, "1_3_C:O_C_C-W_NE1:CE2_NE1_CD2": 5034, "1_2_C:C_C_C-W_CZ2:CH2_CZ2_CE2": 5035, "1_1_O:N_O_C-W_CZ3:CE3_CZ3_CH2": 5036, "2_6_O:O_O_C-G_O:C_N_CA": 5037, "1_5_O:C_O_C-L_CD2:CD1_CD2_CB": 5038, "2_3_O:P_O_P-E_OE2:OE1_OE2_CG": 5039, "2_6_O:O_O_C-H_CE1:ND1_CE1_NE2": 5040, "1_3_N:C_N_C-L_O:C_N_CA": 5041, "2_1_O:N_O_N-F_CE1:CD1_CE1_CZ": 5042, "2_1_N:N_N_N-N_ND2:OD1_ND2_CB": 5043, "2_1_C:N_C_C-Q_NE2:NE2_OE1_CG": 5044, "1_5_N:C_N_C-P_O:C_N_CA": 5045, "1_2_C:N_C_C-D_OD2:OD1_OD2_CB": 5046, "1_2_S:C_S_C-R_NH1:NE_NH1_NH2": 5047, "2_6_C:O_C_C-T_OG1:CA_CG2_OG1": 5048, "1_5_N:C_N_C-F_CD1:CG_CD1_CE1": 5049, "1_4_C:N_C_N-Y_CD1:CG_CD1_CE1": 5050, "2_1_C:O_C_C-W_CZ3:CE3_CZ3_CH2": 5051, "1_2_O:C_O_C-M_SD:CG_SD_SD": 5052, "2_6_O:N_O_C-Y_O:C_N_CA": 5053, "2_6_C:C_C_L-M_CB:CA_CB_CG": 5054, "1_1_O:O_O_O-P_CB:CG_CB_CA": 5055, "2_1_F:C_F_C-M_CB:CA_CB_CG": 5056, "2_4_C:O_C_C-I_CG2:CB_CG1_CD1": 5057, "2_5_N:C_N_C-Y_CE2:CZ_CE2_CD2": 5058, "2_3_C:N_C_C-H_ND1:CG_ND1_CE1": 5059, "1_3_N:C_N_C-A_O:C_N_CA": 5060, "2_4_O:P_O_P-D_OD2:OD1_OD2_CB": 5061, "1_2_C:C_C_C-K_O:C_N_CA": 5062, "2_1_C:O_C_C-T_OG1:CA_CG2_OG1": 5063, "2_1_C:O_C_C-P_CG:CD_CG_CB": 5064, "1_6_O:O_O_O-L_CD2:CD1_CD2_CB": 5065, "2_1_C:N_C_C-P_CG:CD_CG_CB": 5066, "1_2_O:C_O_C-F_CE1:CD1_CE1_CZ": 5067, "1_5_N:C_N_C-Q_OE1:CG_OE1_NE2": 5068, "1_4_O:C_O_P-G_CA:N_CA_C": 5069, "2_6_N:C_N_N-Y_CD2:CE2_CD2_CG": 5070, "1_6_C:C_C_S-M_SD:CG_SD_SD": 5071, "1_6_O:O_O_O-A_O:C_N_CA": 5072, "1_2_O:C_O_P-G_CA:N_CA_C": 5073, "1_1_C:C_C_C-R_NE:CD_NE_CZ": 5074, "1_4_N:N_N_C-Y_OH:CE1_OH_CE2": 5075, "2_2_S:C_S_C-I_CD1:CD1_CG1_CB": 5076, "2_4_C:N_C_N-M_CB:CA_CB_CG": 5077, "1_1_F:F_F_F-N_ND2:OD1_ND2_CB": 5078, "_CE2APHE": 5079, "1_1_N:N_N_N-E_OE2:OE1_OE2_CG": 5080, "1_1_F:F_F_F-D_OD1:CB_OD1_OD2": 5081, "2_5_O:C_O_C-G_CA:N_CA_C": 5082, "2_4_C:O_C_C-I_O:C_N_CA": 5083, "1_6_N:C_N_N-N_ND2:OD1_ND2_CB": 5084, "2_1_F:F_F_F-Y_CD1:CG_CD1_CE1": 5085, "2_6_O:O_O_C-A_CB:N_CA_C": 5086, "1_5_C:N_C_C-D_OD2:OD1_OD2_CB": 5087, "2_5_N:C_N_C-A_CB:N_CA_C": 5088, "2_6_C:C_C_S-K_CD:CG_CD_CE": 5089, "2_3_O:C_O_C-M_CE:CG_SD_CG": 5090, "1_3_C:O_C_C-K_CG:CB_CG_CD": 5091, "1_6_O:O_O_O-N_OD1:CB_OD1_ND2": 5092, "2_3_O:C_O_C-K_NZ:NZ_CE_CD": 5093, "2_1_O:C_O_N-G_CA:N_CA_C": 5094, "2_3_C:O_C_C-K_CB:CA_CB_CG": 5095, "2_1_N:C_N_C-S_OG:OG_CB_CA": 5096, "2_1_N:N_N_C-M_CE:CG_SD_CG": 5097, "1_4_C:C_C_N-G_O:C_N_CA": 5098, "2_3_O:C_O_C-F_CD2:CE2_CD2_CG": 5099, "2_6_C:C_C_L-P_CB:CG_CB_CA": 5100, "1_1_N:N_N_C-W_O:C_N_CA": 5101, "2_6_N:C_N_N-M_CG:CB_CG_SD": 5102, "2_6_N:N_N_C-P_CB:CG_CB_CA": 5103, "1_1_O:N_O_S-": 5104, "1_3_O:C_O_C-R_NE:CD_NE_CZ": 5105, "1_6_C:N_C_O-": 5106, "2_1_F:F_F_F-K_CD:CG_CD_CE": 5107, "1_1_N:N_N_C-N_ND2:OD1_ND2_CB": 5108, "2_6_N:C_N_N-M_O:C_N_CA": 5109, "1_1_N:N_N_C-R_O:C_N_CA": 5110, "2_1_O:N_O_C-N_O:C_N_CA": 5111, "2_1_C:O_C_C-F_CD1:CG_CD1_CE1": 5112, "2_1_C:N_C_C-M_CB:CA_CB_CG": 5113, "1_2_C:C_C_C-R_CD:CG_CD_NE": 5114, "1_3_C:N_C_C-R_NE:CD_NE_CZ": 5115, "1_4_C:C_C_L-": 5116, "1_6_O:O_O_O-V_CG1:CA_CG1_CG2": 5117, "1_5_N:C_N_C-Y_CD1:CG_CD1_CE1": 5118, "1_6_N:C_N_N-I_O:C_N_CA": 5119, "2_3_O:C_O_P-V_CG2:CG1_CG2_CA": 5120, "1_3_N:N_N_C-P_O:C_N_CA": 5121, "1_6_C:C_C_S-F_CE1:CD1_CE1_CZ": 5122, "2_3_C:C_C_C-W_NE1:CE2_NE1_CD2": 5123, "2_3_P:O_P_O-": 5124, "2_1_N:O_N_C-L_CD2:CD1_CD2_CB": 5125, "2_1_F:C_F_C-P_CB:CG_CB_CA": 5126, "2_1_L:C_L_C-I_CD1:CD1_CG1_CB": 5127, ":N_F_N-": 5128, "1_2_S:C_S_C-E_OE2:OE1_OE2_CG": 5129, "2_6_C:N_C_C-Q_OE1:CG_OE1_NE2": 5130, "1_6_C:C_C_S-E_OE1:CG_OE1_OE2": 5131, "1_3_O:C_O_C-R_CD:CG_CD_NE": 5132, "1_1_O:O_O_O-M_CG:CB_CG_SD": 5133, "1_2_C:C_C_C-W_CH2:CZ3_CH2_CZ2": 5134, "1_1_N:O_N_C-A_CB:N_CA_C": 5135, "2_1_L:C_L_C-H_CD2:NE2_CD2_CG": 5136, "1_3_O:C_O_C-D_O:C_N_CA": 5137, "2_3_O:C_O_P-H_NE2:CE1_NE2_CD2": 5138, "1_1_O:O_O_C-M_CB:CA_CB_CG": 5139, "2_4_O:C_O_P-T_CG2:CG2_OG1_CA": 5140, "1_1_F:C_F_C-E_OE2:OE1_OE2_CG": 5141, "2_2_O:C_O_C-Y_CE2:CZ_CE2_CD2": 5142, "2_6_C:O_C_C-E_OE2:OE1_OE2_CG": 5143, "2_2_N:C_N_C-R_NE:CD_NE_CZ": 5144, "2_6_N:C_N_N-K_NZ:NZ_CE_CD": 5145, "2_3_C:O_C_C-R_CG:CB_CG_CD": 5146, "1_6_O:C_O_C-Q_O:C_N_CA": 5147, "2_3_C:O_C_C-Q_OE1:CG_OE1_NE2": 5148, "2_6_N:C_N_N-M_SD:CG_SD_SD": 5149, "2_1_C:N_C_C-R_NH2:NH1_NH2_NE": 5150, "1_4_C:N_C_N-Y_CE1:CD1_CE1_CZ": 5151, "2_6_S:C_S_C-": 5152, "2_6_C:C_C_S-Y_CD2:CE2_CD2_CG": 5153, "2_6_C:N_C_C-I_CG2:CB_CG1_CD1": 5154, "2_1_N:N_N_C-W_CZ3:CE3_CZ3_CH2": 5155, "2_1_C:N_C_C-E_OE1:CG_OE1_OE2": 5156, "2_1_N:N_N_C-R_CG:CB_CG_CD": 5157, "1_2_N:C_N_C-K_O:C_N_CA": 5158, "2_6_C:C_C_O-V_CG1:CA_CG1_CG2": 5159, "2_6_C:O_C_C-Y_CE2:CZ_CE2_CD2": 5160, "1_3_N:N_N_C-Q_OE1:CG_OE1_NE2": 5161, "2_6_N:N_N_C-K_NZ:NZ_CE_CD": 5162, "1_6_O:N_O_C-F_CE2:CZ_CE2_CD2": 5163, "1_6_N:C_N_N-V_O:C_N_CA": 5164, "2_6_C:C_C_N-T_O:C_N_CA": 5165, "E_OE1AGLU": 5166, ":CG_OE1AGLU": 5167, "E_OE1AGLU:CG_OE1AGLU": 5168, "1_1_N:N_N_N-A_CB:N_CA_C": 5169, "2_6_O:O_O_C-F_CE1:CD1_CE1_CZ": 5170, "1_5_N:C_N_C-D_O:C_N_CA": 5171, "2_1_O:O_O_N-R_CD:CG_CD_NE": 5172, "2_3_O:C_O_C-I_CD1:CD1_CG1_CB": 5173, "1_6_C:C_C_L-E_OE1:CG_OE1_OE2": 5174, "1_6_N:N_N_C-F_CE1:CD1_CE1_CZ": 5175, "1_1_C:N_C_C-P_O:C_N_CA": 5176, "1_2_S:C_S_C-E_OE1:CG_OE1_OE2": 5177, "D_OD1AASP": 5178, ":CB_OD1AASP": 5179, "D_OD1AASP:CB_OD1AASP": 5180, "2_6_C:C_C_L-K_CB:CA_CB_CG": 5181, "2_5_N:C_N_C-A_O:C_N_CA": 5182, "N:OD": 5183, "N_ND2AAS": 5184, "1AASN_ND": 5185, "N:OD1AASN_ND": 5186, "N_ND2AASN:OD1AASN_ND": 5187, "2_3_N:N_N_C-K_CD:CG_CD_CE": 5188, "1_1_O:N_O_C-W_O:C_N_CA": 5189, "2_4_O:N_O_N-": 5190, "2_3_O:C_O_C-Y_CD1:CG_CD1_CE1": 5191, "1_2_N:C_N_C-H_NE2:CE1_NE2_CD2": 5192, "1_6_F:C_F_C-V_CG1:CA_CG1_CG2": 5193, "2_6_N:N_N_C-M_CB:CA_CB_CG": 5194, "2_1_N:N_N_C-Y_CD2:CE2_CD2_CG": 5195, "1_1_F:F_F_F-E_OE2:OE1_OE2_CG": 5196, "1_2_N:C_N_C-D_O:C_N_CA": 5197, "2_4_C:N_C_N-I_CG2:CB_CG1_CD1": 5198, "1_6_C:C_C_O-I_CG2:CB_CG1_CD1": 5199, "1_1_O:O_O_N-F_CZ:CE1_CZ_CE2": 5200, "2_1_C:N_C_C-M_CG:CB_CG_SD": 5201, "2_1_O:O_O_C-H_O:C_N_CA": 5202, "1_2_O:C_O_C-F_CE2:CZ_CE2_CD2": 5203, "2_6_C:C_C_L-N_ND2:OD1_ND2_CB": 5204, "2_1_N:C_N_C-Y_CE1:CD1_CE1_CZ": 5205, "2_1_O:O_O_N-W_CZ3:CE3_CZ3_CH2": 5206, "2_6_O:O_O_O-E_OE1:CG_OE1_OE2": 5207, "2_2_N:C_N_C-M_CG:CB_CG_SD": 5208, "2_1_O:O_O_N-Q_OE1:CG_OE1_NE2": 5209, "1_1_L:C_L_C-M_SD:CG_SD_SD": 5210, "2_3_O:C_O_C-I_CG2:CB_CG1_CD1": 5211, "2_3_N:C_N_C-T_OG1:CA_CG2_OG1": 5212, "1_1_N:N_N_C-D_O:C_N_CA": 5213, "1_1_O:O_O_N-S_O:C_N_CA": 5214, "2_3_O:P_O_P-R_NE:CD_NE_CZ": 5215, "2_5_N:C_N_C-Y_CE1:CD1_CE1_CZ": 5216, "2_3_C:N_C_C-R_O:C_N_CA": 5217, "1_3_C:O_C_C-W_CD1:NE1_CD1_CG": 5218, "1_1_N:N_C_C-Y_CE2:CZ_CE2_CD2": 5219, "2_6_N:N_N_N-D_O:C_N_CA": 5220, "2_3_N:C_N_C-P_CB:CG_CB_CA": 5221, "2_4_O:C_O_C-V_O:C_N_CA": 5222, "2_6_O:O_O_O-R_CG:CB_CG_CD": 5223, "1_1_F:F_F_F-N_OD1:CB_OD1_ND2": 5224, "2_1_O:N_O_N-H_NE2:CE1_NE2_CD2": 5225, "2_3_C:O_C_C-W_NE1:CE2_NE1_CD2": 5226, ":S_": 5227, "1_5_C:C_C_C-G_CA:N_CA_C": 5228, "2_1_L:C_L_C-Q_OE1:CG_OE1_NE2": 5229, "2_3_N:C_N_C-V_CG1:CA_CG1_CG2": 5230, "2_3_O:C_O_C-R_CD:CG_CD_NE": 5231, "2_6_O:N_O_C-W_NE1:CE2_NE1_CD2": 5232, "1_3_C:C_C_C-K_CB:CA_CB_CG": 5233, "1_3_C:O_C_C-K_CB:CA_CB_CG": 5234, "1_3_O:C_O_C-S_O:C_N_CA": 5235, "1_6_N:N_N_N-G_CA:N_CA_C": 5236, "2_1_N:O_N_O-H_CE1:ND1_CE1_NE2": 5237, "1_6_O:O_O_O-N_ND2:OD1_ND2_CB": 5238, "2_4_C:N_C_N-R_CG:CB_CG_CD": 5239, "2_6_N:C_N_C-P_O:C_N_CA": 5240, "1_3_O:C_O_C-F_CD2:CE2_CD2_CG": 5241, "2_5_N:C_N_C-H_NE2:CE1_NE2_CD2": 5242, "2_3_N:N_N_C-T_CG2:CG2_OG1_CA": 5243, "1_2_C:C_C_C-M_CB:CA_CB_CG": 5244, "1_1_N:O_N_C-L_CD1:CB_CD1_CD2": 5245, "1_6_O:O_O_C-L_O:C_N_CA": 5246, "2_1_L:C_L_C-K_O:C_N_CA": 5247, "1_4_C:N_C_N-R_O:C_N_CA": 5248, "1_3_O:C_O_C-I_O:C_N_CA": 5249, "1_3_C:C_C_C-K_CG:CB_CG_CD": 5250, "2_6_N:C_N_N-P_CB:CG_CB_CA": 5251, "1_4_C:O_C_C-M_CB:CA_CB_CG": 5252, "1_3_N:N_N_C-R_NH2:NH1_NH2_NE": 5253, "2_1_C:N_C_C-H_CE1:ND1_CE1_NE2": 5254, "1_3_N:C_N_C-Y_CE2:CZ_CE2_CD2": 5255, "2_1_N:N_N_C-L_O:C_N_CA": 5256, "1_2_S:C_S_C-Q_OE1:CG_OE1_NE2": 5257, "2_6_N:C_N_N-Q_NE2:NE2_OE1_CG": 5258, "1_1_O:O_O_O-P_O:C_N_CA": 5259, "1_1_F:F_F_F-E_OE1:CG_OE1_OE2": 5260, "1_6_C:O_C_C-D_OD1:CB_OD1_OD2": 5261, "2_6_C:C_C_L-K_NZ:NZ_CE_CD": 5262, "1_6_N:N_N_C-Y_CE2:CZ_CE2_CD2": 5263, "2_6_O:N_O_C-K_CB:CA_CB_CG": 5264, "2_5_C:C_C_C-F_CE2:CZ_CE2_CD2": 5265, "2_1_O:O_O_N-Y_CD1:CG_CD1_CE1": 5266, "1_6_C:C_C_L-K_O:C_N_CA": 5267, "2_1_N:O_N_C-L_CD1:CB_CD1_CD2": 5268, "1_1_F:C_F_C-M_SD:CG_SD_SD": 5269, "1_6_O:O_O_O-T_O:C_N_CA": 5270, "1_1_F:C_F_C-E_OE1:CG_OE1_OE2": 5271, "2_1_F:F_F_F-N_OD1:CB_OD1_ND2": 5272, "2_1_F:F_F_F-R_NH2:NH1_NH2_NE": 5273, "1_3_C:N_C_C-Q_O:C_N_CA": 5274, "1_1_C:O_C_C-M_SD:CG_SD_SD": 5275, "1_1_O:C_O_O-D_OD2:OD1_OD2_CB": 5276, "1_1_F:F_F_F-R_NH1:NE_NH1_NH2": 5277, "2_4_C:O_C_C-T_O:C_N_CA": 5278, "2_3_O:C_O_C-R_NE:CD_NE_CZ": 5279, "2_1_C:O_C_C-E_OE1:CG_OE1_OE2": 5280, "2_6_C:C_C_S-R_CD:CG_CD_NE": 5281, "2_6_O:O_O_C-N_ND2:OD1_ND2_CB": 5282, "2_5_N:C_N_C-M_O:C_N_CA": 5283, "1_4_O:C_O_P-D_OD1:CB_OD1_OD2": 5284, "_C:C_C_P-": 5285, "1_5_O:C_O_C-V_CG2:CG1_CG2_CA": 5286, "1_3_O:C_O_P-V_CG1:CA_CG1_CG2": 5287, "1_2_O:C_O_N-": 5288, "2_6_O:O_O_C-H_NE2:CE1_NE2_CD2": 5289, "1_1_L:C_L_C-N_ND2:OD1_ND2_CB": 5290, "1_6_N:N_N_C-P_O:C_N_CA": 5291, "2_1_O:O_O_N-E_OE1:CG_OE1_OE2": 5292, "2_1_F:F_F_F-P_CG:CD_CG_CB": 5293, "2_1_L:C_L_C-T_O:C_N_CA": 5294, "1_4_C:O_C_C-R_O:C_N_CA": 5295, "2_1_O:O_O_C-M_O:C_N_CA": 5296, "1_2_N:C_N_C-Y_CD2:CE2_CD2_CG": 5297, "2_1_O:N_O_N-N_OD1:CB_OD1_ND2": 5298, "2_3_O:P_O_P-K_CD:CG_CD_CE": 5299, "1_1_L:C_L_C-H_O:C_N_CA": 5300, "1_3_O:C_O_P-L_CD2:CD1_CD2_CB": 5301, "2_1_N:O_N_C-T_OG1:CA_CG2_OG1": 5302, "2_2_C:N_C_C-D_OD2:OD1_OD2_CB": 5303, "1_4_C:N_C_N-F_CD2:CE2_CD2_CG": 5304, "2_6_N:N_N_C-I_CG2:CB_CG1_CD1": 5305, "2_6_C:C_C_N-M_O:C_N_CA": 5306, "2_3_C:C_C_C-F_O:C_N_CA": 5307, "1_1_N:C_N_C-A_CB:N_CA_C": 5308, "1_1_O:O_O_N-M_SD:CG_SD_SD": 5309, "2_1_C:O_C_C-W_CH2:CZ3_CH2_CZ2": 5310, "2_1_N:N_N_C-M_CB:CA_CB_CG": 5311, "1_2_N:C_N_C-M_O:C_N_CA": 5312, "1_6_O:N_O_C-S_O:C_N_CA": 5313, "1_1_C:O_C_C-G_CA:N_CA_C": 5314, "2_3_C:O_C_C-F_O:C_N_CA": 5315, "1_1_O:O_O_N-Y_CE1:CD1_CE1_CZ": 5316, ":C_F_N-": 5317, "2_6_C:O_C_C-M_CE:CG_SD_CG": 5318, "2_6_O:O_O_O-T_OG1:CA_CG2_OG1": 5319, "2_4_C:O_C_C-M_CE:CG_SD_CG": 5320, "2_3_C:O_C_C-H_ND1:CG_ND1_CE1": 5321, "2_6_O:P_O_C-": 5322, "1_3_O:C_O_P-N_ND2:OD1_ND2_CB": 5323, "2_6_C:C_C_N-V_O:C_N_CA": 5324, "2_1_O:O_O_S-": 5325, "1_4_O:C_O_C-M_O:C_N_CA": 5326, "1_1_F:C_F_C-K_CE:CD_CE_NZ": 5327, "2_2_S:C_S_C-N_OD1:CB_OD1_ND2": 5328, "1_1_C:O_C_C-E_OE2:OE1_OE2_CG": 5329, "2_1_L:C_L_C-W_CH2:CZ3_CH2_CZ2": 5330, "1_6_N:C_N_N-S_O:C_N_CA": 5331, "2_1_C:O_C_C-W_CE3:CD2_CE3_CZ3": 5332, "1_1_O:O_O_N-Y_O:C_N_CA": 5333, "1_4_C:C_C_N-V_CG2:CG1_CG2_CA": 5334, "2_2_S:N_S_C-": 5335, "2_6_C:C_C_L-W_CZ3:CE3_CZ3_CH2": 5336, "2_1_O:O_O_N-A_O:C_N_CA": 5337, "1_1_O:N_O_N-I_CG2:CB_CG1_CD1": 5338, "2_2_C:C_C_C-W_CZ3:CE3_CZ3_CH2": 5339, "2_1_F:C_F_C-E_OE1:CG_OE1_OE2": 5340, "2_1_C:N_C_C-S_O:C_N_CA": 5341, "2_4_C:N_C_N-Q_NE2:NE2_OE1_CG": 5342, "2_2_C:C_C_C-R_NE:CD_NE_CZ": 5343, "1_2_S:C_S_C-N_OD1:CB_OD1_ND2": 5344, "1_3_C:O_C_C-Q_O:C_N_CA": 5345, "2_6_C:C_C_S-R_NE:CD_NE_CZ": 5346, "2_3_N:N_N_C-M_O:C_N_CA": 5347, "1_2_S:C_S_C-N_ND2:OD1_ND2_CB": 5348, "1_3_C:C_C_S-Y_OH:CE1_OH_CE2": 5349, "1_4_N:C_N_S-L_CD1:CB_CD1_CD2": 5350, "2_2_C:C_C_C-K_NZ:NZ_CE_CD": 5351, "2_6_C:C_C_S-F_O:C_N_CA": 5352, "1_6_N:N_N_C-F_CD1:CG_CD1_CE1": 5353, "2_4_C:O_C_C-W_CZ3:CE3_CZ3_CH2": 5354, "2_6_C:C_C_N-E_O:C_N_CA": 5355, "1_1_O:N_O_C-W_CE3:CD2_CE3_CZ3": 5356, "1_1_F:C_F_C-V_O:C_N_CA": 5357, "2_3_N:C_N_C-D_OD1:CB_OD1_OD2": 5358, "2_6_N:N_N_C-M_O:C_N_CA": 5359, "1_1_N:N_C_C-Y_CD1:CG_CD1_CE1": 5360, "2_3_C:C_C_S-G_CA:N_CA_C": 5361, "1_1_O:O_O_N-P_O:C_N_CA": 5362, "2_4_N:N_N_C-F_CZ:CE1_CZ_CE2": 5363, "2_1_N:N_N_N-F_CZ:CE1_CZ_CE2": 5364, "2_6_O:C_O_C-W_O:C_N_CA": 5365, "2_4_C:N_C_N-L_O:C_N_CA": 5366, "TYR": 5367, "_CE2ATYR": 5368, "2_6_O:O_O_C-F_CE2:CZ_CE2_CD2": 5369, "1_1_N:O_N_C-L_CD2:CD1_CD2_CB": 5370, "2_2_N:C_N_C-V_O:C_N_CA": 5371, "2_1_O:C_O_C-W_O:C_N_CA": 5372, "2_1_N:N_N_N-L_CD1:CB_CD1_CD2": 5373, "2_1_C:N_C_C-Y_CD2:CE2_CD2_CG": 5374, "2_6_C:C_C_L-R_NH2:NH1_NH2_NE": 5375, "1_1_O:N_O_C-W_NE1:CE2_NE1_CD2": 5376, "2_6_C:N_C_C-A_O:C_N_CA": 5377, "1_6_N:N_N_C-S_O:C_N_CA": 5378, "1_3_O:P_O_P-V_CG2:CG1_CG2_CA": 5379, "1_1_N:N_C_C-A_CB:N_CA_C": 5380, "2_1_O:N_O_C-W_CD1:NE1_CD1_CG": 5381, "1_5_N:C_N_C-F_CE2:CZ_CE2_CD2": 5382, "1_2_C:C_C_C-M_O:C_N_CA": 5383, "2_6_N:C_N_N-I_O:C_N_CA": 5384, "2_6_O:N_O_C-K_O:C_N_CA": 5385, "1_3_N:C_N_C-S_O:C_N_CA": 5386, "1_5_C:C_C_C-T_OG1:CA_CG2_OG1": 5387, "1_4_C:N_C_N-R_NE:CD_NE_CZ": 5388, "2_1_N:N_N_N-E_OE1:CG_OE1_OE2": 5389, "2_3_N:N_N_C-M_CG:CB_CG_SD": 5390, "2_3_C:F_C_C-": 5391, "2_1_O:N_O_N-D_O:C_N_CA": 5392, "2_6_C:C_C_S-S_O:C_N_CA": 5393, "1_5_C:C_C_C-G_O:C_N_CA": 5394, "2_1_C:O_C_C-I_O:C_N_CA": 5395, "2_2_N:C_N_C-I_O:C_N_CA": 5396, "1_5_N:C_N_C-K_O:C_N_CA": 5397, "2_4_O:C_O_C-W_CE3:CD2_CE3_CZ3": 5398, "2_6_O:N_O_C-Q_NE2:NE2_OE1_CG": 5399, "E1AGLU": 5400, "U:O": 5401, "E_OE2AGL": 5402, "E1AGLU_OE": 5403, "U:OE1AGLU_OE": 5404, "E_OE2AGLU:OE1AGLU_OE": 5405, "1_1_L:C_L_C-R_NH2:NH1_NH2_NE": 5406, "2_1_C:O_C_N-D_OD2:OD1_OD2_CB": 5407, "1_1_L:C_L_C-T_O:C_N_CA": 5408, "2_1_O:N_O_N-W_CZ2:CH2_CZ2_CE2": 5409, "1_6_C:C_C_N-M_O:C_N_CA": 5410, "1_5_C:C_C_C-D_OD2:OD1_OD2_CB": 5411, "1_6_N:C_N_N-F_CE1:CD1_CE1_CZ": 5412, "1_1_L:C_L_C-K_O:C_N_CA": 5413, "2_4_N:N_N_C-G_O:C_N_CA": 5414, "2_3_O:C_O_P-R_NH1:NE_NH1_NH2": 5415, "2_6_O:O_O_C-R_NH2:NH1_NH2_NE": 5416, "2_1_C:O_C_C-R_NH2:NH1_NH2_NE": 5417, "2_1_C:N_C_C-R_CD:CG_CD_NE": 5418, "1_6_O:N_O_C-F_CZ:CE1_CZ_CE2": 5419, "2_6_C:C_C_O-F_CD1:CG_CD1_CE1": 5420, "1_4_O:C_O_C-Q_O:C_N_CA": 5421, ":CE1AHIS": 5422, "H_NE2AHIS": 5423, ":CE1AHIS_NE": 5424, "H_NE2AHIS:CE1AHIS_NE": 5425, "2_1_F:C_F_C-I_CD1:CD1_CG1_CB": 5426, "1_1_F:F_F_F-F_CZ:CE1_CZ_CE2": 5427, "2_1_L:C_L_C-I_CG2:CB_CG1_CD1": 5428, "2_1_C:O_C_C-M_CG:CB_CG_SD": 5429, "2_4_C:N_C_N-I_CD1:CD1_CG1_CB": 5430, "1_6_O:N_O_C-E_O:C_N_CA": 5431, "1_4_N:N_N_C-G_O:C_N_CA": 5432, "1_4_C:N_C_N-H_O:C_N_CA": 5433, "2_1_C:O_C_C-R_CD:CG_CD_NE": 5434, "2_2_C:C_C_C-Q_OE1:CG_OE1_NE2": 5435, "2_1_N:N_N_N-N_OD1:CB_OD1_ND2": 5436, "2_4_C:O_C_C-W_NE1:CE2_NE1_CD2": 5437, "2_6_O:N_O_C-I_CD1:CD1_CG1_CB": 5438, "1_4_O:C_O_C-W_NE1:CE2_NE1_CD2": 5439, "1_6_O:O_O_C-N_OD1:CB_OD1_ND2": 5440, "1_3_N:N_N_C-R_NH1:NE_NH1_NH2": 5441, "2_1_F:C_F_C-L_O:C_N_CA": 5442, "2_3_N:N_N_C-V_CG1:CA_CG1_CG2": 5443, "1_1_L:C_L_C-P_O:C_N_CA": 5444, "2_3_N:N_N_C-Y_CE2:CZ_CE2_CD2": 5445, "1_4_S:C_S_C-": 5446, "2_1_F:C_F_C-H_CD2:NE2_CD2_CG": 5447, "1ATRP": 5448, "2_1_F:C_F_C-W_CZ3:CE3_CZ3_CH2": 5449, "2_6_C:C_C_L-R_CD:CG_CD_NE": 5450, "1_5_C:N_C_C-A_CB:N_CA_C": 5451, "2_6_C:C_C_N-L_O:C_N_CA": 5452, "2_1_L:C_L_C-K_CE:CD_CE_NZ": 5453, "2_6_C:N_C_C-W_CE3:CD2_CE3_CZ3": 5454, "2_6_O:O_O_C-R_NH1:NE_NH1_NH2": 5455, "2_1_N:C_N_C-R_NH2:NH1_NH2_NE": 5456, "1_1_O:O_O_O-P_CD:N_CD_CG": 5457, "2_2_C:C_C_C-L_O:C_N_CA": 5458, "1_4_C:N_C_N-F_O:C_N_CA": 5459, "1_2_C:N_C_C-G_O:C_N_CA": 5460, "2_2_C:C_C_C-Y_O:C_N_CA": 5461, "1_4_O:C_O_C-H_O:C_N_CA": 5462, "1_1_O:O_O_N-F_CD2:CE2_CD2_CG": 5463, "1_6_O:O_O_C-T_OG1:CA_CG2_OG1": 5464, "2_1_C:O_C_C-Y_CD1:CG_CD1_CE1": 5465, "1_4_C:O_C_C-K_CG:CB_CG_CD": 5466, "2_3_O:C_O_C-Y_CD2:CE2_CD2_CG": 5467, "2_1_L:C_L_C-W_CZ2:CH2_CZ2_CE2": 5468, "1_2_O:C_O_P-T_O:C_N_CA": 5469, ":O_C_P-": 5470, "2_3_C:C_C_C-K_CG:CB_CG_CD": 5471, "2_6_C:C_C_O-S_OG:OG_CB_CA": 5472, "1_2_S:C_S_C-F_CZ:CE1_CZ_CE2": 5473, "2_5_N:C_N_C-P_CG:CD_CG_CB": 5474, "1_1_F:C_F_C-E_O:C_N_CA": 5475, "1_6_O:O_O_C-I_CG2:CB_CG1_CD1": 5476, "1_3_C:O_C_C-R_NE:CD_NE_CZ": 5477, "1_2_N:C_N_C-Y_O:C_N_CA": 5478, "T_CG": 5479, ":CG2ATHR": 5480, "2ATHR:CG2ATHR": 5481, "T_CG2ATHR:CG2ATHR": 5482, "T_CG2ATHR:CG2ATHR_OG": 5483, "2_6_C:C_C_O-Y_CE2:CZ_CE2_CD2": 5484, "2_6_O:N_O_O-": 5485, "2_1_O:C_O_C-Q_O:C_N_CA": 5486, "1_3_N:C_N_C-H_CE1:ND1_CE1_NE2": 5487, "1_6_N:C_N_N-Q_OE1:CG_OE1_NE2": 5488, "2_4_C:O_C_C-P_CD:N_CD_CG": 5489, "2_6_O:O_O_O-V_O:C_N_CA": 5490, "2_3_N:C_N_P-": 5491, "2_6_C:C_C_L-I_CD1:CD1_CG1_CB": 5492, "1_1_C:O_C_C-N_OD1:CB_OD1_ND2": 5493, "2_3_C:C_C_C-Q_O:C_N_CA": 5494, ":L_C_C-": 5495, "1_6_C:C_C_L-P_O:C_N_CA": 5496, "1_4_N:C_N_S-L_CD2:CD1_CD2_CB": 5497, "1_1_L:C_L_N-": 5498, "2_6_N:C_N_N-V_O:C_N_CA": 5499, "1_3_O:C_O_C-M_CG:CB_CG_SD": 5500, "1_6_C:C_C_S-E_O:C_N_CA": 5501, "1_2_O:C_O_C-E_OE1:CG_OE1_OE2": 5502, ":O_O_S-": 5503, "2_6_O:N_O_C-F_O:C_N_CA": 5504, "2_4_C:N_C_N-Y_CD1:CG_CD1_CE1": 5505, "1_4_C:O_C_C-D_O:C_N_CA": 5506, "2_2_C:N_C_C-Y_OH:CE1_OH_CE2": 5507, "2_1_F:F_F_F-E_OE1:CG_OE1_OE2": 5508, "2_4_C:O_C_C-M_CG:CB_CG_SD": 5509, "1_6_C:N_C_C-H_NE2:CE1_NE2_CD2": 5510, "2_3_N:C_N_C-F_CD1:CG_CD1_CE1": 5511, "1_1_N:C_N_C-L_CD1:CB_CD1_CD2": 5512, "1_1_C:O_C_C-E_OE1:CG_OE1_OE2": 5513, "2_1_N:N_N_C-W_CZ2:CH2_CZ2_CE2": 5514, "1_6_C:N_C_C-K_CD:CG_CD_CE": 5515, "1_6_C:C_C_O-G_CA:N_CA_C": 5516, "2_6_C:C_C_L-W_CH2:CZ3_CH2_CZ2": 5517, "1_1_O:N_O_N-T_O:C_N_CA": 5518, "2_6_C:C_C_L-Q_NE2:NE2_OE1_CG": 5519, "2_1_F:C_F_C-M_SD:CG_SD_SD": 5520, "2_6_N:N_N_N-R_CD:CG_CD_NE": 5521, "1_1_O:O_O_O-H_O:C_N_CA": 5522, "1_1_C:O_C_C-R_NH1:NE_NH1_NH2": 5523, "1_6_F:F_F_F-L_CD1:CB_CD1_CD2": 5524, "2_4_O:C_O_C-N_O:C_N_CA": 5525, "2_2_S:C_S_C-F_CD1:CG_CD1_CE1": 5526, "2_4_C:C_C_S-G_O:C_N_CA": 5527, "1_6_O:C_O_S-": 5528, "1_6_C:C_C_N-W_O:C_N_CA": 5529, "2_1_C:N_C_C-Y_CD1:CG_CD1_CE1": 5530, "1_6_N:N_N_C-F_CE2:CZ_CE2_CD2": 5531, "2_1_N:C_N_C-F_CZ:CE1_CZ_CE2": 5532, "2_6_N:N_N_C-K_CB:CA_CB_CG": 5533, "1_3_C:C_C_C-W_O:C_N_CA": 5534, "2_1_C:O_C_N-V_CG2:CG1_CG2_CA": 5535, "2_6_N:C_N_N-I_CG2:CB_CG1_CD1": 5536, "2_3_N:C_N_C-R_NH2:NH1_NH2_NE": 5537, "1_6_O:C_O_C-W_O:C_N_CA": 5538, "2_1_N:N_N_C-K_CB:CA_CB_CG": 5539, "2_6_C:O_C_C-V_CG1:CA_CG1_CG2": 5540, "2_1_N:N_N_N-Y_CE1:CD1_CE1_CZ": 5541, "2_3_O:C_O_P-E_OE2:OE1_OE2_CG": 5542, "2_5_N:C_N_C-F_CD1:CG_CD1_CE1": 5543, "2_1_O:O_O_N-Y_CD2:CE2_CD2_CG": 5544, "2_1_N:C_N_C-E_OE1:CG_OE1_OE2": 5545, "2_4_O:P_O_P-G_CA:N_CA_C": 5546, "1_3_N:N_N_C-N_O:C_N_CA": 5547, "1_3_C:C_C_C-Q_O:C_N_CA": 5548, "2_5_C:C_C_C-H_NE2:CE1_NE2_CD2": 5549, "2_5_C:N_C_C-D_OD2:OD1_OD2_CB": 5550, "1_4_O:C_O_P-T_OG1:CA_CG2_OG1": 5551, "2_3_N:N_N_C-N_ND2:OD1_ND2_CB": 5552, "2_1_C:N_C_C-M_CE:CG_SD_CG": 5553, "1_6_N:N_N_N-T_OG1:CA_CG2_OG1": 5554, "1_2_S:C_S_C-M_SD:CG_SD_SD": 5555, "1_1_F:C_F_C-F_O:C_N_CA": 5556, "1_2_N:C_N_C-R_CG:CB_CG_CD": 5557, "2_2_N:C_N_C-F_CD2:CE2_CD2_CG": 5558, "2_4_C:N_C_N-P_CD:N_CD_CG": 5559, "1_1_F:F_F_F-R_NH2:NH1_NH2_NE": 5560, "2_1_F:O_F_F-": 5561, "2_2_N:C_N_C-Y_CD2:CE2_CD2_CG": 5562, "2_1_L:C_L_C-R_NE:CD_NE_CZ": 5563, "1_3_O:C_O_C-H_NE2:CE1_NE2_CD2": 5564, "1_2_O:C_O_C-E_OE2:OE1_OE2_CG": 5565, "2_1_F:F_F_F-N_ND2:OD1_ND2_CB": 5566, "1_1_O:O_O_N-P_CD:N_CD_CG": 5567, "2_6_N:C_N_N-W_CE3:CD2_CE3_CZ3": 5568, "2_2_N:C_N_C-E_OE1:CG_OE1_OE2": 5569, "1_6_C:O_C_C-M_SD:CG_SD_SD": 5570, "2_6_C:C_C_L-K_CE:CD_CE_NZ": 5571, "1_1_C:N_C_C-K_CE:CD_CE_NZ": 5572, "2_1_C:N_C_C-W_CH2:CZ3_CH2_CZ2": 5573, "2_6_O:O_O_O-N_OD1:CB_OD1_ND2": 5574, "1_3_N:N_N_C-Y_CE2:CZ_CE2_CD2": 5575, "2_1_F:C_F_C-K_NZ:NZ_CE_CD": 5576, "1_6_C:C_C_N-V_O:C_N_CA": 5577, "_C:N_C_P-": 5578, "2_3_O:C_O_C-H_CD2:NE2_CD2_CG": 5579, "2_2_N:C_N_C-K_NZ:NZ_CE_CD": 5580, "2_4_C:N_C_N-M_SD:CG_SD_SD": 5581, "2_2_S:C_S_C-W_CH2:CZ3_CH2_CZ2": 5582, "1_6_C:C_C_L-N_OD1:CB_OD1_ND2": 5583, "2_3_O:C_O_P-N_ND2:OD1_ND2_CB": 5584, "2_0_C:N_C_C-": 5585, "1_1_F:F_F_F-F_CE2:CZ_CE2_CD2": 5586, "1_1_O:O_O_N-F_CE2:CZ_CE2_CD2": 5587, "1_3_O:C_O_C-W_CZ2:CH2_CZ2_CE2": 5588, "2_6_N:N_N_S-L_CD2:CD1_CD2_CB": 5589, "1_3_O:C_O_C-T_O:C_N_CA": 5590, "2_1_N:C_N_C-L_CD1:CB_CD1_CD2": 5591, "1_4_C:C_C_N-Y_OH:CE1_OH_CE2": 5592, "2_0_C:C_C_C-D_OD2:OD1_OD2_CB": 5593, "1_0_C:C_C_C-V_CG1:CA_CG1_CG2": 5594, "2_4_N:C_N_C-H_O:C_N_CA": 5595, "1_1_L:C_L_C-F_CD1:CG_CD1_CE1": 5596, "1_2_O:C_O_C-Y_CE2:CZ_CE2_CD2": 5597, "1_6_C:C_C_N-P_CB:CG_CB_CA": 5598, "2_2_O:C_O_P-Y_OH:CE1_OH_CE2": 5599, "1_6_C:C_C_S-L_O:C_N_CA": 5600, ":N_O_P-": 5601, "1_6_O:N_O_C-M_CB:CA_CB_CG": 5602, "1_1_F:F_F_O-": 5603, "1_2_C:O_C_C-G_O:C_N_CA": 5604, "2_1_C:O_C_C-F_CD2:CE2_CD2_CG": 5605, "2_6_N:N_N_N-A_O:C_N_CA": 5606, "1_3_N:N_N_C-F_CZ:CE1_CZ_CE2": 5607, "2_6_C:C_C_S-E_OE1:CG_OE1_OE2": 5608, "1_3_N:N_N_C-F_CD1:CG_CD1_CE1": 5609, "1_1_N:C_N_C-L_CD2:CD1_CD2_CB": 5610, "2_5_N:C_N_C-R_NH2:NH1_NH2_NE": 5611, "2_3_C:C_C_C-V_O:C_N_CA": 5612, "2_3_N:C_N_C-I_O:C_N_CA": 5613, "2_3_N:N_N_C-F_CD1:CG_CD1_CE1": 5614, "1_1_C:O_C_C-R_NH2:NH1_NH2_NE": 5615, "1_3_O:C_O_C-L_O:C_N_CA": 5616, "1_5_N:C_N_C-Y_CD2:CE2_CD2_CG": 5617, "1_1_O:O_O_N-W_O:C_N_CA": 5618, ":L_O_C-": 5619, "_C:C_C_B-": 5620, "2_6_O:O_O_O-F_CE1:CD1_CE1_CZ": 5621, "2_6_N:N_N_N-Y_CD1:CG_CD1_CE1": 5622, "2_6_C:C_C_L-E_OE1:CG_OE1_OE2": 5623, "2_1_O:N_O_N-F_CD1:CG_CD1_CE1": 5624, "2_3_C:N_C_C-Y_O:C_N_CA": 5625, "1_4_O:O_O_P-": 5626, "2_1_N:N_N_N-R_CD:CG_CD_NE": 5627, "1_6_C:N_C_C-F_CD2:CE2_CD2_CG": 5628, "2_4_O:C_O_C-Q_O:C_N_CA": 5629, "1_4_C:O_C_C-W_NE1:CE2_NE1_CD2": 5630, "1_4_C:N_C_N-Y_CD2:CE2_CD2_CG": 5631, "2_2_C:C_C_C-E_O:C_N_CA": 5632, "2_6_C:C_C_L-A_O:C_N_CA": 5633, "2_1_L:C_L_C-P_CD:N_CD_CG": 5634, "1_6_N:N_N_N-E_OE2:OE1_OE2_CG": 5635, "2_6_N:N_N_N-W_CZ3:CE3_CZ3_CH2": 5636, "1_2_O:C_O_C-N_OD1:CB_OD1_ND2": 5637, "2_2_O:C_O_C-S_O:C_N_CA": 5638, "2_4_C:O_C_C-M_SD:CG_SD_SD": 5639, "2_5_N:C_N_C-M_CE:CG_SD_CG": 5640, "2_2_O:C_O_C-H_NE2:CE1_NE2_CD2": 5641, "3ATRP": 5642, "1_1_C:N_C_C-A_O:C_N_CA": 5643, "2_4_N:C_N_S-G_O:C_N_CA": 5644, "2_3_O:C_O_C-Q_NE2:NE2_OE1_CG": 5645, "1_1_F:C_F_C-Q_OE1:CG_OE1_NE2": 5646, "2_4_C:C_C_L-": 5647, "1_1_F:F_F_F-F_CE1:CD1_CE1_CZ": 5648, "2_3_N:C_N_C-N_ND2:OD1_ND2_CB": 5649, "2_3_C:O_C_C-K_CE:CD_CE_NZ": 5650, "2_2_O:C_O_P-D_OD2:OD1_OD2_CB": 5651, "1_5_C:N_C_C-Y_CD2:CE2_CD2_CG": 5652, "2_6_C:O_C_C-M_SD:CG_SD_SD": 5653, "1_5_O:C_O_C-A_CB:N_CA_C": 5654, "1_2_S:C_S_C-R_NH2:NH1_NH2_NE": 5655, "2_6_N:N_N_N-A_CB:N_CA_C": 5656, "2_3_N:C_N_C-K_CD:CG_CD_CE": 5657, "2_1_O:O_O_N-W_CE3:CD2_CE3_CZ3": 5658, "1_1_N:N_N_N-L_O:C_N_CA": 5659, "2_1_C:N_C_C-K_CB:CA_CB_CG": 5660, "1_6_N:C_N_N-M_SD:CG_SD_SD": 5661, "1_3_C:O_C_C-W_O:C_N_CA": 5662, "2_4_N:C_N_N-G_CA:N_CA_C": 5663, "2_4_C:O_C_C-Y_O:C_N_CA": 5664, "1_1_O:O_O_O-W_CZ2:CH2_CZ2_CE2": 5665, "1_3_N:N_N_C-M_O:C_N_CA": 5666, "2_1_O:O_O_N-R_NE:CD_NE_CZ": 5667, "2_1_N:N_N_N-F_CE1:CD1_CE1_CZ": 5668, "2_6_N:C_N_N-M_CB:CA_CB_CG": 5669, "1_3_N:N_N_C-Y_CD1:CG_CD1_CE1": 5670, "1_6_N:N_N_N-K_CE:CD_CE_NZ": 5671, "1_6_C:C_C_N-R_CD:CG_CD_NE": 5672, "1_1_O:N_O_N-N_OD1:CB_OD1_ND2": 5673, "1_2_N:C_N_C-N_O:C_N_CA": 5674, "2_6_N:N_N_C-H_CD2:NE2_CD2_CG": 5675, "1_6_N:C_N_N-K_O:C_N_CA": 5676, "2_3_C:O_C_C-W_CE3:CD2_CE3_CZ3": 5677, "1_3_O:C_O_C-M_CB:CA_CB_CG": 5678, "2_6_O:N_O_C-W_CH2:CZ3_CH2_CZ2": 5679, "2_3_C:N_C_C-K_O:C_N_CA": 5680, "1_2_C:N_C_C-A_CB:N_CA_C": 5681, "1_6_C:N_C_C-P_O:C_N_CA": 5682, "1_4_O:C_O_P-A_O:C_N_CA": 5683, "1_3_N:C_N_C-Y_CD1:CG_CD1_CE1": 5684, "2_6_C:O_C_C-F_CD2:CE2_CD2_CG": 5685, "1_1_F:F_F_F-I_O:C_N_CA": 5686, "1_4_C:O_C_C-K_CB:CA_CB_CG": 5687, "1_1_O:O_O_N-P_CG:CD_CG_CB": 5688, "1_6_O:N_O_C-D_O:C_N_CA": 5689, "1_2_N:C_N_S-": 5690, "2_5_N:C_N_C-N_ND2:OD1_ND2_CB": 5691, "2_6_N:N_N_C-R_CG:CB_CG_CD": 5692, "1_6_O:N_O_C-H_CD2:NE2_CD2_CG": 5693, "2_5_N:C_N_C-R_NH1:NE_NH1_NH2": 5694, "1_6_C:C_C_N-W_CE3:CD2_CE3_CZ3": 5695, "1_1_N:N_N_N-L_CD1:CB_CD1_CD2": 5696, "1_3_O:C_O_C-E_O:C_N_CA": 5697, "2_6_C:C_C_S-A_O:C_N_CA": 5698, "1_1_N:N_N_C-Y_CE1:CD1_CE1_CZ": 5699, "K_CD:CG_CD_CD": 5700, "2_6_F:C_F_C-F_CE2:CZ_CE2_CD2": 5701, "2_4_C:O_C_C-K_CB:CA_CB_CG": 5702, "2_1_F:C_F_C-W_NE1:CE2_NE1_CD2": 5703, "2_2_S:C_S_C-I_CG2:CB_CG1_CD1": 5704, "2_6_C:C_C_O-Y_CE1:CD1_CE1_CZ": 5705, "1_6_N:N_N_N-L_O:C_N_CA": 5706, "2_5_N:C_N_C-K_CG:CB_CG_CD": 5707, "2_6_C:C_C_S-M_CB:CA_CB_CG": 5708, "2_1_O:O_O_N-H_ND1:CG_ND1_CE1": 5709, "2_3_O:C_O_C-P_CG:CD_CG_CB": 5710, "2_6_C:O_C_C-H_NE2:CE1_NE2_CD2": 5711, "2_1_F:C_F_C-A_O:C_N_CA": 5712, "2_1_N:C_N_C-N_OD1:CB_OD1_ND2": 5713, "1_2_C:C_C_C-W_CZ3:CE3_CZ3_CH2": 5714, "1_6_N:N_N_C-Y_CD1:CG_CD1_CE1": 5715, "2_1_F:F_F_F-L_O:C_N_CA": 5716, "1_5_N:C_N_C-S_O:C_N_CA": 5717, "2_1_F:C_F_C-R_NE:CD_NE_CZ": 5718, "1_6_C:C_C_O-T_OG1:CA_CG2_OG1": 5719, "2_3_O:P_O_P-Y_CE1:CD1_CE1_CZ": 5720, "1_2_N:C_N_C-F_O:C_N_CA": 5721, "2_3_N:C_N_C-M_CE:CG_SD_CG": 5722, "2_6_N:C_N_N-Q_OE1:CG_OE1_NE2": 5723, "1_3_N:N_N_C-S_O:C_N_CA": 5724, "1_6_C:C_C_N-R_CG:CB_CG_CD": 5725, "2_1_O:C_O_O-R_NH2:NH1_NH2_NE": 5726, "2_1_O:N_O_C-C_O:C_N_CA": 5727, "1_1_F:F_F_F-V_O:C_N_CA": 5728, "1_1_F:F_F_F-K_CE:CD_CE_NZ": 5729, "2_1_C:C_C_C-C_O:C_N_CA": 5730, "2_2_S:C_S_C-T_OG1:CA_CG2_OG1": 5731, "2_5_N:C_N_C-P_CB:CG_CB_CA": 5732, "2_1_L:C_L_C-H_ND1:CG_ND1_CE1": 5733, "2_6_C:C_C_L-H_CD2:NE2_CD2_CG": 5734, "D1AHIS": 5735, ":ND1AHIS": 5736, "H_CE1AHIS": 5737, ":ND1AHIS_CE": 5738, "H_CE1AHIS:ND1AHIS_CE": 5739, "1_3_O:C_O_C-W_CH2:CZ3_CH2_CZ2": 5740, "2_1_O:N_O_N-W_CH2:CZ3_CH2_CZ2": 5741, "1_6_O:N_O_C-M_CG:CB_CG_SD": 5742, "2_3_N:C_N_C-W_CH2:CZ3_CH2_CZ2": 5743, "2_3_C:N_C_C-N_O:C_N_CA": 5744, "2_4_C:C_C_N-Y_OH:CE1_OH_CE2": 5745, "1_5_C:C_C_C-F_CZ:CE1_CZ_CE2": 5746, "1_2_S:C_S_C-F_CE1:CD1_CE1_CZ": 5747, "2_1_F:F_F_F-R_CD:CG_CD_NE": 5748, "2_1_O:N_O_N-I_O:C_N_CA": 5749, "2_4_C:N_C_C-W_O:C_N_CA": 5750, "1_6_S:C_S_L-": 5751, "1_4_C:N_C_N-K_O:C_N_CA": 5752, "1_0_C:C_C_C-I_CG2:CB_CG1_CD1": 5753, "2_3_C:O_C_C-K_CG:CB_CG_CD": 5754, "2_6_C:N_C_C-K_CE:CD_CE_NZ": 5755, "_S:C_S_N-": 5756, "1_3_N:N_N_C-F_CE1:CD1_CE1_CZ": 5757, "1_6_C:C_C_S-Y_CE1:CD1_CE1_CZ": 5758, "2_5_N:C_N_C-E_OE1:CG_OE1_OE2": 5759, "2_6_C:N_C_C-C_SG:SG_CB_CA": 5760, "1_3_O:P_O_P-E_OE2:OE1_OE2_CG": 5761, "2_1_N:O_N_C-Y_OH:CE1_OH_CE2": 5762, "1_5_O:O_O_C-": 5763, "2_0_C:C_C_C-K_CD:CG_CD_CE": 5764, "2_1_F:F_F_F-S_O:C_N_CA": 5765, "2_1_N:N_N_N-F_CD1:CG_CD1_CE1": 5766, "2_6_C:C_C_L-R_NH1:NE_NH1_NH2": 5767, "1_6_C:C_C_N-W_CZ2:CH2_CZ2_CE2": 5768, "2_4_C:N_C_N-F_O:C_N_CA": 5769, "1_6_C:C_C_N-C_O:C_N_CA": 5770, "1_6_C:C_C_L-K_CE:CD_CE_NZ": 5771, "1_2_O:C_O_C-F_CD2:CE2_CD2_CG": 5772, "1_1_F:F_F_F-M_CG:CB_CG_SD": 5773, "1_6_O:O_O_C-V_CG2:CG1_CG2_CA": 5774, "1_1_O:O_O_F-": 5775, "1_4_O:C_O_C-R_O:C_N_CA": 5776, "2_4_C:N_C_N-P_CG:CD_CG_CB": 5777, "2_6_C:C_C_S-Q_OE1:CG_OE1_NE2": 5778, "2_1_C:O_C_N-G_CA:N_CA_C": 5779, "2_1_O:C_O_S-": 5780, "2_1_N:C_N_C-N_ND2:OD1_ND2_CB": 5781, "1_2_N:C_N_C-K_CG:CB_CG_CD": 5782, "1_1_O:O_O_O-W_NE1:CE2_NE1_CD2": 5783, "1_6_C:C_C_O-D_OD1:CB_OD1_OD2": 5784, "2_3_N:C_N_C-V_O:C_N_CA": 5785, "1_3_N:C_N_C-P_CB:CG_CB_CA": 5786, "2_1_C:O_C_C-M_CE:CG_SD_CG": 5787, "2_2_S:C_S_C-E_OE2:OE1_OE2_CG": 5788, "1_6_O:O_O_N-L_CD1:CB_CD1_CD2": 5789, "1_3_N:C_N_C-W_CZ2:CH2_CZ2_CE2": 5790, "1_1_N:N_C_C-Y_CE1:CD1_CE1_CZ": 5791, "2_6_C:C_C_N-C_O:C_N_CA": 5792, "1_3_O:C_O_P-N_OD1:CB_OD1_ND2": 5793, "1_1_F:F_F_F-F_CD2:CE2_CD2_CG": 5794, "2_2_S:C_S_C-P_CG:CD_CG_CB": 5795, ":F_N_C-": 5796, "2_4_C:N_C_N-K_CB:CA_CB_CG": 5797, "2_1_O:O_O_O-W_CE3:CD2_CE3_CZ3": 5798, "1_1_C:C_C_C-W_O:C_N_CA": 5799, "1_2_O:C_O_C-R_NH1:NE_NH1_NH2": 5800, "1_6_O:P_O_C-": 5801, "1_6_O:O_O_C-E_OE1:CG_OE1_OE2": 5802, "1_3_N:N_N_C-F_CE2:CZ_CE2_CD2": 5803, "2_2_N:C_N_C-C_SG:SG_CB_CA": 5804, "1_6_N:C_N_N-P_O:C_N_CA": 5805, "1_1_N:N_C_C-T_OG1:CA_CG2_OG1": 5806, "1_2_O:C_O_C-N_ND2:OD1_ND2_CB": 5807, "2_6_O:O_O_C-Y_CD1:CG_CD1_CE1": 5808, "1_1_F:C_F_C-F_CZ:CE1_CZ_CE2": 5809, "1_1_N:O_N_C-T_OG1:CA_CG2_OG1": 5810, "2_2_S:C_S_C-D_O:C_N_CA": 5811, "2_6_N:N_N_N-N_ND2:OD1_ND2_CB": 5812, "2_6_F:C_F_C-F_CE1:CD1_CE1_CZ": 5813, "2_4_C:O_C_C-F_O:C_N_CA": 5814, "2_3_O:P_O_P-D_OD1:CB_OD1_OD2": 5815, "1_3_O:C_O_C-H_CD2:NE2_CD2_CG": 5816, "2_1_C:N_C_C-W_CZ3:CE3_CZ3_CH2": 5817, "1_6_N:C_N_N-K_CD:CG_CD_CE": 5818, "1_1_C:N_C_C-M_SD:CG_SD_SD": 5819, "1_1_N:N_N_C-Y_O:C_N_CA": 5820, "1_4_C:C_C_N-L_CD1:CB_CD1_CD2": 5821, "2_1_O:N_O_N-T_CG2:CG2_OG1_CA": 5822, "2_6_O:N_O_C-Q_OE1:CG_OE1_NE2": 5823, "1_5_C:N_C_C-G_CA:N_CA_C": 5824, "2_3_N:C_N_C-T_O:C_N_CA": 5825, "2_6_N:N_N_N-E_OE1:CG_OE1_OE2": 5826, "2_6_O:C_O_C-P_O:C_N_CA": 5827, "2_6_C:C_C_N-N_O:C_N_CA": 5828, "2_6_C:O_C_C-P_CB:CG_CB_CA": 5829, "1_1_O:O_O_N-V_O:C_N_CA": 5830, "2_4_C:O_C_C-L_O:C_N_CA": 5831, "1_6_C:C_C_N-W_CH2:CZ3_CH2_CZ2": 5832, "2_1_F:F_F_F-Y_CD2:CE2_CD2_CG": 5833, "2_2_N:C_N_C-P_CB:CG_CB_CA": 5834, "2_5_C:N_C_C-Y_OH:CE1_OH_CE2": 5835, "1_6_C:C_C_N-H_NE2:CE1_NE2_CD2": 5836, "2_6_C:N_C_C-W_NE1:CE2_NE1_CD2": 5837, "1_2_O:C_O_P-Y_OH:CE1_OH_CE2": 5838, "1_2_O:C_O_P-T_OG1:CA_CG2_OG1": 5839, "2_6_O:O_O_O-L_CD1:CB_CD1_CD2": 5840, "2_1_C:C_C_C-W_O:C_N_CA": 5841, "2_1_O:N_O_N-H_CE1:ND1_CE1_NE2": 5842, "2_6_N:C_N_N-R_CG:CB_CG_CD": 5843, "2_3_C:N_C_C-C_O:C_N_CA": 5844, "2_1_N:N_N_N-P_CG:CD_CG_CB": 5845, "1_6_C:C_C_S-F_CD1:CG_CD1_CE1": 5846, "1_1_F:C_F_C-P_O:C_N_CA": 5847, "2_6_O:N_O_C-E_O:C_N_CA": 5848, "1_4_N:P_N_P-": 5849, "1_1_O:O_O_N-F_CE1:CD1_CE1_CZ": 5850, "2_1_N:C_N_C-D_O:C_N_CA": 5851, "2_1_L:C_L_C-W_CZ3:CE3_CZ3_CH2": 5852, "2_2_N:C_N_C-W_CH2:CZ3_CH2_CZ2": 5853, "2_1_C:O_C_C-M_CB:CA_CB_CG": 5854, "1_1_O:O_O_C-W_CD1:NE1_CD1_CG": 5855, "2_6_O:N_O_C-K_CG:CB_CG_CD": 5856, "1_2_C:C_C_C-P_CG:CD_CG_CB": 5857, "2_4_O:C_O_P-R_NH2:NH1_NH2_NE": 5858, "2_4_C:O_C_C-R_O:C_N_CA": 5859, "2_6_N:N_N_C-P_CD:N_CD_CG": 5860, "1_1_N:N_C_C-M_SD:CG_SD_SD": 5861, "1_3_N:N_N_C-F_CD2:CE2_CD2_CG": 5862, "1_2_C:C_C_C-H_ND1:CG_ND1_CE1": 5863, ":N_N_L-": 5864, "2_3_C:C_C_O-": 5865, "2_1_F:F_F_F-R_NH1:NE_NH1_NH2": 5866, "2_1_F:F_F_F-W_CZ2:CH2_CZ2_CE2": 5867, "1_6_O:O_O_O-R_CG:CB_CG_CD": 5868, "1_6_O:N_O_C-R_CG:CB_CG_CD": 5869, "1_3_C:C_C_C-R_NE:CD_NE_CZ": 5870, "1_6_C:C_C_N-M_CG:CB_CG_SD": 5871, "1_4_C:N_C_N-Q_O:C_N_CA": 5872, "2_3_C:O_C_C-L_O:C_N_CA": 5873, "1_3_C:C_C_S-V_CG1:CA_CG1_CG2": 5874, "2_1_O:O_O_N-K_CB:CA_CB_CG": 5875, "1_6_O:O_O_N-G_CA:N_CA_C": 5876, "1_4_O:P_O_P-D_OD2:OD1_OD2_CB": 5877, "2_2_S:C_S_C-A_CB:N_CA_C": 5878, "1_3_N:C_N_C-F_CD2:CE2_CD2_CG": 5879, "2_1_N:C_N_C-S_O:C_N_CA": 5880, "2_1_N:O_N_C-T_CG2:CG2_OG1_CA": 5881, "1_6_C:C_C_B-": 5882, "1_2_C:C_C_C-Y_O:C_N_CA": 5883, "N_OD1AASN": 5884, ":CB_OD1AASN": 5885, "N_OD1AASN:CB_OD1AASN": 5886, "2_1_C:N_C_C-R_NH1:NE_NH1_NH2": 5887, "2_1_N:C_N_C-F_CE1:CD1_CE1_CZ": 5888, "2_2_N:C_N_C-P_CG:CD_CG_CB": 5889, "1_6_C:C_C_L-N_ND2:OD1_ND2_CB": 5890, "1_3_N:C_N_C-V_O:C_N_CA": 5891, "2_1_N:N_N_N-A_O:C_N_CA": 5892, "1_3_C:C_C_S-D_OD2:OD1_OD2_CB": 5893, "_L:N_L_C-": 5894, "2_2_S:C_S_C-H_NE2:CE1_NE2_CD2": 5895, "2_4_O:C_O_C-K_O:C_N_CA": 5896, "2_1_O:O_O_N-L_O:C_N_CA": 5897, "1_4_C:C_C_N-A_CB:N_CA_C": 5898, "2_3_O:C_O_C-W_CZ2:CH2_CZ2_CE2": 5899, "1_3_N:C_N_C-F_CD1:CG_CD1_CE1": 5900, "2_6_C:C_C_O-P_CG:CD_CG_CB": 5901, "2_4_C:N_C_N-M_CG:CB_CG_SD": 5902, "1_1_O:N_O_N-K_CD:CG_CD_CE": 5903, "1_3_O:C_O_C-P_CG:CD_CG_CB": 5904, "2_6_C:N_C_C-T_O:C_N_CA": 5905, "2_6_C:O_C_C-K_CD:CG_CD_CE": 5906, "2_6_O:O_O_C-E_OE2:OE1_OE2_CG": 5907, "2_1_N:N_N_C-T_O:C_N_CA": 5908, "1_1_N:N_N_N-V_CG2:CG1_CG2_CA": 5909, "1_5_O:P_O_P-A_CB:N_CA_C": 5910, "1_6_O:O_O_C-R_NH2:NH1_NH2_NE": 5911, "1_2_C:N_C_C-V_CG1:CA_CG1_CG2": 5912, "2_2_N:C_N_C-M_O:C_N_CA": 5913, "2_3_N:N_N_C-Y_CE1:CD1_CE1_CZ": 5914, "1_4_C:N_C_S-D_OD2:OD1_OD2_CB": 5915, "2_1_C:O_C_C-Y_CD2:CE2_CD2_CG": 5916, "1_1_N:C_N_C-R_NH1:NE_NH1_NH2": 5917, "2_5_N:C_N_C-P_CD:N_CD_CG": 5918, "1_2_S:C_S_C-Y_CE1:CD1_CE1_CZ": 5919, "2_6_N:C_N_N-H_CE1:ND1_CE1_NE2": 5920, "1_6_O:O_O_O-H_CE1:ND1_CE1_NE2": 5921, "1_6_C:N_C_C-A_O:C_N_CA": 5922, "2_1_C:N_C_C-M_SD:CG_SD_SD": 5923, "_O:S_O_O-": 5924, "2_2_O:C_O_C-E_OE2:OE1_OE2_CG": 5925, "2_1_C:N_C_C-H_CD2:NE2_CD2_CG": 5926, "1_5_C:N_C_N-V_CG1:CA_CG1_CG2": 5927, "2_1_O:O_O_N-K_NZ:NZ_CE_CD": 5928, "2_3_C:O_C_C-Y_O:C_N_CA": 5929, "1_6_O:O_O_C-N_ND2:OD1_ND2_CB": 5930, "2_3_N:C_N_C-R_CD:CG_CD_NE": 5931, "2_6_C:C_C_S-W_CE3:CD2_CE3_CZ3": 5932, "1_1_C:N_C_C-R_NH1:NE_NH1_NH2": 5933, "2_1_C:O_C_C-I_CD1:CD1_CG1_CB": 5934, "2_6_C:O_C_C-P_CG:CD_CG_CB": 5935, "1_1_N:N_N_N-I_CG2:CB_CG1_CD1": 5936, "1_3_C:O_C_C-C_O:C_N_CA": 5937, "2_1_L:C_L_C-W_NE1:CE2_NE1_CD2": 5938, "1_3_C:O_C_C-H_O:C_N_CA": 5939, "2_6_C:C_C_N-H_ND1:CG_ND1_CE1": 5940, "1_6_N:N_N_N-R_NH2:NH1_NH2_NE": 5941, "1_5_N:C_N_C-F_CD2:CE2_CD2_CG": 5942, "1_3_C:N_C_S-": 5943, "2_6_C:C_C_O-T_OG1:CA_CG2_OG1": 5944, "1_1_C:O_C_C-P_O:C_N_CA": 5945, "2_6_C:N_C_C-M_O:C_N_CA": 5946, "2_6_O:N_O_N-D_OD2:OD1_OD2_CB": 5947, "1_3_C:C_C_C-H_O:C_N_CA": 5948, "1_6_N:N_N_C-Y_O:C_N_CA": 5949, "2_5_N:C_N_S-": 5950, "2_0_C:C_C_C-Y_OH:CE1_OH_CE2": 5951, "2_3_C:C_C_S-D_OD2:OD1_OD2_CB": 5952, "2_6_N:N_N_N-Y_CD2:CE2_CD2_CG": 5953, "1_1_O:N_O_N-E_OE2:OE1_OE2_CG": 5954, "2_1_F:C_F_C-W_CE3:CD2_CE3_CZ3": 5955, "2_1_L:N_L_N-": 5956, "1_5_N:C_N_C-P_CB:CG_CB_CA": 5957, "2_2_O:C_O_N-": 5958, "2_6_O:O_O_O-H_CD2:NE2_CD2_CG": 5959, "1_6_C:C_C_L-R_NH1:NE_NH1_NH2": 5960, "2_3_O:C_O_C-I_O:C_N_CA": 5961, "2_1_C:O_C_C-K_CD:CG_CD_CE": 5962, "2_2_C:C_C_C-P_CD:N_CD_CG": 5963, "1_6_F:F_F_F-L_CD2:CD1_CD2_CB": 5964, "1_3_N:C_N_C-F_CE2:CZ_CE2_CD2": 5965, "2_2_N:C_N_S-": 5966, "2_1_C:O_C_O-G_CA:N_CA_C": 5967, "2_6_C:P_C_C-": 5968, "2_1_L:C_L_C-R_CG:CB_CG_CD": 5969, "2APHE": 5970, "2_1_O:N_O_N-K_CD:CG_CD_CE": 5971, "2_0_C:C_C_C-F_CE2:CZ_CE2_CD2": 5972, "2_3_C:O_C_C-C_SG:SG_CB_CA": 5973, "2_3_C:O_C_C-M_O:C_N_CA": 5974, "1_3_N:C_N_C-Y_CD2:CE2_CD2_CG": 5975, "1_1_F:F_F_F-F_CD1:CG_CD1_CE1": 5976, "2_3_C:C_C_C-Y_O:C_N_CA": 5977, "2_5_C:C_C_C-D_OD2:OD1_OD2_CB": 5978, "2_5_N:C_N_C-S_O:C_N_CA": 5979, "1_2_O:C_O": 5980, "2_6_C:C_C_O-E_OE2:OE1_OE2_CG": 5981, "1_6_N:N_N_N-E_OE1:CG_OE1_OE2": 5982, "1_3_O:C_O_P-E_OE2:OE1_OE2_CG": 5983, "2_4_O:O_O_C-": 5984, "1_2_N:C_N_C-H_O:C_N_CA": 5985, "1_1_L:C_L_C-F_CZ:CE1_CZ_CE2": 5986, "2_3_N:C_N_C-H_CE1:ND1_CE1_NE2": 5987, "2_6_C:C_C_L-S_O:C_N_CA": 5988, "2_1_F:C_F_C-Q_NE2:NE2_OE1_CG": 5989, "1_4_N:N_N_C-E_O:C_N_CA": 5990, "2_3_C:C_C_C-K_CE:CD_CE_NZ": 5991, "1_1_N:N_N_N-V_CG1:CA_CG1_CG2": 5992, "2_2_C:C_C_C-R_CG:CB_CG_CD": 5993, "2_1_O:N_O_N-S_O:C_N_CA": 5994, "1_2_O:C_O_C-R_NH2:NH1_NH2_NE": 5995, "1_4_C:C_C_N-D_OD2:OD1_OD2_CB": 5996, "2_3_N:N_N_C-S_O:C_N_CA": 5997, "1_5_C:N_C_C-Y_CE2:CZ_CE2_CD2": 5998, "1_6_C:C_C_N-H_CE1:ND1_CE1_NE2": 5999, ":O_C_S-": 6000, "2_5_C:C_C_C-F_CD2:CE2_CD2_CG": 6001, "1_6_N:C_N_N-F_CE2:CZ_CE2_CD2": 6002, "1_2_C:C_C_C-P_CD:N_CD_CG": 6003, "2_5_N:C_N_C-M_SD:CG_SD_SD": 6004, "_F:C_F_F-": 6005, "2_1_C:O_C_C-N_ND2:OD1_ND2_CB": 6006, "2_4_N:P_N_P-": 6007, "1_6_N:N_N_C-Y_CD2:CE2_CD2_CG": 6008, "2_1_F:C_F_C-K_CB:CA_CB_CG": 6009, "2_6_O:O_O_C-W_CZ2:CH2_CZ2_CE2": 6010, "2_6_N:N_N_S-G_CA:N_CA_C": 6011, "1_1_F:F_F_F-Q_OE1:CG_OE1_NE2": 6012, "1_6_O:O_O_O-Y_CE1:CD1_CE1_CZ": 6013, "2_1_O:N_O_N-F_CD2:CE2_CD2_CG": 6014, "1_1_O:O_O_C-W_O:C_N_CA": 6015, "2_5_C:C_C_C-T_CG2:CG2_OG1_CA": 6016, "2_6_N:N_N_S-V_CG2:CG1_CG2_CA": 6017, "1_1_O:O_O_N-Y_CE2:CZ_CE2_CD2": 6018, "1_6_N:C_N_N-R_CD:CG_CD_NE": 6019, "1_1_F:C_F_C-I_O:C_N_CA": 6020, "2_3_C:C_C_S-L_CD2:CD1_CD2_CB": 6021, "2_6_N:C_N_N-L_O:C_N_CA": 6022, "1_3_N:C_N_C-H_NE2:CE1_NE2_CD2": 6023, "1_1_N:C_N_C-G_CA:N_CA_C": 6024, "2_3_N:C_N_C-P_CG:CD_CG_CB": 6025, "1_1_O:N_O_N-E_OE1:CG_OE1_OE2": 6026, "1_4_N:N_N_C-M_SD:CG_SD_SD": 6027, "1_6_C:N_C_C-S_O:C_N_CA": 6028, "2_2_N:C_N_C-W_O:C_N_CA": 6029, "1_4_C:N_C_N-N_O:C_N_CA": 6030, "2_6_O:O_O_C-D_O:C_N_CA": 6031, "1_3_N:C_N_C-W_CH2:CZ3_CH2_CZ2": 6032, "1_3_O:C_O_C-V_O:C_N_CA": 6033, "1_1_C:N_C_C-R_NH2:NH1_NH2_NE": 6034, "2_4_N:C_N_C-P_O:C_N_CA": 6035, "2_2_S:C_S_C-R_NH2:NH1_NH2_NE": 6036, "2_6_O:C_O_C-C_O:C_N_CA": 6037, "2_2_O:C_O_C-A_CB:N_CA_C": 6038, "2_2_O:C_O_C-R_NH2:NH1_NH2_NE": 6039, "2_6_F:C_F_C-V_CG2:CG1_CG2_CA": 6040, "2_3_O:P_O_P-H_NE2:CE1_NE2_CD2": 6041, "1_6_C:S_C_C-": 6042, "1_3_C:C_C_S-V_CG2:CG1_CG2_CA": 6043, "2_1_O:O_O_N-M_CE:CG_SD_CG": 6044, "2_3_C:O_C_C-E_O:C_N_CA": 6045, "1_3_O:P_O_P-R_O:C_N_CA": 6046, "2_6_N:N_N_C-K_CG:CB_CG_CD": 6047, "2_3_N:N_N_C-H_NE2:CE1_NE2_CD2": 6048, "1_3_N:N_N_C-H_O:C_N_CA": 6049, "2_4_C:N_C_N-W_O:C_N_CA": 6050, "1_6_C:N_C_C-T_O:C_N_CA": 6051, "1_6_C:N_C_C-H_CE1:ND1_CE1_NE2": 6052, "1_2_S:C_S_C-L_O:C_N_CA": 6053, "2_3_N:C_N_C-R_NH1:NE_NH1_NH2": 6054, "1_1_N:N_N_C-C_O:C_N_CA": 6055, "1_6_N:C_N_N-F_CZ:CE1_CZ_CE2": 6056, "2_6_O:O_O_C-V_CG1:CA_CG1_CG2": 6057, "2_4_C:O_C_C-E_O:C_N_CA": 6058, "1_1_O:C_O_O-G_CA:N_CA_C": 6059, "1_5_N:C_N_C-H_CE1:ND1_CE1_NE2": 6060, "2_3_O:P_O_P-A_O:C_N_CA": 6061, "2_6_O:N_O_N-Y_CE1:CD1_CE1_CZ": 6062, "1_3_O:P_O_P-E_OE1:CG_OE1_OE2": 6063, "1_2_S:C_S_C-F_CD1:CG_CD1_CE1": 6064, "2_3_O:P_O_P-D_O:C_N_CA": 6065, "2_4_O:C_O_C-M_O:C_N_CA": 6066, "1_1_C:O_C_C-F_CD1:CG_CD1_CE1": 6067, "_N_O-": 6068, "1_2_C:C_C_C-K_CB:CA_CB_CG": 6069, "2_2_C:C_C_C-F_O:C_N_CA": 6070, "1_3_O:C_O_C-W_CZ3:CE3_CZ3_CH2": 6071, "2_0_C:C_C_C-H_NE2:CE1_NE2_CD2": 6072, "2_6_C:C_C_L-D_OD1:CB_OD1_OD2": 6073, "2_1_O:N_O_N-R_NH1:NE_NH1_NH2": 6074, "2_1_C:N_C_C-I_CD1:CD1_CG1_CB": 6075, "1_4_C:F_C_C-": 6076, "2_6_N:N_N_N-K_CD:CG_CD_CE": 6077, "2_1_N:N_N_C-W_NE1:CE2_NE1_CD2": 6078, "2_2_N:C_N_C-H_CD2:NE2_CD2_CG": 6079, "2_4_C:O_C_C-K_CE:CD_CE_NZ": 6080, "1_4_C:N_C_N-H_CE1:ND1_CE1_NE2": 6081, "2_1_N:N_N_N-W_NE1:CE2_NE1_CD2": 6082, "1_4_O:C_O_P-R_NH2:NH1_NH2_NE": 6083, "1_4_N:C_N_N-L_CD1:CB_CD1_CD2": 6084, "2_6_C:N_C_N-L_CD2:CD1_CD2_CB": 6085, "1_6_C:C_C_S-K_CE:CD_CE_NZ": 6086, "2_6_N:N_N_C-T_O:C_N_CA": 6087, "2_5_C:C_C_C-F_CZ:CE1_CZ_CE2": 6088, "1_1_O:O_O_O-M_CB:CA_CB_CG": 6089, "1_4_C:O_C_C-M_O:C_N_CA": 6090, "1_1_C:N_C_C-N_ND2:OD1_ND2_CB": 6091, "1_1_L:C_L_C-K_CD:CG_CD_CE": 6092, "2_2_O:C_O_C-D_O:C_N_CA": 6093, "1_2_N:C_N_C-T_O:C_N_CA": 6094, "1_6_O:N_O_N-D_OD1:CB_OD1_OD2": 6095, "_C:P_C_C-": 6096, "1_6_C:O_C_C-E_OE2:OE1_OE2_CG": 6097, "1_2_C:N_C_C-G_CA:N_CA_C": 6098, "1_6_C:C_C_N-W_CZ3:CE3_CZ3_CH2": 6099, "1_6_L:C_L_C-": 6100, "1_1_O:N_O_N-S_O:C_N_CA": 6101, "2_1_N:N_N_N-F_CE2:CZ_CE2_CD2": 6102, "2_2_N:C_N_C-I_CD1:CD1_CG1_CB": 6103, "2_6_L:C_L_C-": 6104, "2_4_C:O_C_C-H_ND1:CG_ND1_CE1": 6105, "1_2_C:C_C_C-W_CE3:CD2_CE3_CZ3": 6106, "2_3_O:C_O_C-Q_OE1:CG_OE1_NE2": 6107, "2_6_C:C_C_O-R_NH2:NH1_NH2_NE": 6108, "1_2_C:C_C_C-R_O:C_N_CA": 6109, "2_6_O:O_O_C-S_OG:OG_CB_CA": 6110, "2_3_C:N_C_C-W_CD1:NE1_CD1_CG": 6111, "2_1_F:C_F_C-I_CG2:CB_CG1_CD1": 6112, "1_6_C:C_C_S-T_O:C_N_CA": 6113, "2_3_C:O_C_C-R_O:C_N_CA": 6114, "2_1_C:O_C_C-P_CD:N_CD_CG": 6115, "1_6_C:C_C_L-Q_OE1:CG_OE1_NE2": 6116, "2_5_C:C_C_C-S_OG:OG_CB_CA": 6117, "1_4_C:C_C_S-G_O:C_N_CA": 6118, "1_6_C:C_C_N-P_CG:CD_CG_CB": 6119, "1_6_O:O_O_N-G_O:C_N_CA": 6120, "2_1_N:N_N_C-R_O:C_N_CA": 6121, "2_6_C:O_C_C-I_CD1:CD1_CG1_CB": 6122, "2_6_O:O_O_C-R_CD:CG_CD_NE": 6123, "2_6_C:O_C_C-R_NH2:NH1_NH2_NE": 6124, "2_2_O:C_O_P-A_O:C_N_CA": 6125, "1_6_O:N_O_N-L_CD1:CB_CD1_CD2": 6126, "2_6_N:C_N_N-W_NE1:CE2_NE1_CD2": 6127, "1_1_F:O_F_C-": 6128, "1_6_N:N_N_C-K_O:C_N_CA": 6129, "1_6_N:N_N_C-F_CD2:CE2_CD2_CG": 6130, "1_2_C:N_C_C-D_OD1:CB_OD1_OD2": 6131, "2_6_C:N_C_C-E_O:C_N_CA": 6132, "2_3_O:C_O_C-F_O:C_N_CA": 6133, "1_3_O:C_O_P-R_NE:CD_NE_CZ": 6134, "2_3_O:C_O_C-W_CH2:CZ3_CH2_CZ2": 6135, "1_3_O:C_O_P-Y_CE1:CD1_CE1_CZ": 6136, "2_3_N:C_N_N-G_CA:N_CA_C": 6137, "1_6_O:N_O_C-P_O:C_N_CA": 6138, "2_1_C:O_C_C-D_O:C_N_CA": 6139, "1_1_F:F_F_C-L_CD1:CB_CD1_CD2": 6140, "1_4_C:O_C_C-K_O:C_N_CA": 6141, "2_6_F:F_F_F-L_CD2:CD1_CD2_CB": 6142, "2_3_N:C_N_C-A_O:C_N_CA": 6143, "2_4_C:O_C_C-Q_OE1:CG_OE1_NE2": 6144, "1_6_O:N_O_C-N_O:C_N_CA": 6145,
[...]
